{
  "version": "1.0",
  "truncation": {
    "direction": "Right",
    "max_length": 128,
    "strategy": "LongestFirst",
    "stride": 0
  },
  "padding": null,
  "added_tokens": [
    {
      "id": 0,
      "content": "<s>",
      "single_word": false,
      "lstrip": false,
      "rstrip": false,
      "normalized": false,
      "special": true
    },
    {
      "id": 1,
      "content": "<pad>",
      "single_word": false,
      "lstrip": false,
      "rstrip": false,
      "normalized": false,
      "special": true
    },
    {
      "id": 2,
      "content": "</s>",
      "single_word": false,
      "lstrip": false,
      "rstrip": false,
      "normalized": false,
      "special": true
    },
    {
      "id": 4,
      "content": "<unk>",
      "single_word": false,
      "lstrip": false,
      "rstrip": false,
      "normalized": false,
      "special": true
    },
    {
      "id": 70005,
      "content": "<mask>",
      "single_word": false,
      "lstrip": false,
      "rstrip": false,
      "normalized": false,
      "special": true
    }
  ],
  "normalizer": {
    "type": "Sequence",
    "normalizers": [
      {
        "type": "Strip",
        "strip_left": false,
        "strip_right": true
      },
      {
        "type": "Replace",
        "pattern": {
          "String": " {2,}"
        },
        "content": "▁"
      }
    ]
  },
  "pre_tokenizer": {
    "type": "Sequence",
    "pretokenizers": [
      {
        "type": "WhitespaceSplit"
      },
      {
        "type": "Metaspace",
        "replacement": "▁",
        "prepend_scheme": "always",
        "split": true
      }
    ]
  },
  "post_processor": {
    "type": "TemplateProcessing",
    "single": [
      {
        "SpecialToken": {
          "id": "<s>",
          "type_id": 0
        }
      },
      {
        "Sequence": {
          "id": "A",
          "type_id": 0
        }
      },
      {
        "SpecialToken": {
          "id": "</s>",
          "type_id": 0
        }
      }
    ],
    "pair": [
      {
        "SpecialToken": {
          "id": "<s>",
          "type_id": 0
        }
      },
      {
        "Sequence": {
          "id": "A",
          "type_id": 0
        }
      },
      {
        "SpecialToken": {
          "id": "</s>",
          "type_id": 0
        }
      },
      {
        "Sequence": {
          "id": "B",
          "type_id": 0
        }
      },
      {
        "SpecialToken": {
          "id": "</s>",
          "type_id": 0
        }
      }
    ],
    "special_tokens": {
      "</s>": {
        "id": "</s>",
        "ids": [
          2
        ],
        "tokens": [
          "</s>"
        ]
      },
      "<s>": {
        "id": "<s>",
        "ids": [
          0
        ],
        "tokens": [
          "<s>"
        ]
      }
    }
  },
  "decoder": {
    "type": "Metaspace",
    "replacement": "▁",
    "prepend_scheme": "always",
    "split": true
  },
  "model": {
    "type": "Unigram",
    "unk_id": 3,
    "vocab": [
      [
        "<s>",
        0.0
      ],
      [
        "<pad>",
        0.0
      ],
      [
        "</s>",
        0.0
      ],
      [
        "<unk>",
        0.0
      ],
      [
        "<unk>",
        0.0
      ],
      [
        "<0x00>",
        0.0
      ],
      [
        "<0x01>",
        0.0
      ],
      [
        "<0x02>",
        0.0
      ],
      [
        "<0x03>",
        0.0
      ],
      [
        "<0x04>",
        0.0
      ],
      [
        "<0x05>",
        0.0
      ],
      [
        "<0x06>",
        0.0
      ],
      [
        "<0x07>",
        0.0
      ],
      [
        "<0x08>",
        0.0
      ],
      [
        "<0x09>",
        0.0
      ],
      [
        "<0x0A>",
        0.0
      ],
      [
        "<0x0B>",
        0.0
      ],
      [
        "<0x0C>",
        0.0
      ],
      [
        "<0x0D>",
        0.0
      ],
      [
        "<0x0E>",
        0.0
      ],
      [
        "<0x0F>",
        0.0
      ],
      [
        "<0x10>",
        0.0
      ],
      [
        "<0x11>",
        0.0
      ],
      [
        "<0x12>",
        0.0
      ],
      [
        "<0x13>",
        0.0
      ],
      [
        "<0x14>",
        0.0
      ],
      [
        "<0x15>",
        0.0
      ],
      [
        "<0x16>",
        0.0
      ],
      [
        "<0x17>",
        0.0
      ],
      [
        "<0x18>",
        0.0
      ],
      [
        "<0x19>",
        0.0
      ],
      [
        "<0x1A>",
        0.0
      ],
      [
        "<0x1B>",
        0.0
      ],
      [
        "<0x1C>",
        0.0
      ],
      [
        "<0x1D>",
        0.0
      ],
      [
        "<0x1E>",
        0.0
      ],
      [
        "<0x1F>",
        0.0
      ],
      [
        "<0x20>",
        0.0
      ],
      [
        "<0x21>",
        0.0
      ],
      [
        "<0x22>",
        0.0
      ],
      [
        "<0x23>",
        0.0
      ],
      [
        "<0x24>",
        0.0
      ],
      [
        "<0x25>",
        0.0
      ],
      [
        "<0x26>",
        0.0
      ],
      [
        "<0x27>",
        0.0
      ],
      [
        "<0x28>",
        0.0
      ],
      [
        "<0x29>",
        0.0
      ],
      [
        "<0x2A>",
        0.0
      ],
      [
        "<0x2B>",
        0.0
      ],
      [
        "<0x2C>",
        0.0
      ],
      [
        "<0x2D>",
        0.0
      ],
      [
        "<0x2E>",
        0.0
      ],
      [
        "<0x2F>",
        0.0
      ],
      [
        "<0x30>",
        0.0
      ],
      [
        "<0x31>",
        0.0
      ],
      [
        "<0x32>",
        0.0
      ],
      [
        "<0x33>",
        0.0
      ],
      [
        "<0x34>",
        0.0
      ],
      [
        "<0x35>",
        0.0
      ],
      [
        "<0x36>",
        0.0
      ],
      [
        "<0x37>",
        0.0
      ],
      [
        "<0x38>",
        0.0
      ],
      [
        "<0x39>",
        0.0
      ],
      [
        "<0x3A>",
        0.0
      ],
      [
        "<0x3B>",
        0.0
      ],
      [
        "<0x3C>",
        0.0
      ],
      [
        "<0x3D>",
        0.0
      ],
      [
        "<0x3E>",
        0.0
      ],
      [
        "<0x3F>",
        0.0
      ],
      [
        "<0x40>",
        0.0
      ],
      [
        "<0x41>",
        0.0
      ],
      [
        "<0x42>",
        0.0
      ],
      [
        "<0x43>",
        0.0
      ],
      [
        "<0x44>",
        0.0
      ],
      [
        "<0x45>",
        0.0
      ],
      [
        "<0x46>",
        0.0
      ],
      [
        "<0x47>",
        0.0
      ],
      [
        "<0x48>",
        0.0
      ],
      [
        "<0x49>",
        0.0
      ],
      [
        "<0x4A>",
        0.0
      ],
      [
        "<0x4B>",
        0.0
      ],
      [
        "<0x4C>",
        0.0
      ],
      [
        "<0x4D>",
        0.0
      ],
      [
        "<0x4E>",
        0.0
      ],
      [
        "<0x4F>",
        0.0
      ],
      [
        "<0x50>",
        0.0
      ],
      [
        "<0x51>",
        0.0
      ],
      [
        "<0x52>",
        0.0
      ],
      [
        "<0x53>",
        0.0
      ],
      [
        "<0x54>",
        0.0
      ],
      [
        "<0x55>",
        0.0
      ],
      [
        "<0x56>",
        0.0
      ],
      [
        "<0x57>",
        0.0
      ],
      [
        "<0x58>",
        0.0
      ],
      [
        "<0x59>",
        0.0
      ],
      [
        "<0x5A>",
        0.0
      ],
      [
        "<0x5B>",
        0.0
      ],
      [
        "<0x5C>",
        0.0
      ],
      [
        "<0x5D>",
        0.0
      ],
      [
        "<0x5E>",
        0.0
      ],
      [
        "<0x5F>",
        0.0
      ],
      [
        "<0x60>",
        0.0
      ],
      [
        "<0x61>",
        0.0
      ],
      [
        "<0x62>",
        0.0
      ],
      [
        "<0x63>",
        0.0
      ],
      [
        "<0x64>",
        0.0
      ],
      [
        "<0x65>",
        0.0
      ],
      [
        "<0x66>",
        0.0
      ],
      [
        "<0x67>",
        0.0
      ],
      [
        "<0x68>",
        0.0
      ],
      [
        "<0x69>",
        0.0
      ],
      [
        "<0x6A>",
        0.0
      ],
      [
        "<0x6B>",
        0.0
      ],
      [
        "<0x6C>",
        0.0
      ],
      [
        "<0x6D>",
        0.0
      ],
      [
        "<0x6E>",
        0.0
      ],
      [
        "<0x6F>",
        0.0
      ],
      [
        "<0x70>",
        0.0
      ],
      [
        "<0x71>",
        0.0
      ],
      [
        "<0x72>",
        0.0
      ],
      [
        "<0x73>",
        0.0
      ],
      [
        "<0x74>",
        0.0
      ],
      [
        "<0x75>",
        0.0
      ],
      [
        "<0x76>",
        0.0
      ],
      [
        "<0x77>",
        0.0
      ],
      [
        "<0x78>",
        0.0
      ],
      [
        "<0x79>",
        0.0
      ],
      [
        "<0x7A>",
        0.0
      ],
      [
        "<0x7B>",
        0.0
      ],
      [
        "<0x7C>",
        0.0
      ],
      [
        "<0x7D>",
        0.0
      ],
      [
        "<0x7E>",
        0.0
      ],
      [
        "<0x7F>",
        0.0
      ],
      [
        "<0x80>",
        0.0
      ],
      [
        "<0x81>",
        0.0
      ],
      [
        "<0x82>",
        0.0
      ],
      [
        "<0x83>",
        0.0
      ],
      [
        "<0x84>",
        0.0
      ],
      [
        "<0x85>",
        0.0
      ],
      [
        "<0x86>",
        0.0
      ],
      [
        "<0x87>",
        0.0
      ],
      [
        "<0x88>",
        0.0
      ],
      [
        "<0x89>",
        0.0
      ],
      [
        "<0x8A>",
        0.0
      ],
      [
        "<0x8B>",
        0.0
      ],
      [
        "<0x8C>",
        0.0
      ],
      [
        "<0x8D>",
        0.0
      ],
      [
        "<0x8E>",
        0.0
      ],
      [
        "<0x8F>",
        0.0
      ],
      [
        "<0x90>",
        0.0
      ],
      [
        "<0x91>",
        0.0
      ],
      [
        "<0x92>",
        0.0
      ],
      [
        "<0x93>",
        0.0
      ],
      [
        "<0x94>",
        0.0
      ],
      [
        "<0x95>",
        0.0
      ],
      [
        "<0x96>",
        0.0
      ],
      [
        "<0x97>",
        0.0
      ],
      [
        "<0x98>",
        0.0
      ],
      [
        "<0x99>",
        0.0
      ],
      [
        "<0x9A>",
        0.0
      ],
      [
        "<0x9B>",
        0.0
      ],
      [
        "<0x9C>",
        0.0
      ],
      [
        "<0x9D>",
        0.0
      ],
      [
        "<0x9E>",
        0.0
      ],
      [
        "<0x9F>",
        0.0
      ],
      [
        "<0xA0>",
        0.0
      ],
      [
        "<0xA1>",
        0.0
      ],
      [
        "<0xA2>",
        0.0
      ],
      [
        "<0xA3>",
        0.0
      ],
      [
        "<0xA4>",
        0.0
      ],
      [
        "<0xA5>",
        0.0
      ],
      [
        "<0xA6>",
        0.0
      ],
      [
        "<0xA7>",
        0.0
      ],
      [
        "<0xA8>",
        0.0
      ],
      [
        "<0xA9>",
        0.0
      ],
      [
        "<0xAA>",
        0.0
      ],
      [
        "<0xAB>",
        0.0
      ],
      [
        "<0xAC>",
        0.0
      ],
      [
        "<0xAD>",
        0.0
      ],
      [
        "<0xAE>",
        0.0
      ],
      [
        "<0xAF>",
        0.0
      ],
      [
        "<0xB0>",
        0.0
      ],
      [
        "<0xB1>",
        0.0
      ],
      [
        "<0xB2>",
        0.0
      ],
      [
        "<0xB3>",
        0.0
      ],
      [
        "<0xB4>",
        0.0
      ],
      [
        "<0xB5>",
        0.0
      ],
      [
        "<0xB6>",
        0.0
      ],
      [
        "<0xB7>",
        0.0
      ],
      [
        "<0xB8>",
        0.0
      ],
      [
        "<0xB9>",
        0.0
      ],
      [
        "<0xBA>",
        0.0
      ],
      [
        "<0xBB>",
        0.0
      ],
      [
        "<0xBC>",
        0.0
      ],
      [
        "<0xBD>",
        0.0
      ],
      [
        "<0xBE>",
        0.0
      ],
      [
        "<0xBF>",
        0.0
      ],
      [
        "<0xC0>",
        0.0
      ],
      [
        "<0xC1>",
        0.0
      ],
      [
        "<0xC2>",
        0.0
      ],
      [
        "<0xC3>",
        0.0
      ],
      [
        "<0xC4>",
        0.0
      ],
      [
        "<0xC5>",
        0.0
      ],
      [
        "<0xC6>",
        0.0
      ],
      [
        "<0xC7>",
        0.0
      ],
      [
        "<0xC8>",
        0.0
      ],
      [
        "<0xC9>",
        0.0
      ],
      [
        "<0xCA>",
        0.0
      ],
      [
        "<0xCB>",
        0.0
      ],
      [
        "<0xCC>",
        0.0
      ],
      [
        "<0xCD>",
        0.0
      ],
      [
        "<0xCE>",
        0.0
      ],
      [
        "<0xCF>",
        0.0
      ],
      [
        "<0xD0>",
        0.0
      ],
      [
        "<0xD1>",
        0.0
      ],
      [
        "<0xD2>",
        0.0
      ],
      [
        "<0xD3>",
        0.0
      ],
      [
        "<0xD4>",
        0.0
      ],
      [
        "<0xD5>",
        0.0
      ],
      [
        "<0xD6>",
        0.0
      ],
      [
        "<0xD7>",
        0.0
      ],
      [
        "<0xD8>",
        0.0
      ],
      [
        "<0xD9>",
        0.0
      ],
      [
        "<0xDA>",
        0.0
      ],
      [
        "<0xDB>",
        0.0
      ],
      [
        "<0xDC>",
        0.0
      ],
      [
        "<0xDD>",
        0.0
      ],
      [
        "<0xDE>",
        0.0
      ],
      [
        "<0xDF>",
        0.0
      ],
      [
        "<0xE0>",
        0.0
      ],
      [
        "<0xE1>",
        0.0
      ],
      [
        "<0xE2>",
        0.0
      ],
      [
        "<0xE3>",
        0.0
      ],
      [
        "<0xE4>",
        0.0
      ],
      [
        "<0xE5>",
        0.0
      ],
      [
        "<0xE6>",
        0.0
      ],
      [
        "<0xE7>",
        0.0
      ],
      [
        "<0xE8>",
        0.0
      ],
      [
        "<0xE9>",
        0.0
      ],
      [
        "<0xEA>",
        0.0
      ],
      [
        "<0xEB>",
        0.0
      ],
      [
        "<0xEC>",
        0.0
      ],
      [
        "<0xED>",
        0.0
      ],
      [
        "<0xEE>",
        0.0
      ],
      [
        "<0xEF>",
        0.0
      ],
      [
        "<0xF0>",
        0.0
      ],
      [
        "<0xF1>",
        0.0
      ],
      [
        "<0xF2>",
        0.0
      ],
      [
        "<0xF3>",
        0.0
      ],
      [
        "<0xF4>",
        0.0
      ],
      [
        "<0xF5>",
        0.0
      ],
      [
        "<0xF6>",
        0.0
      ],
      [
        "<0xF7>",
        0.0
      ],
      [
        "<0xF8>",
        0.0
      ],
      [
        "<0xF9>",
        0.0
      ],
      [
        "<0xFA>",
        0.0
      ],
      [
        "<0xFB>",
        0.0
      ],
      [
        "<0xFC>",
        0.0
      ],
      [
        "<0xFD>",
        0.0
      ],
      [
        "<0xFE>",
        0.0
      ],
      [
        "<0xFF>",
        0.0
      ],
      [
        "▁",
        -3.3658480644226074
      ],
      [
        ",",
        -3.7044754028320312
      ],
      [
        ".",
        -4.03678560256958
      ],
      [
        "2",
        -4.203046798706055
      ],
      [
        "0",
        -4.301297664642334
      ],
      [
        "▁na",
        -4.523355484008789
      ],
      [
        "1",
        -4.623412609100342
      ],
      [
        "▁ya",
        -4.812033176422119
      ],
      [
        "'",
        -4.875813961029053
      ],
      [
        "▁da",
        -5.072787284851074
      ],
      [
        "-",
        -5.090845584869385
      ],
      [
        "▁wa",
        -5.30910062789917
      ],
      [
        "▁a",
        -5.322011470794678
      ],
      [
        ":",
        -5.431440353393555
      ],
      [
        "▁ka",
        -5.497791290283203
      ],
      [
        "3",
        -5.504764556884766
      ],
      [
        "▁ku",
        -5.536786079406738
      ],
      [
        "n",
        -5.565499305725098
      ],
      [
        "a",
        -5.703451156616211
      ],
      [
        "’",
        -5.720497131347656
      ],
      [
        "ን",
        -5.76375675201416
      ],
      [
        "▁oo",
        -5.775700569152832
      ],
      [
        "5",
        -5.811899185180664
      ],
      [
        "▁di",
        -5.81572961807251
      ],
      [
        "▁n",
        -5.866790771484375
      ],
      [
        "▁ni",
        -5.949262619018555
      ],
      [
        "6",
        -5.967665195465088
      ],
      [
        "▁ta",
        -5.989879608154297
      ],
      [
        "▁for",
        -5.990095138549805
      ],
      [
        "4",
        -6.019267559051514
      ],
      [
        "́",
        -6.030450820922852
      ],
      [
        "8",
        -6.040343284606934
      ],
      [
        "▁to",
        -6.047597885131836
      ],
      [
        "̀",
        -6.073226451873779
      ],
      [
        "9",
        -6.078110218048096
      ],
      [
        "▁ay",
        -6.101336479187012
      ],
      [
        "▁la",
        -6.114072322845459
      ],
      [
        "▁u",
        -6.178643226623535
      ],
      [
        "7",
        -6.194733142852783
      ],
      [
        ")",
        -6.22355318069458
      ],
      [
        "▁iyo",
        -6.230068683624268
      ],
      [
        "▁(",
        -6.2305192947387695
      ],
      [
        "▁in",
        -6.24967622756958
      ],
      [
        "▁kwa",
        -6.265008926391602
      ],
      [
        "▁ah",
        -6.269149303436279
      ],
      [
        "i",
        -6.276661396026611
      ],
      [
        "ና",
        -6.282673358917236
      ],
      [
        "s",
        -6.296788215637207
      ],
      [
        "▁wey",
        -6.319967269897461
      ],
      [
        "ም",
        -6.352673530578613
      ],
      [
        "▁dey",
        -6.35775089263916
      ],
      [
        "▁የ",
        -6.374399662017822
      ],
      [
        "▁\"",
        -6.380448341369629
      ],
      [
        "▁mu",
        -6.381877899169922
      ],
      [
        "▁ee",
        -6.391148090362549
      ],
      [
        "th",
        -6.3980207443237305
      ],
      [
        "?",
        -6.416645526885986
      ],
      [
        "▁ba",
        -6.426804065704346
      ],
      [
        "▁በ",
        -6.427465915679932
      ],
      [
        "▁A",
        -6.4626898765563965
      ],
      [
        "▁I",
        -6.514832973480225
      ],
      [
        "o",
        -6.529209136962891
      ],
      [
        "፣",
        -6.54292106628418
      ],
      [
        "▁ko",
        -6.543587684631348
      ],
      [
        "▁and",
        -6.544614791870117
      ],
      [
        "▁Video",
        -6.575361728668213
      ],
      [
        "▁kan",
        -6.586465358734131
      ],
      [
        "▁za",
        -6.610363483428955
      ],
      [
        "▁don",
        -6.616985321044922
      ],
      [
        "e",
        -6.635079860687256
      ],
      [
        "▁si",
        -6.636545658111572
      ],
      [
        "▁fi",
        -6.655368804931641
      ],
      [
        "▁of",
        -6.657708644866943
      ],
      [
        "▁uu",
        -6.664552211761475
      ],
      [
        "▁ti",
        -6.672147750854492
      ],
      [
        "▁“",
        -6.677509307861328
      ],
      [
        "▁ayaa",
        -6.690901279449463
      ],
      [
        "▁ma",
        -6.766406059265137
      ],
      [
        "▁-",
        -6.781785488128662
      ],
      [
        "▁ga",
        -6.790135383605957
      ],
      [
        "na",
        -6.805601596832275
      ],
      [
        "▁'",
        -6.80943489074707
      ],
      [
        "▁ከ",
        -6.825336933135986
      ],
      [
        "▁soo",
        -6.8275275230407715
      ],
      [
        "/",
        -6.833788871765137
      ],
      [
        "▁ndị",
        -6.850877285003662
      ],
      [
        "ka",
        -6.880088806152344
      ],
      [
        "፡",
        -6.886918067932129
      ],
      [
        "▁ọ",
        -6.889935493469238
      ],
      [
        "▁September",
        -6.903744697570801
      ],
      [
        "▁Nigeria",
        -6.908038139343262
      ],
      [
        "u",
        -6.917220115661621
      ],
      [
        "▁katika",
        -6.921698093414307
      ],
      [
        "▁Duration",
        -6.922263145446777
      ],
      [
        "▁ላይ",
        -6.935543537139893
      ],
      [
        "።",
        -6.940979957580566
      ],
      [
        "▁ha",
        -6.952888011932373
      ],
      [
        "ው",
        -6.972681522369385
      ],
      [
        "ta",
        -6.973031997680664
      ],
      [
        "an",
        -6.973486423492432
      ],
      [
        "▁nke",
        -6.981513023376465
      ],
      [
        "▁dem",
        -6.9927263259887695
      ],
      [
        "▁ኣብ",
        -6.995594024658203
      ],
      [
        "▁kuwa",
        -7.027158737182617
      ],
      [
        "▁እና",
        -7.040753364562988
      ],
      [
        "ት",
        -7.0612053871154785
      ],
      [
        "”",
        -7.085953712463379
      ],
      [
        "▁yi",
        -7.087861061096191
      ],
      [
        "▁October",
        -7.10976505279541
      ],
      [
        "▁bụ",
        -7.1203155517578125
      ],
      [
        "▁kuma",
        -7.127858638763428
      ],
      [
        "▁say",
        -7.1419291496276855
      ],
      [
        "▁y",
        -7.144479751586914
      ],
      [
        "wa",
        -7.18898344039917
      ],
      [
        "▁ne",
        -7.197015762329102
      ],
      [
        "▁dis",
        -7.205404281616211
      ],
      [
        "\"",
        -7.219151020050049
      ],
      [
        "▁su",
        -7.252158164978027
      ],
      [
        "ni",
        -7.263554573059082
      ],
      [
        "▁ለ",
        -7.26841402053833
      ],
      [
        "▁go",
        -7.27312707901001
      ],
      [
        "▁U",
        -7.287178993225098
      ],
      [
        "▁we",
        -7.287222385406494
      ],
      [
        "▁M",
        -7.2887067794799805
      ],
      [
        "▁ነው",
        -7.292746543884277
      ],
      [
        "▁akka",
        -7.293677806854248
      ],
      [
        "፤",
        -7.304607391357422
      ],
      [
        "▁tí",
        -7.308659076690674
      ],
      [
        "▁hin",
        -7.324725151062012
      ],
      [
        "▁ihe",
        -7.338306427001953
      ],
      [
        "▁i",
        -7.349643707275391
      ],
      [
        "▁aka",
        -7.355093479156494
      ],
      [
        "▁from",
        -7.364956378936768
      ],
      [
        "▁e",
        -7.393905162811279
      ],
      [
        "▁m",
        -7.398193836212158
      ],
      [
        "▁ban",
        -7.402184009552002
      ],
      [
        "sa",
        -7.419197082519531
      ],
      [
        "da",
        -7.431800842285156
      ],
      [
        "r",
        -7.434762477874756
      ],
      [
        "ra",
        -7.438117504119873
      ],
      [
        "▁Meet",
        -7.464852333068848
      ],
      [
        "▁lagu",
        -7.472557067871094
      ],
      [
        "f",
        -7.472562313079834
      ],
      [
        "▁waxaa",
        -7.473066329956055
      ],
      [
        "▁no",
        -7.473311901092529
      ],
      [
        "▁o",
        -7.489233016967773
      ],
      [
        "▁BBC",
        -7.497520446777344
      ],
      [
        "▁mid",
        -7.504992961883545
      ],
      [
        "ba",
        -7.5265374183654785
      ],
      [
        "▁wọn",
        -7.528411865234375
      ],
      [
        "▁de",
        -7.5309858322143555
      ],
      [
        "▁dị",
        -7.533097743988037
      ],
      [
        "፡፡",
        -7.540879726409912
      ],
      [
        "▁ugu",
        -7.553763389587402
      ],
      [
        "▁ke",
        -7.562495231628418
      ],
      [
        "▁rẹ",
        -7.564193248748779
      ],
      [
        "▁cha",
        -7.57109260559082
      ],
      [
        "▁N",
        -7.572709083557129
      ],
      [
        "ga",
        -7.579204559326172
      ],
      [
        "▁muri",
        -7.6007304191589355
      ],
      [
        "!",
        -7.614141464233398
      ],
      [
        "▁suka",
        -7.618111610412598
      ],
      [
        "▁kale",
        -7.623147964477539
      ],
      [
        "▁waa",
        -7.630604267120361
      ],
      [
        "m",
        -7.6353440284729
      ],
      [
        "▁sun",
        -7.6359052658081055
      ],
      [
        "▁aan",
        -7.647360324859619
      ],
      [
        "▁waxa",
        -7.651430606842041
      ],
      [
        "▁ní",
        -7.656902313232422
      ],
      [
        "▁ወደ",
        -7.6614556312561035
      ],
      [
        "▁daga",
        -7.66908073425293
      ],
      [
        "tti",
        -7.673056602478027
      ],
      [
        "yan",
        -7.682490348815918
      ],
      [
        "▁ce",
        -7.683481693267822
      ],
      [
        "▁as",
        -7.6919121742248535
      ],
      [
        "▁ውስጥ",
        -7.704506874084473
      ],
      [
        "▁kama",
        -7.705857276916504
      ],
      [
        "▁foto",
        -7.707648277282715
      ],
      [
        "▁im",
        -7.708563804626465
      ],
      [
        "aa",
        -7.709203720092773
      ],
      [
        "la",
        -7.714025020599365
      ],
      [
        "▁Afrika",
        -7.719141960144043
      ],
      [
        "▁come",
        -7.71986722946167
      ],
      [
        "▁àwọn",
        -7.744507312774658
      ],
      [
        "▁cikin",
        -7.744985103607178
      ],
      [
        "▁ṣe",
        -7.745103359222412
      ],
      [
        "nd",
        -7.749471664428711
      ],
      [
        ";",
        -7.752206802368164
      ],
      [
        "▁awọn",
        -7.756619930267334
      ],
      [
        "▁pass",
        -7.759160041809082
      ],
      [
        "▁bi",
        -7.768327713012695
      ],
      [
        "▁O",
        -7.769014835357666
      ],
      [
        "▁w",
        -7.772752285003662
      ],
      [
        "▁ahụ",
        -7.773346900939941
      ],
      [
        "▁ati",
        -7.773948669433594
      ],
      [
        "▁loo",
        -7.781392574310303
      ],
      [
        "▁cewa",
        -7.782928466796875
      ],
      [
        "▁ግን",
        -7.785711288452148
      ],
      [
        "▁‘",
        -7.79006290435791
      ],
      [
        "▁badan",
        -7.795409202575684
      ],
      [
        "I",
        -7.803649425506592
      ],
      [
        "▁inside",
        -7.803722858428955
      ],
      [
        "▁pipo",
        -7.805711269378662
      ],
      [
        "▁Na",
        -7.80757474899292
      ],
      [
        "▁ይ",
        -7.81315279006958
      ],
      [
        "y",
        -7.814493179321289
      ],
      [
        "ku",
        -7.820765972137451
      ],
      [
        "▁የሚ",
        -7.8222808837890625
      ],
      [
        "ti",
        -7.830517292022705
      ],
      [
        "▁kasar",
        -7.831973552703857
      ],
      [
        "▁Soomaaliya",
        -7.838358402252197
      ],
      [
        "ya",
        -7.842273712158203
      ],
      [
        "▁yake",
        -7.842841625213623
      ],
      [
        "in",
        -7.844048023223877
      ],
      [
        "▁shi",
        -7.84566068649292
      ],
      [
        "▁mai",
        -7.847037315368652
      ],
      [
        "▁Oromoo",
        -7.84843111038208
      ],
      [
        "ma",
        -7.853154182434082
      ],
      [
        "▁ነው።",
        -7.858821868896484
      ],
      [
        "▁make",
        -7.8609819412231445
      ],
      [
        "▁pe",
        -7.868203163146973
      ],
      [
        "▁maka",
        -7.871235370635986
      ],
      [
        "ee",
        -7.871730327606201
      ],
      [
        "▁ó",
        -7.87583589553833
      ],
      [
        "▁ki",
        -7.877342700958252
      ],
      [
        "▁እንደ",
        -7.879938125610352
      ],
      [
        "st",
        -7.879997253417969
      ],
      [
        "▁ጋር",
        -7.885250568389893
      ],
      [
        "▁aad",
        -7.902382850646973
      ],
      [
        "▁፡",
        -7.90358304977417
      ],
      [
        "▁face",
        -7.905632972717285
      ],
      [
        "▁ẹ",
        -7.913969993591309
      ],
      [
        "▁fit",
        -7.919887542724609
      ],
      [
        "▁be",
        -7.9254045486450195
      ],
      [
        "d",
        -7.9277663230896
      ],
      [
        "ር",
        -7.9282636642456055
      ],
      [
        "በት",
        -7.929541110992432
      ],
      [
        "\",",
        -7.9356560707092285
      ],
      [
        "▁oda",
        -7.939775466918945
      ],
      [
        "▁wax",
        -7.942905426025391
      ],
      [
        "▁hiyo",
        -7.944594860076904
      ],
      [
        "▁one",
        -7.944623947143555
      ],
      [
        "▁wannan",
        -7.945193290710449
      ],
      [
        "▁you",
        -7.947547912597656
      ],
      [
        "tu",
        -7.948816776275635
      ],
      [
        "t",
        -7.958444118499756
      ],
      [
        "ስ",
        -7.971320629119873
      ],
      [
        "▁laga",
        -7.973703384399414
      ],
      [
        "▁Buhari",
        -7.979567527770996
      ],
      [
        "▁naa",
        -7.985678195953369
      ],
      [
        "▁wani",
        -7.987297058105469
      ],
      [
        "un",
        -7.990077495574951
      ],
      [
        "▁gị",
        -7.998918533325195
      ],
      [
        "▁አ",
        -8.005390167236328
      ],
      [
        "▁sheegay",
        -8.005542755126953
      ],
      [
        "▁ነው፡፡",
        -8.005929946899414
      ],
      [
        "▁FSARS",
        -8.007073402404785
      ],
      [
        "mu",
        -8.009849548339844
      ],
      [
        "▁sa",
        -8.018190383911133
      ],
      [
        "▁onye",
        -8.026439666748047
      ],
      [
        "▁ቤት",
        -8.030882835388184
      ],
      [
        "ji",
        -8.031262397766113
      ],
      [
        "የ",
        -8.036686897277832
      ],
      [
        "▁Di",
        -8.041406631469727
      ],
      [
        "▁take",
        -8.041521072387695
      ],
      [
        "▁Ka",
        -8.042397499084473
      ],
      [
        "su",
        -8.042645454406738
      ],
      [
        "▁waxay",
        -8.045710563659668
      ],
      [
        "▁kana",
        -8.050469398498535
      ],
      [
        "▁fun",
        -8.051108360290527
      ],
      [
        "▁ike",
        -8.0534086227417
      ],
      [
        "▁about",
        -8.054073333740234
      ],
      [
        "ውን",
        -8.054089546203613
      ],
      [
        "▁See",
        -8.054112434387207
      ],
      [
        "▁lọ",
        -8.054166793823242
      ],
      [
        "re",
        -8.055459976196289
      ],
      [
        "▁yoo",
        -8.056191444396973
      ],
      [
        "▁kwenye",
        -8.05953311920166
      ],
      [
        "▁me",
        -8.061574935913086
      ],
      [
        "A",
        -8.063355445861816
      ],
      [
        "▁–",
        -8.06816577911377
      ],
      [
        "▁vya",
        -8.068376541137695
      ],
      [
        "▁መ",
        -8.068583488464355
      ],
      [
        "▁ጊዜ",
        -8.072535514831543
      ],
      [
        "▁ነገር",
        -8.076089859008789
      ],
      [
        "▁on",
        -8.077494621276855
      ],
      [
        "▁Ọ",
        -8.082096099853516
      ],
      [
        "▁ጥሪ",
        -8.082843780517578
      ],
      [
        "▁_",
        -8.083128929138184
      ],
      [
        "▁dalka",
        -8.084924697875977
      ],
      [
        "▁Twitter",
        -8.096717834472656
      ],
      [
        "▁post",
        -8.099124908447266
      ],
      [
        "▁Ku",
        -8.100259780883789
      ],
      [
        "▁bu",
        -8.105642318725586
      ],
      [
        "▁rw",
        -8.107069969177246
      ],
      [
        "...",
        -8.111323356628418
      ],
      [
        "▁her",
        -8.118537902832031
      ],
      [
        "▁ń",
        -8.11895751953125
      ],
      [
        "k",
        -8.12324333190918
      ],
      [
        "le",
        -8.132701873779297
      ],
      [
        "▁dia",
        -8.134431838989258
      ],
      [
        "▁E",
        -8.136960983276367
      ],
      [
        "uu",
        -8.138019561767578
      ],
      [
        "▁hours",
        -8.138742446899414
      ],
      [
        "▁nwere",
        -8.142687797546387
      ],
      [
        "aan",
        -8.149852752685547
      ],
      [
        "▁how",
        -8.151490211486816
      ],
      [
        "fi",
        -8.155418395996094
      ],
      [
        "ko",
        -8.158041954040527
      ],
      [
        "▁Ya",
        -8.160388946533203
      ],
      [
        "▁ji",
        -8.161977767944336
      ],
      [
        "▁irratti",
        -8.165322303771973
      ],
      [
        "▁mi",
        -8.166969299316406
      ],
      [
        "▁inay",
        -8.171675682067871
      ],
      [
        "te",
        -8.181482315063477
      ],
      [
        "▁mwaka",
        -8.18208122253418
      ],
      [
        "ri",
        -8.182438850402832
      ],
      [
        "si",
        -8.185206413269043
      ],
      [
        "▁well",
        -8.186777114868164
      ],
      [
        "▁ama",
        -8.187369346618652
      ],
      [
        "▁kala",
        -8.187419891357422
      ],
      [
        "to",
        -8.194218635559082
      ],
      [
        "rd",
        -8.195627212524414
      ],
      [
        "kii",
        -8.197488784790039
      ],
      [
        "▁ị",
        -8.203017234802246
      ],
      [
        "▁Ma",
        -8.208475112915039
      ],
      [
        "▁tahay",
        -8.2097749710083
      ],
      [
        "▁ili",
        -8.209794998168945
      ],
      [
        "mo",
        -8.21026611328125
      ],
      [
        "▁jira",
        -8.21096420288086
      ],
      [
        "▁jẹ",
        -8.213685989379883
      ],
      [
        "ነት",
        -8.215052604675293
      ],
      [
        "ye",
        -8.225829124450684
      ],
      [
        "▁ሲ",
        -8.228081703186035
      ],
      [
        "▁wọ",
        -8.229948043823242
      ],
      [
        "▁ብ",
        -8.230298042297363
      ],
      [
        "▁tó",
        -8.234573364257812
      ],
      [
        "▁sí",
        -8.240641593933105
      ],
      [
        "▁wit",
        -8.24207592010498
      ],
      [
        "▁Ughelli",
        -8.2427339553833
      ],
      [
        "▁fún",
        -8.250654220581055
      ],
      [
        "▁jiru",
        -8.251533508300781
      ],
      [
        "▁mbere",
        -8.254944801330566
      ],
      [
        "▁አንድ",
        -8.256975173950195
      ],
      [
        "yo",
        -8.257847785949707
      ],
      [
        "▁masu",
        -8.259952545166016
      ],
      [
        "▁ọrụ",
        -8.261409759521484
      ],
      [
        "▁anyị",
        -8.261876106262207
      ],
      [
        "በ",
        -8.268166542053223
      ],
      [
        "▁gara",
        -8.27017879486084
      ],
      [
        "▁How",
        -8.272629737854004
      ],
      [
        "ada",
        -8.273612976074219
      ],
      [
        "yìn",
        -8.274085998535156
      ],
      [
        "ህ",
        -8.277052879333496
      ],
      [
        "▁Wetin",
        -8.27819538116455
      ],
      [
        "▁tori",
        -8.285269737243652
      ],
      [
        "▁waan",
        -8.290388107299805
      ],
      [
        "▁sọ",
        -8.291563987731934
      ],
      [
        "▁wanda",
        -8.29332447052002
      ],
      [
        "▁sida",
        -8.296036720275879
      ],
      [
        "▁tu",
        -8.298538208007812
      ],
      [
        "▁goment",
        -8.306666374206543
      ],
      [
        "▁zai",
        -8.310715675354004
      ],
      [
        "ል",
        -8.314584732055664
      ],
      [
        "▁Da",
        -8.317048072814941
      ],
      [
        "▁ọmọ",
        -8.320941925048828
      ],
      [
        "▁ኢትዮጵያ",
        -8.330530166625977
      ],
      [
        "▁itti",
        -8.331347465515137
      ],
      [
        "ar",
        -8.331889152526855
      ],
      [
        "▁dai",
        -8.339168548583984
      ],
      [
        "▁ይህ",
        -8.339665412902832
      ],
      [
        "▁ደግሞ",
        -8.341761589050293
      ],
      [
        "▁lati",
        -8.344905853271484
      ],
      [
        "▁way",
        -8.34631633758545
      ],
      [
        "ay",
        -8.346613883972168
      ],
      [
        "▁am",
        -8.3471097946167
      ],
      [
        "l",
        -8.349950790405273
      ],
      [
        "▁yahay",
        -8.354355812072754
      ],
      [
        "ዎች",
        -8.356501579284668
      ],
      [
        "▁watu",
        -8.357292175292969
      ],
      [
        "li",
        -8.358646392822266
      ],
      [
        "▁zuwa",
        -8.358963012695312
      ],
      [
        "▁wasu",
        -8.364046096801758
      ],
      [
        "▁Images",
        -8.367012977600098
      ],
      [
        "tangiriro",
        -8.368115425109863
      ],
      [
        "▁mọ",
        -8.369160652160645
      ],
      [
        "▁police",
        -8.372180938720703
      ],
      [
        "▁binini",
        -8.376205444335938
      ],
      [
        "di",
        -8.378246307373047
      ],
      [
        "biyaga",
        -8.378873825073242
      ],
      [
        "rupapuro",
        -8.379170417785645
      ],
      [
        "▁Trump",
        -8.380904197692871
      ],
      [
        "▁Imikin",
        -8.380932807922363
      ],
      [
        "▁har",
        -8.381253242492676
      ],
      [
        "puzamahanga",
        -8.382903099060059
      ],
      [
        "ne",
        -8.385763168334961
      ],
      [
        "▁kwamba",
        -8.387231826782227
      ],
      [
        "ki",
        -8.38724136352539
      ],
      [
        "▁Tanzania",
        -8.387502670288086
      ],
      [
        "▁ተ",
        -8.388378143310547
      ],
      [
        "▁ime",
        -8.389131546020508
      ],
      [
        "▁keessatti",
        -8.391613960266113
      ],
      [
        "▁ana",
        -8.393399238586426
      ],
      [
        "de",
        -8.397139549255371
      ],
      [
        "▁with",
        -8.397285461425781
      ],
      [
        "▁ስለ",
        -8.398065567016602
      ],
      [
        "▁iya",
        -8.399945259094238
      ],
      [
        "we",
        -8.402588844299316
      ],
      [
        "▁do",
        -8.403472900390625
      ],
      [
        "Na",
        -8.404399871826172
      ],
      [
        "▁call",
        -8.40561294555664
      ],
      [
        "zi",
        -8.405936241149902
      ],
      [
        "▁sana",
        -8.406155586242676
      ],
      [
        "▁Getty",
        -8.40756607055664
      ],
      [
        "▁mere",
        -8.408641815185547
      ],
      [
        "▁dadka",
        -8.408858299255371
      ],
      [
        "▁Ta",
        -8.410147666931152
      ],
      [
        "▁bara",
        -8.411612510681152
      ],
      [
        "▁bayan",
        -8.416196823120117
      ],
      [
        "▁ahaa",
        -8.416563987731934
      ],
      [
        "▁wake",
        -8.42198657989502
      ],
      [
        "▁Ihe",
        -8.422865867614746
      ],
      [
        "as",
        -8.423149108886719
      ],
      [
        "▁wata",
        -8.424986839294434
      ],
      [
        "▁ca",
        -8.42578125
      ],
      [
        "▁get",
        -8.431699752807617
      ],
      [
        "▁kun",
        -8.434316635131836
      ],
      [
        "▁Mu",
        -8.435688972473145
      ],
      [
        "▁yana",
        -8.435858726501465
      ],
      [
        "ዩ",
        -8.437178611755371
      ],
      [
        "▁wakati",
        -8.43876838684082
      ],
      [
        "kwa",
        -8.44077205657959
      ],
      [
        "▁ናብ",
        -8.441680908203125
      ],
      [
        "▁pé",
        -8.443571090698242
      ],
      [
        "▁mara",
        -8.444538116455078
      ],
      [
        "▁magaalada",
        -8.445274353027344
      ],
      [
        "▁ያ",
        -8.44625186920166
      ],
      [
        "▁lo",
        -8.448433876037598
      ],
      [
        "▁ci",
        -8.449894905090332
      ],
      [
        "▁De",
        -8.450594902038574
      ],
      [
        "▁baada",
        -8.451394081115723
      ],
      [
        "▁irraa",
        -8.45284366607666
      ],
      [
        "se",
        -8.453594207763672
      ],
      [
        "ha",
        -8.461359977722168
      ],
      [
        "▁isaa",
        -8.46142578125
      ],
      [
        "▁my",
        -8.463356971740723
      ],
      [
        "▁Najeriya",
        -8.465216636657715
      ],
      [
        "▁ọzọ",
        -8.46733283996582
      ],
      [
        "▁News",
        -8.467397689819336
      ],
      [
        "▁kò",
        -8.468146324157715
      ],
      [
        "Survival",
        -8.468856811523438
      ],
      [
        "bi",
        -8.469855308532715
      ],
      [
        "▁thing",
        -8.47036361694336
      ],
      [
        "h",
        -8.470595359802246
      ],
      [
        "▁ብቻ",
        -8.471553802490234
      ],
      [
        "▁apply",
        -8.475113868713379
      ],
      [
        "▁Àwọn",
        -8.475242614746094
      ],
      [
        "▁so",
        -8.477705001831055
      ],
      [
        "▁al",
        -8.477795600891113
      ],
      [
        "▁zaidi",
        -8.478806495666504
      ],
      [
        "▁ebe",
        -8.480950355529785
      ],
      [
        "▁እቲ",
        -8.487881660461426
      ],
      [
        "▁kai",
        -8.49097728729248
      ],
      [
        "do",
        -8.492344856262207
      ],
      [
        "rọ",
        -8.494612693786621
      ],
      [
        "▁Tori",
        -8.494876861572266
      ],
      [
        "ዋ",
        -8.496209144592285
      ],
      [
        "no",
        -8.500659942626953
      ],
      [
        "▁wuxuu",
        -8.505936622619629
      ],
      [
        "▁mmadụ",
        -8.506292343139648
      ],
      [
        "▁ina",
        -8.508964538574219
      ],
      [
        "ro",
        -8.508993148803711
      ],
      [
        "▁is",
        -8.512961387634277
      ],
      [
        "▁otu",
        -8.51374626159668
      ],
      [
        "▁ዝ",
        -8.513895034790039
      ],
      [
        "▁domin",
        -8.515620231628418
      ],
      [
        "▁uga",
        -8.516621589660645
      ],
      [
        "▁Joshua",
        -8.516643524169922
      ],
      [
        "▁Ukwa",
        -8.521604537963867
      ],
      [
        "b",
        -8.522706031799316
      ],
      [
        "▁markii",
        -8.52323055267334
      ],
      [
        "nother",
        -8.524855613708496
      ],
      [
        "▁nchini",
        -8.525066375732422
      ],
      [
        "▁ሰው",
        -8.525690078735352
      ],
      [
        "▁gba",
        -8.52624225616455
      ],
      [
        "▁Police",
        -8.529032707214355
      ],
      [
        "ታ",
        -8.52987289428711
      ],
      [
        "▁le",
        -8.530441284179688
      ],
      [
        "▁change",
        -8.531612396240234
      ],
      [
        "ያ",
        -8.532440185546875
      ],
      [
        "ቱ",
        -8.532791137695312
      ],
      [
        "mi",
        -8.535369873046875
      ],
      [
        "ẹ",
        -8.535578727722168
      ],
      [
        "▁Top",
        -8.535781860351562
      ],
      [
        "▁እንዲ",
        -8.536003112792969
      ],
      [
        "▁woman",
        -8.537947654724121
      ],
      [
        "dha",
        -8.540075302124023
      ],
      [
        "▁Al",
        -8.542311668395996
      ],
      [
        "(",
        -8.545147895812988
      ],
      [
        "▁Kenya",
        -8.545228958129883
      ],
      [
        "▁hii",
        -8.545526504516602
      ],
      [
        "▁waxaana",
        -8.545950889587402
      ],
      [
        "▁Informat",
        -8.54808521270752
      ],
      [
        "▁kutoka",
        -8.548821449279785
      ],
      [
        "▁YA",
        -8.549469947814941
      ],
      [
        "፥",
        -8.550055503845215
      ],
      [
        "▁patrol",
        -8.551831245422363
      ],
      [
        "▁ሊ",
        -8.554631233215332
      ],
      [
        "eme",
        -8.555441856384277
      ],
      [
        "▁ወይም",
        -8.55940055847168
      ],
      [
        "▁keessa",
        -8.55988883972168
      ],
      [
        "▁ari",
        -8.562923431396484
      ],
      [
        "▁Anthony",
        -8.565630912780762
      ],
      [
        "▁huo",
        -8.5679292678833
      ],
      [
        "▁ake",
        -8.570422172546387
      ],
      [
        "▁bá",
        -8.571101188659668
      ],
      [
        "g",
        -8.575018882751465
      ],
      [
        "ች",
        -8.577179908752441
      ],
      [
        "▁why",
        -8.581140518188477
      ],
      [
        "ቲ",
        -8.584790229797363
      ],
      [
        "▁ዓ",
        -8.585103988647461
      ],
      [
        "▁C",
        -8.587912559509277
      ],
      [
        "ሉ",
        -8.588269233703613
      ],
      [
        "ke",
        -8.588581085205078
      ],
      [
        "▁#",
        -8.588876724243164
      ],
      [
        "▁kasa",
        -8.589516639709473
      ],
      [
        "▁young",
        -8.591394424438477
      ],
      [
        "▁mata",
        -8.593387603759766
      ],
      [
        "ii",
        -8.596689224243164
      ],
      [
        "▁an",
        -8.597572326660156
      ],
      [
        "▁sai",
        -8.598494529724121
      ],
      [
        "▁ምን",
        -8.598800659179688
      ],
      [
        "ing",
        -8.599045753479004
      ],
      [
        "ru",
        -8.602448463439941
      ],
      [
        "▁ሁሉ",
        -8.60295581817627
      ],
      [
        "▁dan",
        -8.604183197021484
      ],
      [
        "ho",
        -8.604198455810547
      ],
      [
        "▁Ghana",
        -8.604874610900879
      ],
      [
        "▁amma",
        -8.605974197387695
      ],
      [
        "▁yadda",
        -8.606165885925293
      ],
      [
        "▁turn",
        -8.607306480407715
      ],
      [
        "▁need",
        -8.607649803161621
      ],
      [
        "▁FG",
        -8.611263275146484
      ],
      [
        "▁Somaliland",
        -8.611473083496094
      ],
      [
        "▁የተ",
        -8.6148042678833
      ],
      [
        "▁Wia",
        -8.61507797241211
      ],
      [
        "▁S",
        -8.617042541503906
      ],
      [
        "▁effect",
        -8.617194175720215
      ],
      [
        "▁ኣ",
        -8.621105194091797
      ],
      [
        "▁yihiin",
        -8.622185707092285
      ],
      [
        "▁media",
        -8.62234115600586
      ],
      [
        "ማ",
        -8.6226806640625
      ],
      [
        "\".",
        -8.622970581054688
      ],
      [
        "▁Kwa",
        -8.623004913330078
      ],
      [
        "ọ",
        -8.623662948608398
      ],
      [
        "▁ካብ",
        -8.624826431274414
      ],
      [
        "▁tokko",
        -8.629033088684082
      ],
      [
        "▁dib",
        -8.632192611694336
      ],
      [
        "▁እ",
        -8.632564544677734
      ],
      [
        "isanamu",
        -8.634587287902832
      ],
      [
        "▁SARS",
        -8.635153770446777
      ],
      [
        "▁buy",
        -8.636824607849121
      ],
      [
        "▁ri",
        -8.637316703796387
      ],
      [
        "▁Muqdisho",
        -8.637992858886719
      ],
      [
        "▁au",
        -8.63812255859375
      ],
      [
        "▁immediate",
        -8.63878345489502
      ],
      [
        "▁WA",
        -8.63898754119873
      ],
      [
        "▁nchi",
        -8.63941764831543
      ],
      [
        "▁inuu",
        -8.640511512756348
      ],
      [
        "▁boil",
        -8.64101791381836
      ],
      [
        "▁iche",
        -8.643058776855469
      ],
      [
        "▁ናይ",
        -8.643765449523926
      ],
      [
        "▁Mike",
        -8.645176887512207
      ],
      [
        "▁iri",
        -8.645565032958984
      ],
      [
        "▁wetin",
        -8.64560317993164
      ],
      [
        "nsiguro",
        -8.645626068115234
      ],
      [
        "▁Wa",
        -8.647242546081543
      ],
      [
        "▁jihar",
        -8.64763069152832
      ],
      [
        "za",
        -8.647939682006836
      ],
      [
        "▁yeroo",
        -8.657642364501953
      ],
      [
        "▁isku",
        -8.659432411193848
      ],
      [
        "ይ",
        -8.659531593322754
      ],
      [
        "▁tactical",
        -8.660857200622559
      ],
      [
        "▁squads",
        -8.6614990234375
      ],
      [
        "asi",
        -8.664597511291504
      ],
      [
        "▁mgbe",
        -8.665156364440918
      ],
      [
        "▁yo",
        -8.66738510131836
      ],
      [
        "▁inda",
        -8.667624473571777
      ],
      [
        "▁the",
        -8.668575286865234
      ],
      [
        "nu",
        -8.668607711791992
      ],
      [
        "▁àwòrán",
        -8.670417785644531
      ],
      [
        "▁fuel",
        -8.671106338500977
      ],
      [
        "▁isi",
        -8.672136306762695
      ],
      [
        "▁Fund",
        -8.675034523010254
      ],
      [
        "▁kí",
        -8.67542552947998
      ],
      [
        "▁suna",
        -8.677179336547852
      ],
      [
        "▁እየ",
        -8.677727699279785
      ],
      [
        "ja",
        -8.678730010986328
      ],
      [
        "▁iji",
        -8.67910099029541
      ],
      [
        "▁sì",
        -8.679632186889648
      ],
      [
        "▁Ba",
        -8.67993450164795
      ],
      [
        "▁love",
        -8.680486679077148
      ],
      [
        "▁anybody",
        -8.683771133422852
      ],
      [
        "▁anya",
        -8.683954238891602
      ],
      [
        "▁states",
        -8.684581756591797
      ],
      [
        "ክ",
        -8.687111854553223
      ],
      [
        "▁haka",
        -8.687318801879883
      ],
      [
        "▁ture",
        -8.68757152557373
      ],
      [
        "▁ከም",
        -8.689310073852539
      ],
      [
        "ላ",
        -8.691709518432617
      ],
      [
        "▁náà",
        -8.691864967346191
      ],
      [
        "▁watch",
        -8.692573547363281
      ],
      [
        "▁always",
        -8.695969581604004
      ],
      [
        "▁ሰዎች",
        -8.696476936340332
      ],
      [
        "▁Tyson",
        -8.698960304260254
      ],
      [
        "▁Lagos",
        -8.699621200561523
      ],
      [
        "▁ምስ",
        -8.699992179870605
      ],
      [
        "▁up",
        -8.701254844665527
      ],
      [
        "▁pamoja",
        -8.701387405395508
      ],
      [
        "▁fruit",
        -8.702343940734863
      ],
      [
        "▁K",
        -8.703104019165039
      ],
      [
        "▁shugaban",
        -8.703801155090332
      ],
      [
        "▁tare",
        -8.705769538879395
      ],
      [
        "▁Mayweather",
        -8.706255912780762
      ],
      [
        "bo",
        -8.707627296447754
      ],
      [
        "▁Ni",
        -8.710034370422363
      ],
      [
        "ከ",
        -8.711383819580078
      ],
      [
        "▁innovators",
        -8.712183952331543
      ],
      [
        "▁Naijiria",
        -8.712313652038574
      ],
      [
        "du",
        -8.713287353515625
      ],
      [
        "O",
        -8.714494705200195
      ],
      [
        "▁lori",
        -8.714675903320312
      ],
      [
        "▁mana",
        -8.716014862060547
      ],
      [
        "▁Mkuu",
        -8.71794319152832
      ],
      [
        "lo",
        -8.718770980834961
      ],
      [
        "shi",
        -8.719171524047852
      ],
      [
        "▁se",
        -8.720232009887695
      ],
      [
        "▁hilo",
        -8.720953941345215
      ],
      [
        "sha",
        -8.723949432373047
      ],
      [
        "▁ዓመት",
        -8.724323272705078
      ],
      [
        "je",
        -8.724533081054688
      ],
      [
        "▁gaba",
        -8.725132942199707
      ],
      [
        "▁kazi",
        -8.725210189819336
      ],
      [
        "▁ninu",
        -8.72697925567627
      ],
      [
        "▁ቀን",
        -8.728379249572754
      ],
      [
        "▁አቶ",
        -8.728918075561523
      ],
      [
        "▁An",
        -8.730560302734375
      ],
      [
        "kan",
        -8.730582237243652
      ],
      [
        "▁mo",
        -8.730944633483887
      ],
      [
        "so",
        -8.731559753417969
      ],
      [
        "▁bin",
        -8.732062339782715
      ],
      [
        "▁plastic",
        -8.73307991027832
      ],
      [
        "▁ala",
        -8.734028816223145
      ],
      [
        "▁vs",
        -8.73585319519043
      ],
      [
        "▁waste",
        -8.736662864685059
      ],
      [
        "▁samu",
        -8.736702919006348
      ],
      [
        "▁kara",
        -8.737517356872559
      ],
      [
        "▁dress",
        -8.738574981689453
      ],
      [
        "havuye",
        -8.739509582519531
      ],
      [
        "▁የኢትዮጵያ",
        -8.739631652832031
      ],
      [
        "▁ትግራይ",
        -8.741114616394043
      ],
      [
        "),",
        -8.741501808166504
      ],
      [
        "fa",
        -8.74482536315918
      ],
      [
        "▁Rais",
        -8.746407508850098
      ],
      [
        "ዉ",
        -8.74786376953125
      ],
      [
        "▁ጉዳይ",
        -8.748689651489258
      ],
      [
        "ድ",
        -8.74904727935791
      ],
      [
        "▁hivyo",
        -8.749688148498535
      ],
      [
        "▁ዘሎ",
        -8.749939918518066
      ],
      [
        "▁boxing",
        -8.752067565917969
      ],
      [
        "▁routine",
        -8.75969409942627
      ],
      [
        "▁ara",
        -8.76028060913086
      ],
      [
        "▁Allah",
        -8.761174201965332
      ],
      [
        "▁kill",
        -8.761453628540039
      ],
      [
        "▁patrols",
        -8.763864517211914
      ],
      [
        "▁pa",
        -8.764674186706543
      ],
      [
        "▁Ndị",
        -8.76499080657959
      ],
      [
        "▁Nigerian",
        -8.766031265258789
      ],
      [
        "ተ",
        -8.767584800720215
      ],
      [
        "▁mutane",
        -8.770748138427734
      ],
      [
        "▁Ra",
        -8.773809432983398
      ],
      [
        "▁Dar",
        -8.77473258972168
      ],
      [
        "▁ማ",
        -8.775330543518066
      ],
      [
        "c",
        -8.77837085723877
      ],
      [
        "]",
        -8.779458999633789
      ],
      [
        "▁siku",
        -8.784574508666992
      ],
      [
        "▁Ha",
        -8.786421775817871
      ],
      [
        "አ",
        -8.78962230682373
      ],
      [
        "▁sasa",
        -8.79007339477539
      ],
      [
        "▁በዚህ",
        -8.792150497436523
      ],
      [
        "▁nan",
        -8.79481029510498
      ],
      [
        "▁isanamu",
        -8.796876907348633
      ],
      [
        "▁times",
        -8.802230834960938
      ],
      [
        "yi",
        -8.802268981933594
      ],
      [
        "ለ",
        -8.805158615112305
      ],
      [
        "▁leh",
        -8.805434226989746
      ],
      [
        "ama",
        -8.807393074035645
      ],
      [
        "me",
        -8.811405181884766
      ],
      [
        "▁tun",
        -8.812917709350586
      ],
      [
        "▁social",
        -8.813090324401855
      ],
      [
        "▁kuri",
        -8.813581466674805
      ],
      [
        "ሽ",
        -8.814386367797852
      ],
      [
        "▁MSME",
        -8.81452751159668
      ],
      [
        "▁by",
        -8.81627368927002
      ],
      [
        "▁moja",
        -8.816324234008789
      ],
      [
        "▁ita",
        -8.816550254821777
      ],
      [
        "wo",
        -8.81800365447998
      ],
      [
        "saa",
        -8.818541526794434
      ],
      [
        "▁qof",
        -8.81916332244873
      ],
      [
        "▁isaanii",
        -8.820625305175781
      ],
      [
        "N",
        -8.822000503540039
      ],
      [
        "▁በኋላ",
        -8.825191497802734
      ],
      [
        "▁wal",
        -8.82524299621582
      ],
      [
        "een",
        -8.825996398925781
      ],
      [
        "▁ያለው",
        -8.826194763183594
      ],
      [
        "san",
        -8.828969955444336
      ],
      [
        "▁ile",
        -8.831284523010254
      ],
      [
        "▁ክ",
        -8.831850051879883
      ],
      [
        "ዊ",
        -8.832453727722168
      ],
      [
        "▁before",
        -8.832904815673828
      ],
      [
        "▁fara",
        -8.836872100830078
      ],
      [
        "▁maanta",
        -8.838521957397461
      ],
      [
        "▁Waxaa",
        -8.840543746948242
      ],
      [
        "▁yin",
        -8.840943336486816
      ],
      [
        "▁wajen",
        -8.84135913848877
      ],
      [
        "▁ahaan",
        -8.843058586120605
      ],
      [
        "▁hore",
        -8.843744277954102
      ],
      [
        "▁bwa",
        -8.847073554992676
      ],
      [
        "ሳ",
        -8.847550392150879
      ],
      [
        "be",
        -8.847556114196777
      ],
      [
        "▁ohun",
        -8.848376274108887
      ],
      [
        "▁Amerika",
        -8.850624084472656
      ],
      [
        "gu",
        -8.85189151763916
      ],
      [
        "▁wana",
        -8.852307319641113
      ],
      [
        "▁በላይ",
        -8.854159355163574
      ],
      [
        "go",
        -8.854727745056152
      ],
      [
        "▁school",
        -8.856708526611328
      ],
      [
        "▁lakini",
        -8.856819152832031
      ],
      [
        "▁Oo",
        -8.85702896118164
      ],
      [
        "▁wada",
        -8.860082626342773
      ],
      [
        "▁ክልል",
        -8.861703872680664
      ],
      [
        "▁bayyana",
        -8.863219261169434
      ],
      [
        "▁ከተማ",
        -8.865179061889648
      ],
      [
        "▁አይ",
        -8.865337371826172
      ],
      [
        "ብ",
        -8.865921020507812
      ],
      [
        "▁tok",
        -8.866506576538086
      ],
      [
        "▁pia",
        -8.867527961730957
      ],
      [
        "▁mma",
        -8.867647171020508
      ],
      [
        "▁gu",
        -8.86767292022705
      ],
      [
        "▁ry",
        -8.867674827575684
      ],
      [
        "▁ማለት",
        -8.869307518005371
      ],
      [
        "▁ዜና",
        -8.86947250366211
      ],
      [
        "▁danda",
        -8.869860649108887
      ],
      [
        "▁Maxamed",
        -8.87035846710205
      ],
      [
        "▁End",
        -8.870525360107422
      ],
      [
        "▁Fídíò",
        -8.870743751525879
      ],
      [
        "▁biyu",
        -8.871789932250977
      ],
      [
        "▁ambayo",
        -8.873348236083984
      ],
      [
        "▁lokacin",
        -8.873689651489258
      ],
      [
        "▁sii",
        -8.877685546875
      ],
      [
        "▁daya",
        -8.87880802154541
      ],
      [
        "▁duk",
        -8.884307861328125
      ],
      [
        "▁EndSARS",
        -8.886961936950684
      ],
      [
        "▁waxaan",
        -8.888630867004395
      ],
      [
        "▁B",
        -8.889451026916504
      ],
      [
        "▁F",
        -8.889765739440918
      ],
      [
        "▁ት",
        -8.891019821166992
      ],
      [
        "▁ranar",
        -8.891629219055176
      ],
      [
        "▁kila",
        -8.891828536987305
      ],
      [
        "▁Africa",
        -8.893117904663086
      ],
      [
        "▁àti",
        -8.89387321472168
      ],
      [
        "▁niile",
        -8.896081924438477
      ],
      [
        "tii",
        -8.896099090576172
      ],
      [
        "▁ali",
        -8.89633846282959
      ],
      [
        "wọ",
        -8.897403717041016
      ],
      [
        "al",
        -8.89903736114502
      ],
      [
        "▁site",
        -8.89919662475586
      ],
      [
        "cha",
        -8.89969539642334
      ],
      [
        "▁family",
        -8.900644302368164
      ],
      [
        "▁hayo",
        -8.905733108520508
      ],
      [
        "▁wà",
        -8.906513214111328
      ],
      [
        "ታት",
        -8.908221244812012
      ],
      [
        "▁gbogbo",
        -8.90834903717041
      ],
      [
        "▁comot",
        -8.909502983093262
      ],
      [
        "x",
        -8.911401748657227
      ],
      [
        "▁avuga",
        -8.912246704101562
      ],
      [
        "▁በመ",
        -8.912742614746094
      ],
      [
        "lẹ",
        -8.915334701538086
      ],
      [
        "▁kwuru",
        -8.918865203857422
      ],
      [
        "w",
        -8.921223640441895
      ],
      [
        "▁z",
        -8.921670913696289
      ],
      [
        "▁c",
        -8.922907829284668
      ],
      [
        "ed",
        -8.924219131469727
      ],
      [
        "▁nama",
        -8.925546646118164
      ],
      [
        "▁President",
        -8.925919532775879
      ],
      [
        "aba",
        -8.9268159866333
      ],
      [
        "▁loogu",
        -8.928492546081543
      ],
      [
        "▁láti",
        -8.928881645202637
      ],
      [
        "▁alisema",
        -8.933465003967285
      ],
      [
        "▁huu",
        -8.93614673614502
      ],
      [
        "▁ሁኔታ",
        -8.938111305236816
      ],
      [
        "▁keessaa",
        -8.9393892288208
      ],
      [
        "rẹ",
        -8.940317153930664
      ],
      [
        "▁malee",
        -8.942138671875
      ],
      [
        "▁wo",
        -8.942441940307617
      ],
      [
        "▁dhacay",
        -8.943001747131348
      ],
      [
        "▁ụlọ",
        -8.943891525268555
      ],
      [
        "▁wee",
        -8.944280624389648
      ],
      [
        "▁[",
        -8.947000503540039
      ],
      [
        "er",
        -8.947901725769043
      ],
      [
        "▁amfani",
        -8.949694633483887
      ],
      [
        "aha",
        -8.950207710266113
      ],
      [
        "▁''",
        -8.951336860656738
      ],
      [
        "▁አዲስ",
        -8.952014923095703
      ],
      [
        "▁dha",
        -8.952030181884766
      ],
      [
        "▁irra",
        -8.952234268188477
      ],
      [
        "ነ",
        -8.95361614227295
      ],
      [
        "▁yanzu",
        -8.954140663146973
      ],
      [
        "p",
        -8.9561767578125
      ],
      [
        "ራ",
        -8.956671714782715
      ],
      [
        "▁read",
        -8.958511352539062
      ],
      [
        ").",
        -8.961193084716797
      ],
      [
        "po",
        -8.961362838745117
      ],
      [
        "dii",
        -8.962246894836426
      ],
      [
        "▁NA",
        -8.963306427001953
      ],
      [
        "▁United",
        -8.963702201843262
      ],
      [
        "▁ame",
        -8.963898658752441
      ],
      [
        "▁hor",
        -8.965177536010742
      ],
      [
        "▁bo",
        -8.965848922729492
      ],
      [
        "▁ብዙ",
        -8.968634605407715
      ],
      [
        "▁APC",
        -8.969715118408203
      ],
      [
        "▁እስከ",
        -8.973387718200684
      ],
      [
        "▁La",
        -8.9734525680542
      ],
      [
        "▁du",
        -8.973600387573242
      ],
      [
        "▁Soomaaliyeed",
        -8.973959922790527
      ],
      [
        "▁አበባ",
        -8.974762916564941
      ],
      [
        "ኝ",
        -8.97527027130127
      ],
      [
        "fu",
        -8.977931022644043
      ],
      [
        "▁juu",
        -8.981806755065918
      ],
      [
        "▁Ìrò",
        -8.982206344604492
      ],
      [
        "man",
        -8.983566284179688
      ],
      [
        "M",
        -8.984222412109375
      ],
      [
        "▁oge",
        -8.984519004821777
      ],
      [
        "▁Nke",
        -8.984577178955078
      ],
      [
        "▁ዘ",
        -8.984636306762695
      ],
      [
        "ce",
        -8.985163688659668
      ],
      [
        "S",
        -8.98557186126709
      ],
      [
        "ዎ",
        -8.98835563659668
      ],
      [
        "▁registration",
        -8.990208625793457
      ],
      [
        "▁አሁን",
        -8.991643905639648
      ],
      [
        "▁Itoophiyaa",
        -8.991908073425293
      ],
      [
        "zo",
        -8.9965238571167
      ],
      [
        "▁Skip",
        -8.997833251953125
      ],
      [
        "▁G",
        -8.998150825500488
      ],
      [
        "▁kufanya",
        -9.004217147827148
      ],
      [
        "▁b",
        -9.004293441772461
      ],
      [
        "▁yii",
        -9.005114555358887
      ],
      [
        "ቅ",
        -9.006457328796387
      ],
      [
        "bu",
        -9.006463050842285
      ],
      [
        "▁abin",
        -9.00648307800293
      ],
      [
        "▁gaar",
        -9.006948471069336
      ],
      [
        "uun",
        -9.007607460021973
      ],
      [
        "▁looga",
        -9.007964134216309
      ],
      [
        "▁ayuu",
        -9.009931564331055
      ],
      [
        "▁but",
        -9.01065444946289
      ],
      [
        "ረ",
        -9.01071548461914
      ],
      [
        "▁Covid",
        -9.01099681854248
      ],
      [
        "▁aga",
        -9.011548042297363
      ],
      [
        "ኛ",
        -9.012162208557129
      ],
      [
        "ቶ",
        -9.012360572814941
      ],
      [
        "▁afta",
        -9.01368236541748
      ],
      [
        "▁portal",
        -9.013700485229492
      ],
      [
        "▁Waziri",
        -9.017057418823242
      ],
      [
        "▁May",
        -9.017139434814453
      ],
      [
        "óo",
        -9.018692016601562
      ],
      [
        "▁sha",
        -9.019953727722168
      ],
      [
        "▁ambao",
        -9.020605087280273
      ],
      [
        "▁leo",
        -9.021398544311523
      ],
      [
        "▁Rwanda",
        -9.021736145019531
      ],
      [
        "▁Igbo",
        -9.022782325744629
      ],
      [
        "ካ",
        -9.025514602661133
      ],
      [
        "▁suke",
        -9.026416778564453
      ],
      [
        "▁kungiyar",
        -9.026443481445312
      ],
      [
        "ኒ",
        -9.026566505432129
      ],
      [
        "▁hu",
        -9.026652336120605
      ],
      [
        "▁isa",
        -9.027405738830566
      ],
      [
        "▁የሚያ",
        -9.027585983276367
      ],
      [
        "ሩ",
        -9.029043197631836
      ],
      [
        "▁/",
        -9.029702186584473
      ],
      [
        "▁ነበር",
        -9.031660079956055
      ],
      [
        "lee",
        -9.031960487365723
      ],
      [
        "▁ቢ",
        -9.032642364501953
      ],
      [
        "▁ብሎ",
        -9.035006523132324
      ],
      [
        "▁waliin",
        -9.03564167022705
      ],
      [
        "ime",
        -9.035660743713379
      ],
      [
        "▁dance",
        -9.03709888458252
      ],
      [
        "▁‹‹",
        -9.03787899017334
      ],
      [
        "▁keenya",
        -9.038520812988281
      ],
      [
        "▁The",
        -9.038835525512695
      ],
      [
        "▁fẹ",
        -9.038905143737793
      ],
      [
        "▁some",
        -9.03971004486084
      ],
      [
        "▁ibi",
        -9.042350769042969
      ],
      [
        "▁Àkọlé",
        -9.04267692565918
      ],
      [
        "▁Serikali",
        -9.043314933776855
      ],
      [
        "chi",
        -9.044449806213379
      ],
      [
        "▁kamar",
        -9.04575252532959
      ],
      [
        "▁jam",
        -9.046344757080078
      ],
      [
        "▁አል",
        -9.049551963806152
      ],
      [
        "ሮ",
        -9.049957275390625
      ],
      [
        "▁hali",
        -9.050090789794922
      ],
      [
        "▁Shirye",
        -9.050389289855957
      ],
      [
        "▁ቪድዮ",
        -9.051547050476074
      ],
      [
        "▁ነበር።",
        -9.052189826965332
      ],
      [
        "▁መንገድ",
        -9.052245140075684
      ],
      [
        "▁Kano",
        -9.053455352783203
      ],
      [
        "▁ደረጃ",
        -9.053699493408203
      ],
      [
        "▁bí",
        -9.055310249328613
      ],
      [
        "ግ",
        -9.055737495422363
      ],
      [
        "▁ozi",
        -9.056581497192383
      ],
      [
        "▁Amurka",
        -9.057897567749023
      ],
      [
        "▁Ga",
        -9.057923316955566
      ],
      [
        "▁birimwo",
        -9.058573722839355
      ],
      [
        "▁she",
        -9.059693336486816
      ],
      [
        "▁boy",
        -9.060654640197754
      ],
      [
        "▁wali",
        -9.060730934143066
      ],
      [
        "▁kọ",
        -9.061746597290039
      ],
      [
        "pa",
        -9.061956405639648
      ],
      [
        "kọ",
        -9.062150001525879
      ],
      [
        "▁at",
        -9.063224792480469
      ],
      [
        "E",
        -9.06344985961914
      ],
      [
        "መ",
        -9.066462516784668
      ],
      [
        "▁zi",
        -9.067359924316406
      ],
      [
        "▁dad",
        -9.067684173583984
      ],
      [
        "▁Si",
        -9.068416595458984
      ],
      [
        "▁«",
        -9.069449424743652
      ],
      [
        "▁ያለ",
        -9.071088790893555
      ],
      [
        "▁es",
        -9.071232795715332
      ],
      [
        "▁abụọ",
        -9.073577880859375
      ],
      [
        "▁qaba",
        -9.073993682861328
      ],
      [
        "pe",
        -9.074491500854492
      ],
      [
        "ci",
        -9.075498580932617
      ],
      [
        "▁Imice",
        -9.076432228088379
      ],
      [
        "▁dura",
        -9.077237129211426
      ],
      [
        "▁hata",
        -9.080083847045898
      ],
      [
        "▁kuna",
        -9.08029842376709
      ],
      [
        "ala",
        -9.080928802490234
      ],
      [
        "ባቸው",
        -9.083481788635254
      ],
      [
        "%",
        -9.08477783203125
      ],
      [
        "▁duniya",
        -9.085502624511719
      ],
      [
        "▁Èyí",
        -9.085959434509277
      ],
      [
        "ዳ",
        -9.086980819702148
      ],
      [
        "▁mtu",
        -9.087225914001465
      ],
      [
        "▁Simbira",
        -9.090106964111328
      ],
      [
        "▁heat",
        -9.090500831604004
      ],
      [
        "▁kuba",
        -9.090814590454102
      ],
      [
        "▁state",
        -9.092059135437012
      ],
      [
        "▁በጣም",
        -9.092667579650879
      ],
      [
        "▁nuna",
        -9.09381103515625
      ],
      [
        "▁miaka",
        -9.094286918640137
      ],
      [
        "▁una",
        -9.09646224975586
      ],
      [
        "▁steps",
        -9.09665298461914
      ],
      [
        "gi",
        -9.097123146057129
      ],
      [
        "▁kw",
        -9.097578048706055
      ],
      [
        "ሰ",
        -9.098868370056152
      ],
      [
        "▁serikali",
        -9.09929370880127
      ],
      [
        "▁cute",
        -9.100936889648438
      ],
      [
        "▁isla",
        -9.101181983947754
      ],
      [
        "»",
        -9.104488372802734
      ],
      [
        "▁qabu",
        -9.105254173278809
      ],
      [
        "aga",
        -9.105606079101562
      ],
      [
        "▁business",
        -9.106995582580566
      ],
      [
        "ባ",
        -9.107728004455566
      ],
      [
        "▁jù",
        -9.108750343322754
      ],
      [
        "▁T",
        -9.108755111694336
      ],
      [
        "▁afọ",
        -9.109770774841309
      ],
      [
        "▁Mungu",
        -9.11086654663086
      ],
      [
        "▁Dr",
        -9.110962867736816
      ],
      [
        "▁nínú",
        -9.111223220825195
      ],
      [
        "ትን",
        -9.112991333007812
      ],
      [
        "▁To",
        -9.11424446105957
      ],
      [
        "lu",
        -9.114616394042969
      ],
      [
        "››",
        -9.115008354187012
      ],
      [
        "▁...",
        -9.115325927734375
      ],
      [
        "▁ከፍተኛ",
        -9.11533260345459
      ],
      [
        "ju",
        -9.116046905517578
      ],
      [
        "▁August",
        -9.116527557373047
      ],
      [
        "▁marka",
        -9.116863250732422
      ],
      [
        "í",
        -9.117921829223633
      ],
      [
        "ca",
        -9.119474411010742
      ],
      [
        "▁irin",
        -9.1212739944458
      ],
      [
        "▁ciki",
        -9.123412132263184
      ],
      [
        "▁Bwana",
        -9.123945236206055
      ],
      [
        "▁Ki",
        -9.126401901245117
      ],
      [
        "▁dake",
        -9.127201080322266
      ],
      [
        "▁san",
        -9.133082389831543
      ],
      [
        "▁ዓለም",
        -9.13331127166748
      ],
      [
        "▁lahaa",
        -9.13448429107666
      ],
      [
        "▁መሆኑን",
        -9.13597583770752
      ],
      [
        "▁dowladda",
        -9.136549949645996
      ],
      [
        "▁mmoja",
        -9.137382507324219
      ],
      [
        "▁ra",
        -9.139494895935059
      ],
      [
        "▁aiki",
        -9.139840126037598
      ],
      [
        "▁zama",
        -9.141755104064941
      ],
      [
        "▁oun",
        -9.142230987548828
      ],
      [
        "ሪ",
        -9.14246654510498
      ],
      [
        "▁”",
        -9.142600059509277
      ],
      [
        "▁bụrụ",
        -9.144396781921387
      ],
      [
        "ò",
        -9.144830703735352
      ],
      [
        "▁sabi",
        -9.145047187805176
      ],
      [
        "yin",
        -9.145431518554688
      ],
      [
        "▁wasan",
        -9.147298812866211
      ],
      [
        "▁Haram",
        -9.147578239440918
      ],
      [
        "ey",
        -9.151495933532715
      ],
      [
        "adda",
        -9.153260231018066
      ],
      [
        "▁house",
        -9.154584884643555
      ],
      [
        "yar",
        -9.154666900634766
      ],
      [
        "▁sidoo",
        -9.155670166015625
      ],
      [
        "▁War",
        -9.15740966796875
      ],
      [
        "▁huyo",
        -9.157681465148926
      ],
      [
        "▁aba",
        -9.157682418823242
      ],
      [
        "▁wananchi",
        -9.157686233520508
      ],
      [
        "▁ምክንያት",
        -9.157893180847168
      ],
      [
        "▁maa",
        -9.158827781677246
      ],
      [
        "rin",
        -9.160202026367188
      ],
      [
        "▁Boko",
        -9.161065101623535
      ],
      [
        "▁die",
        -9.16502571105957
      ],
      [
        "iyyar",
        -9.165081977844238
      ],
      [
        "ሊ",
        -9.166226387023926
      ],
      [
        "▁እንጂ",
        -9.168213844299316
      ],
      [
        "ዝ",
        -9.16835880279541
      ],
      [
        "▁Oríṣ",
        -9.169356346130371
      ],
      [
        "▁እን",
        -9.171547889709473
      ],
      [
        "▁June",
        -9.172107696533203
      ],
      [
        "▁እንደሚ",
        -9.172468185424805
      ],
      [
        "▁መካከል",
        -9.173752784729004
      ],
      [
        "▁In",
        -9.173961639404297
      ],
      [
        "▁years",
        -9.17403507232666
      ],
      [
        "tan",
        -9.175646781921387
      ],
      [
        "sh",
        -9.176188468933105
      ],
      [
        "ፍ",
        -9.176836967468262
      ],
      [
        "▁ድማ",
        -9.177105903625488
      ],
      [
        "▁gbajúmọ",
        -9.179200172424316
      ],
      [
        "▁sababu",
        -9.179435729980469
      ],
      [
        "▁watan",
        -9.180209159851074
      ],
      [
        "T",
        -9.181011199951172
      ],
      [
        "▁weyn",
        -9.182071685791016
      ],
      [
        "▁mar",
        -9.182093620300293
      ],
      [
        "▁July",
        -9.182539939880371
      ],
      [
        "ge",
        -9.183515548706055
      ],
      [
        "▁muda",
        -9.184300422668457
      ],
      [
        "ihi",
        -9.184491157531738
      ],
      [
        "▁ìdárayá",
        -9.18509292602539
      ],
      [
        "ጥ",
        -9.185288429260254
      ],
      [
        "▁wan",
        -9.185688018798828
      ],
      [
        "▁kubwa",
        -9.185693740844727
      ],
      [
        "▁kuhusu",
        -9.185746192932129
      ],
      [
        "▁Sa",
        -9.185912132263184
      ],
      [
        "▁jiran",
        -9.186269760131836
      ],
      [
        "▁yiri",
        -9.186376571655273
      ],
      [
        "▁bari",
        -9.18666934967041
      ],
      [
        "z",
        -9.187125205993652
      ],
      [
        "▁ego",
        -9.188632011413574
      ],
      [
        "▁baya",
        -9.188759803771973
      ],
      [
        "▁Eré",
        -9.190437316894531
      ],
      [
        "▁tirsan",
        -9.191490173339844
      ],
      [
        "▁እያ",
        -9.191890716552734
      ],
      [
        "▁k",
        -9.19262409210205
      ],
      [
        "nta",
        -9.193222045898438
      ],
      [
        "▁Cameroon",
        -9.193422317504883
      ],
      [
        "▁ẹgbẹ",
        -9.193451881408691
      ],
      [
        "▁idan",
        -9.195545196533203
      ],
      [
        "▁እዩ",
        -9.195611953735352
      ],
      [
        "▁know",
        -9.19594955444336
      ],
      [
        "B",
        -9.196003913879395
      ],
      [
        "▁Uganda",
        -9.197884559631348
      ],
      [
        "▁new",
        -9.198612213134766
      ],
      [
        "▁sị",
        -9.199167251586914
      ],
      [
        "▁yao",
        -9.200453758239746
      ],
      [
        "▁Duniya",
        -9.200531005859375
      ],
      [
        "▁wadanda",
        -9.202316284179688
      ],
      [
        "▁Puntland",
        -9.20483684539795
      ],
      [
        "yada",
        -9.204880714416504
      ],
      [
        "▁biyya",
        -9.20490837097168
      ],
      [
        "is",
        -9.2062406539917
      ],
      [
        "▁ajili",
        -9.206603050231934
      ],
      [
        "▁ሆነ",
        -9.206692695617676
      ],
      [
        "▁Man",
        -9.207010269165039
      ],
      [
        "▁Oromiyaa",
        -9.207488059997559
      ],
      [
        "▁ngo",
        -9.21065902709961
      ],
      [
        "▁መንግስት",
        -9.210821151733398
      ],
      [
        "▁Coronavirus",
        -9.212064743041992
      ],
      [
        "ad",
        -9.21595573425293
      ],
      [
        "tiin",
        -9.21724796295166
      ],
      [
        "▁onwe",
        -9.217474937438965
      ],
      [
        "Sa",
        -9.218287467956543
      ],
      [
        "▁State",
        -9.218401908874512
      ],
      [
        "U",
        -9.218528747558594
      ],
      [
        "▁ሥራ",
        -9.218852996826172
      ],
      [
        "▁nk",
        -9.220287322998047
      ],
      [
        "aad",
        -9.22368335723877
      ],
      [
        "▁booda",
        -9.223750114440918
      ],
      [
        "▁January",
        -9.226570129394531
      ],
      [
        "▁PDP",
        -9.22669506072998
      ],
      [
        "▁ከዚህ",
        -9.227913856506348
      ],
      [
        "▁kula",
        -9.227977752685547
      ],
      [
        "▁shekara",
        -9.22840404510498
      ],
      [
        "ሙ",
        -9.230608940124512
      ],
      [
        "▁habari",
        -9.231866836547852
      ],
      [
        "▁like",
        -9.234204292297363
      ],
      [
        "▁mbalimbali",
        -9.234515190124512
      ],
      [
        "▁ndani",
        -9.23543643951416
      ],
      [
        "▁election",
        -9.235469818115234
      ],
      [
        "aka",
        -9.235507011413574
      ],
      [
        "▁በፊት",
        -9.235702514648438
      ],
      [
        "▁saboda",
        -9.235710144042969
      ],
      [
        "isi",
        -9.23650074005127
      ],
      [
        "▁bw",
        -9.23695182800293
      ],
      [
        "▁wame",
        -9.23902416229248
      ],
      [
        "▁yari",
        -9.239624977111816
      ],
      [
        "▁ló",
        -9.242592811584473
      ],
      [
        "▁kwanza",
        -9.24291706085205
      ],
      [
        "▁ሆኖ",
        -9.244060516357422
      ],
      [
        "▁bụla",
        -9.245731353759766
      ],
      [
        "ሲ",
        -9.246832847595215
      ],
      [
        "▁ዓመታት",
        -9.246851921081543
      ],
      [
        "▁ይህን",
        -9.248144149780273
      ],
      [
        "▁ሲሆን",
        -9.249878883361816
      ],
      [
        "▁kandi",
        -9.251276969909668
      ],
      [
        "▁መንግስቲ",
        -9.251812934875488
      ],
      [
        "▁aki",
        -9.252351760864258
      ],
      [
        "ayo",
        -9.252483367919922
      ],
      [
        "▁iki",
        -9.252542495727539
      ],
      [
        "C",
        -9.25340747833252
      ],
      [
        "▁dhan",
        -9.254406929016113
      ],
      [
        "▁gi",
        -9.254669189453125
      ],
      [
        "mba",
        -9.25471019744873
      ],
      [
        "▁jami",
        -9.256264686584473
      ],
      [
        "ም።",
        -9.256295204162598
      ],
      [
        "▁shiga",
        -9.258206367492676
      ],
      [
        "▁እየተ",
        -9.260292053222656
      ],
      [
        "▁ጥያቄ",
        -9.261449813842773
      ],
      [
        "▁karaa",
        -9.261817932128906
      ],
      [
        "sho",
        -9.262044906616211
      ],
      [
        "▁zo",
        -9.262410163879395
      ],
      [
        "ጋ",
        -9.264359474182129
      ],
      [
        "▁ሱዳን",
        -9.26492977142334
      ],
      [
        "ሎ",
        -9.267297744750977
      ],
      [
        "እ",
        -9.26895523071289
      ],
      [
        "▁ọtụtụ",
        -9.270160675048828
      ],
      [
        "▁kubera",
        -9.270228385925293
      ],
      [
        "▁people",
        -9.270523071289062
      ],
      [
        "▁Waa",
        -9.270730018615723
      ],
      [
        "▁ቦታ",
        -9.271990776062012
      ],
      [
        "▁dịka",
        -9.272628784179688
      ],
      [
        "▁ቤተ",
        -9.273512840270996
      ],
      [
        "▁Hausa",
        -9.27428913116455
      ],
      [
        "▁birnin",
        -9.27478313446045
      ],
      [
        "▁እንዲሁም",
        -9.274920463562012
      ],
      [
        "ly",
        -9.275069236755371
      ],
      [
        "▁samun",
        -9.275745391845703
      ],
      [
        "▁የመ",
        -9.27624797821045
      ],
      [
        "▁Magaalada",
        -9.27879810333252
      ],
      [
        "▁jedhu",
        -9.279012680053711
      ],
      [
        "wwan",
        -9.279240608215332
      ],
      [
        "▁iyadoo",
        -9.280834197998047
      ],
      [
        "▁rwa",
        -9.281949043273926
      ],
      [
        "▁inta",
        -9.282676696777344
      ],
      [
        "▁wao",
        -9.28269100189209
      ],
      [
        "ዶ",
        -9.284360885620117
      ],
      [
        "▁@",
        -9.28464412689209
      ],
      [
        "▁nu",
        -9.285356521606445
      ],
      [
        "▁gihe",
        -9.285764694213867
      ],
      [
        "▁qaban",
        -9.285796165466309
      ],
      [
        "▁kati",
        -9.286237716674805
      ],
      [
        "ሚ",
        -9.286319732666016
      ],
      [
        "▁mba",
        -9.287586212158203
      ],
      [
        "▁kuu",
        -9.287589073181152
      ],
      [
        "naa",
        -9.287857055664062
      ],
      [
        "▁give",
        -9.288631439208984
      ],
      [
        "tay",
        -9.289051055908203
      ],
      [
        "▁karo",
        -9.293981552124023
      ],
      [
        "▁Akụkọ",
        -9.295150756835938
      ],
      [
        "▁ambaye",
        -9.297418594360352
      ],
      [
        "ቃ",
        -9.29753589630127
      ],
      [
        "▁ስእሊ",
        -9.298511505126953
      ],
      [
        "▁የሚል",
        -9.298836708068848
      ],
      [
        "▁November",
        -9.299556732177734
      ],
      [
        "▁Manchester",
        -9.29963493347168
      ],
      [
        "▁qaar",
        -9.300726890563965
      ],
      [
        "▁two",
        -9.30285930633545
      ],
      [
        "▁Salaam",
        -9.304946899414062
      ],
      [
        "▁transportation",
        -9.305974006652832
      ],
      [
        "G",
        -9.306449890136719
      ],
      [
        "▁Madaxweynaha",
        -9.307092666625977
      ],
      [
        "anii",
        -9.30781364440918
      ],
      [
        "▁obi",
        -9.308642387390137
      ],
      [
        "▁Arsenal",
        -9.310519218444824
      ],
      [
        "▁your",
        -9.311813354492188
      ],
      [
        "▁ዛሬ",
        -9.314167976379395
      ],
      [
        "▁aha",
        -9.314218521118164
      ],
      [
        "▁Funds",
        -9.314737319946289
      ],
      [
        "▁ilẹ",
        -9.314998626708984
      ],
      [
        "▁መንግሥት",
        -9.315621376037598
      ],
      [
        "▁wote",
        -9.317033767700195
      ],
      [
        "ኣ",
        -9.318753242492676
      ],
      [
        "▁hada",
        -9.319664001464844
      ],
      [
        "she",
        -9.320011138916016
      ],
      [
        "▁fa",
        -9.32068157196045
      ],
      [
        "▁ድረስ",
        -9.321147918701172
      ],
      [
        "▁ọjọ",
        -9.321271896362305
      ],
      [
        "▁all",
        -9.322395324707031
      ],
      [
        "▁ariko",
        -9.323031425476074
      ],
      [
        "▁sake",
        -9.323220252990723
      ],
      [
        "▁Mo",
        -9.323288917541504
      ],
      [
        "▁zaben",
        -9.324169158935547
      ],
      [
        "▁Bi",
        -9.324332237243652
      ],
      [
        "▁ነበር፡፡",
        -9.324395179748535
      ],
      [
        "▁ህዝብ",
        -9.324517250061035
      ],
      [
        "q",
        -9.326309204101562
      ],
      [
        "nye",
        -9.326898574829102
      ],
      [
        "▁abantu",
        -9.330708503723145
      ],
      [
        "▁akwụkwọ",
        -9.330812454223633
      ],
      [
        "enye",
        -9.33096981048584
      ],
      [
        "ዲ",
        -9.33174991607666
      ],
      [
        "▁ችግር",
        -9.333343505859375
      ],
      [
        "▁እንዲህ",
        -9.334259986877441
      ],
      [
        "▁kasta",
        -9.334367752075195
      ],
      [
        "▁use",
        -9.33508014678955
      ],
      [
        "▁isaan",
        -9.3350830078125
      ],
      [
        "▁February",
        -9.335356712341309
      ],
      [
        "▁ata",
        -9.335695266723633
      ],
      [
        "▁tins",
        -9.336180686950684
      ],
      [
        "▁hadi",
        -9.336579322814941
      ],
      [
        "▁je",
        -9.336747169494629
      ],
      [
        "▁walio",
        -9.33825969696045
      ],
      [
        "▁Chelsea",
        -9.338654518127441
      ],
      [
        "▁game",
        -9.339280128479004
      ],
      [
        "▁City",
        -9.339581489562988
      ],
      [
        "▁tell",
        -9.340041160583496
      ],
      [
        "▁sidii",
        -9.340775489807129
      ],
      [
        "▁awon",
        -9.341607093811035
      ],
      [
        "▁gwamnatin",
        -9.342059135437012
      ],
      [
        "▁Ebe",
        -9.342215538024902
      ],
      [
        "▁gobolka",
        -9.342411994934082
      ],
      [
        "▁nwa",
        -9.34348201751709
      ],
      [
        "▁lórí",
        -9.344843864440918
      ],
      [
        "▁iska",
        -9.344852447509766
      ],
      [
        "ኑ",
        -9.346719741821289
      ],
      [
        "▁hadlay",
        -9.346760749816895
      ],
      [
        "▁meel",
        -9.347450256347656
      ],
      [
        "▁Waxa",
        -9.34764575958252
      ],
      [
        "▁Abuja",
        -9.348124504089355
      ],
      [
        "▁እኔ",
        -9.34818172454834
      ],
      [
        "▁cusub",
        -9.348526000976562
      ],
      [
        "▁nyuma",
        -9.348555564880371
      ],
      [
        "rra",
        -9.348584175109863
      ],
      [
        "▁ኤርትራ",
        -9.349485397338867
      ],
      [
        "▁see",
        -9.349614143371582
      ],
      [
        "▁Cali",
        -9.35030460357666
      ],
      [
        "▁bai",
        -9.350570678710938
      ],
      [
        "▁ubu",
        -9.35071849822998
      ],
      [
        ".\"",
        -9.351530075073242
      ],
      [
        "▁kasashen",
        -9.351553916931152
      ],
      [
        "▁ምንም",
        -9.352171897888184
      ],
      [
        "▁rya",
        -9.352226257324219
      ],
      [
        "▁dhex",
        -9.353309631347656
      ],
      [
        "rraa",
        -9.353473663330078
      ],
      [
        "▁እዚ",
        -9.35367488861084
      ],
      [
        "▁jechuun",
        -9.354702949523926
      ],
      [
        "▁ì",
        -9.35549259185791
      ],
      [
        "▁duwan",
        -9.356776237487793
      ],
      [
        "▁inyuma",
        -9.356910705566406
      ],
      [
        "▁ahayd",
        -9.358107566833496
      ],
      [
        "▁P",
        -9.35863971710205
      ],
      [
        "▁ru",
        -9.358843803405762
      ],
      [
        "▁በሚ",
        -9.359114646911621
      ],
      [
        "▁cya",
        -9.359807968139648
      ],
      [
        "ቸው",
        -9.359811782836914
      ],
      [
        "▁eto",
        -9.36007022857666
      ],
      [
        "▁&",
        -9.360219955444336
      ],
      [
        "▁Nigerians",
        -9.360884666442871
      ],
      [
        "▁gihugu",
        -9.361599922180176
      ],
      [
        "▁hao",
        -9.361617088317871
      ],
      [
        "co",
        -9.36252212524414
      ],
      [
        "▁ilaa",
        -9.362654685974121
      ],
      [
        "ንም",
        -9.364824295043945
      ],
      [
        "▁እንደሆነ",
        -9.365541458129883
      ],
      [
        "maa",
        -9.365620613098145
      ],
      [
        "▁win",
        -9.365959167480469
      ],
      [
        "aya",
        -9.36744499206543
      ],
      [
        "▁bẹ",
        -9.368897438049316
      ],
      [
        "▁ndụ",
        -9.369145393371582
      ],
      [
        "▁bakka",
        -9.369302749633789
      ],
      [
        "▁Burundi",
        -9.370134353637695
      ],
      [
        "▁ቅዱስ",
        -9.370881080627441
      ],
      [
        "es",
        -9.372516632080078
      ],
      [
        "▁ሳይሆን",
        -9.372965812683105
      ],
      [
        "▁ካ",
        -9.374220848083496
      ],
      [
        "▁Ali",
        -9.375194549560547
      ],
      [
        "▁Jehova",
        -9.376166343688965
      ],
      [
        "▁máa",
        -9.376631736755371
      ],
      [
        "▁ganin",
        -9.377470016479492
      ],
      [
        "▁eniyan",
        -9.377795219421387
      ],
      [
        "▁D",
        -9.377899169921875
      ],
      [
        "▁okwu",
        -9.378403663635254
      ],
      [
        "▁Itoobiya",
        -9.37938117980957
      ],
      [
        "▁ሁለት",
        -9.37962818145752
      ],
      [
        "taa",
        -9.381312370300293
      ],
      [
        "▁በኢትዮጵያ",
        -9.383037567138672
      ],
      [
        "▁kashe",
        -9.38330364227295
      ],
      [
        "▁March",
        -9.385003089904785
      ],
      [
        "▁ọnụ",
        -9.385451316833496
      ],
      [
        "▁qayb",
        -9.386741638183594
      ],
      [
        "▁hizo",
        -9.386905670166016
      ],
      [
        "▁ụmụ",
        -9.387475967407227
      ],
      [
        "—",
        -9.388422966003418
      ],
      [
        "▁mambo",
        -9.389780044555664
      ],
      [
        "▁Ko",
        -9.390006065368652
      ],
      [
        "▁tsakanin",
        -9.391634941101074
      ],
      [
        "▁hari",
        -9.392351150512695
      ],
      [
        "▁ቃል",
        -9.392708778381348
      ],
      [
        "▁Shugaban",
        -9.392841339111328
      ],
      [
        "▁ẹni",
        -9.395885467529297
      ],
      [
        "▁taa",
        -9.397740364074707
      ],
      [
        "▁akan",
        -9.399428367614746
      ],
      [
        "ሕ",
        -9.400186538696289
      ],
      [
        "▁$",
        -9.400619506835938
      ],
      [
        "▁Chineke",
        -9.401308059692383
      ],
      [
        "uko",
        -9.402047157287598
      ],
      [
        "▁din",
        -9.402196884155273
      ],
      [
        "dhaan",
        -9.402216911315918
      ],
      [
        "ፈ",
        -9.40233325958252
      ],
      [
        "ሌ",
        -9.402554512023926
      ],
      [
        "▁ሕዝብ",
        -9.40298080444336
      ],
      [
        "▁maisha",
        -9.404067993164062
      ],
      [
        "▁kutoa",
        -9.404499053955078
      ],
      [
        "ወ",
        -9.404815673828125
      ],
      [
        "▁ባ",
        -9.405763626098633
      ],
      [
        "▁nọ",
        -9.406332015991211
      ],
      [
        "▁uku",
        -9.406893730163574
      ],
      [
        "▁work",
        -9.40770149230957
      ],
      [
        "▁April",
        -9.408617973327637
      ],
      [
        "▁ወቅት",
        -9.409239768981934
      ],
      [
        "wi",
        -9.409595489501953
      ],
      [
        "▁ሰባት",
        -9.411713600158691
      ],
      [
        "▁No",
        -9.412036895751953
      ],
      [
        "▁man",
        -9.413180351257324
      ],
      [
        "▁wengi",
        -9.413220405578613
      ],
      [
        "▁ህይወት",
        -9.414002418518066
      ],
      [
        "▁እንዴት",
        -9.41402816772461
      ],
      [
        "▁jiray",
        -9.415772438049316
      ],
      [
        "▁Facebook",
        -9.416082382202148
      ],
      [
        "▁open",
        -9.416606903076172
      ],
      [
        "▁hukumar",
        -9.417088508605957
      ],
      [
        "▁ambapo",
        -9.41779899597168
      ],
      [
        "▁ụzọ",
        -9.417807579040527
      ],
      [
        "ቢ",
        -9.418315887451172
      ],
      [
        "tee",
        -9.41852855682373
      ],
      [
        "▁yar",
        -9.418557167053223
      ],
      [
        "▁kutokana",
        -9.41946029663086
      ],
      [
        "▁cane",
        -9.419571876525879
      ],
      [
        "▁qaaday",
        -9.421111106872559
      ],
      [
        "▁or",
        -9.422106742858887
      ],
      [
        "▁Iyo",
        -9.422173500061035
      ],
      [
        "▁ወ",
        -9.423554420471191
      ],
      [
        "▁top",
        -9.424454689025879
      ],
      [
        "▁haddii",
        -9.424742698669434
      ],
      [
        "▁ṣiṣẹ",
        -9.424835205078125
      ],
      [
        "▁US",
        -9.426348686218262
      ],
      [
        "▁adda",
        -9.427440643310547
      ],
      [
        "ዕ",
        -9.427447319030762
      ],
      [
        "ለት",
        -9.427674293518066
      ],
      [
        "▁John",
        -9.428059577941895
      ],
      [
        "▁fedha",
        -9.430676460266113
      ],
      [
        "▁agba",
        -9.430877685546875
      ],
      [
        "▁ndi",
        -9.43193244934082
      ],
      [
        ",\"",
        -9.432271003723145
      ],
      [
        "▁osoo",
        -9.433497428894043
      ],
      [
        "▁unu",
        -9.434279441833496
      ],
      [
        "ደ",
        -9.434298515319824
      ],
      [
        "▁ሳይ",
        -9.43681526184082
      ],
      [
        "▁አገር",
        -9.437483787536621
      ],
      [
        "▁Za",
        -9.437561988830566
      ],
      [
        "▁dama",
        -9.437944412231445
      ],
      [
        "▁AFP",
        -9.439658164978027
      ],
      [
        "▁mee",
        -9.439900398254395
      ],
      [
        "K",
        -9.441363334655762
      ],
      [
        "▁lẹ",
        -9.44222354888916
      ],
      [
        "▁Jenụwarị",
        -9.443365097045898
      ],
      [
        "▁kabiri",
        -9.443374633789062
      ],
      [
        "▁if",
        -9.443607330322266
      ],
      [
        "▁baxay",
        -9.444378852844238
      ],
      [
        "▁December",
        -9.444764137268066
      ],
      [
        "▁akụkọ",
        -9.444853782653809
      ],
      [
        "▁Ẹ",
        -9.444910049438477
      ],
      [
        "ሱ",
        -9.445018768310547
      ],
      [
        "_",
        -9.44548225402832
      ],
      [
        "▁Xasan",
        -9.445588111877441
      ],
      [
        "j",
        -9.445891380310059
      ],
      [
        "▁ja",
        -9.446442604064941
      ],
      [
        "▁Onye",
        -9.447521209716797
      ],
      [
        "▁New",
        -9.44810676574707
      ],
      [
        "▁ol",
        -9.44933795928955
      ],
      [
        "▁ለመ",
        -9.450714111328125
      ],
      [
        "ላቸው",
        -9.451289176940918
      ],
      [
        "ቶች",
        -9.454207420349121
      ],
      [
        "▁yavuze",
        -9.45449447631836
      ],
      [
        "▁Edo",
        -9.454669952392578
      ],
      [
        "▁Why",
        -9.457141876220703
      ],
      [
        "▁ትግርኛ",
        -9.457490921020508
      ],
      [
        "▁Ukw",
        -9.457619667053223
      ],
      [
        "▁tana",
        -9.4585542678833
      ],
      [
        "▁kupata",
        -9.460808753967285
      ],
      [
        "▁gbe",
        -9.46146011352539
      ],
      [
        "▁masa",
        -9.461565971374512
      ],
      [
        "▁doono",
        -9.461854934692383
      ],
      [
        "̣",
        -9.46192741394043
      ],
      [
        "ጣ",
        -9.462414741516113
      ],
      [
        "▁ሕብረት",
        -9.463708877563477
      ],
      [
        "ሞ",
        -9.465052604675293
      ],
      [
        "▁ilé",
        -9.466447830200195
      ],
      [
        "▁Muhammadu",
        -9.467721939086914
      ],
      [
        "▁wá",
        -9.467816352844238
      ],
      [
        "▁gudanar",
        -9.468260765075684
      ],
      [
        "▁first",
        -9.468544006347656
      ],
      [
        "▁Cabdi",
        -9.468720436096191
      ],
      [
        "hu",
        -9.470197677612305
      ],
      [
        "▁orin",
        -9.471602439880371
      ],
      [
        "am",
        -9.4717378616333
      ],
      [
        "id",
        -9.47183609008789
      ],
      [
        "▁show",
        -9.472054481506348
      ],
      [
        "▁guda",
        -9.47255802154541
      ],
      [
        "▁R",
        -9.472871780395508
      ],
      [
        "▁amesema",
        -9.472994804382324
      ],
      [
        "▁Vidio",
        -9.473073959350586
      ],
      [
        "ዬ",
        -9.473212242126465
      ],
      [
        "▁CCM",
        -9.473383903503418
      ],
      [
        "▁co",
        -9.474717140197754
      ],
      [
        "▁isaga",
        -9.474797248840332
      ],
      [
        "▁sama",
        -9.47559642791748
      ],
      [
        "D",
        -9.475924491882324
      ],
      [
        "▁hatua",
        -9.47597885131836
      ],
      [
        "ị",
        -9.477569580078125
      ],
      [
        "▁garuu",
        -9.477694511413574
      ],
      [
        "▁ዋና",
        -9.477866172790527
      ],
      [
        "▁hapa",
        -9.478259086608887
      ],
      [
        "▁saa",
        -9.478418350219727
      ],
      [
        "▁aikin",
        -9.479046821594238
      ],
      [
        "▁yako",
        -9.479509353637695
      ],
      [
        "▁steeti",
        -9.480147361755371
      ],
      [
        "ze",
        -9.482011795043945
      ],
      [
        "▁ልጅ",
        -9.48315715789795
      ],
      [
        "▁ክኸውን",
        -9.483792304992676
      ],
      [
        "▁à",
        -9.484315872192383
      ],
      [
        "▁Axmed",
        -9.484452247619629
      ],
      [
        "▁ọrọ",
        -9.485671043395996
      ],
      [
        "▁yìí",
        -9.487239837646484
      ],
      [
        "▁kira",
        -9.487424850463867
      ],
      [
        "▁candidates",
        -9.48748779296875
      ],
      [
        "▁farko",
        -9.489253997802734
      ],
      [
        "▁coronavirus",
        -9.489601135253906
      ],
      [
        "▁ọhụrụ",
        -9.490413665771484
      ],
      [
        "▁otú",
        -9.490687370300293
      ],
      [
        "▁interview",
        -9.491775512695312
      ],
      [
        "▁Ị",
        -9.493773460388184
      ],
      [
        "▁cin",
        -9.494600296020508
      ],
      [
        "▁babban",
        -9.495567321777344
      ],
      [
        "▁በተ",
        -9.497814178466797
      ],
      [
        "▁pẹlu",
        -9.498086929321289
      ],
      [
        "▁ክፍል",
        -9.498862266540527
      ],
      [
        "▁jedhan",
        -9.499284744262695
      ],
      [
        "▁bar",
        -9.500184059143066
      ],
      [
        "Yan",
        -9.500407218933105
      ],
      [
        "▁matsayin",
        -9.501444816589355
      ],
      [
        "▁iṣẹ",
        -9.501532554626465
      ],
      [
        "ተው",
        -9.502054214477539
      ],
      [
        "▁ዘመን",
        -9.502265930175781
      ],
      [
        "▁cy",
        -9.502828598022461
      ],
      [
        "▁labada",
        -9.50403118133545
      ],
      [
        "jọ",
        -9.505311965942383
      ],
      [
        "▁ብር",
        -9.506792068481445
      ],
      [
        "fe",
        -9.50680923461914
      ],
      [
        "hi",
        -9.508204460144043
      ],
      [
        "▁ስራ",
        -9.508309364318848
      ],
      [
        "vi",
        -9.508402824401855
      ],
      [
        "▁haya",
        -9.508728981018066
      ],
      [
        "▁namoota",
        -9.509872436523438
      ],
      [
        "▁ያህል",
        -9.510427474975586
      ],
      [
        "▁nafasi",
        -9.510573387145996
      ],
      [
        "▁Liverpool",
        -9.5111083984375
      ],
      [
        "▁bila",
        -9.511624336242676
      ],
      [
        "▁now",
        -9.511866569519043
      ],
      [
        "▁Dem",
        -9.512367248535156
      ],
      [
        "▁በአ",
        -9.512443542480469
      ],
      [
        "▁kafa",
        -9.512642860412598
      ],
      [
        "▁yankin",
        -9.513042449951172
      ],
      [
        "▁haki",
        -9.514190673828125
      ],
      [
        "ቡ",
        -9.514556884765625
      ],
      [
        "va",
        -9.514755249023438
      ],
      [
        "ana",
        -9.515560150146484
      ],
      [
        "ede",
        -9.516584396362305
      ],
      [
        "▁አስ",
        -9.516831398010254
      ],
      [
        "▁Lee",
        -9.516968727111816
      ],
      [
        "▁qabsoo",
        -9.517127990722656
      ],
      [
        "▁ከመ",
        -9.517345428466797
      ],
      [
        "▁leeyahay",
        -9.520073890686035
      ],
      [
        "▁ኲናት",
        -9.520718574523926
      ],
      [
        "▁ọdun",
        -9.520726203918457
      ],
      [
        "▁ዶ",
        -9.521714210510254
      ],
      [
        "ghị",
        -9.522244453430176
      ],
      [
        "▁አለ",
        -9.523332595825195
      ],
      [
        "▁baadhi",
        -9.523613929748535
      ],
      [
        "▁(@",
        -9.524014472961426
      ],
      [
        "▁በማ",
        -9.524535179138184
      ],
      [
        "▁China",
        -9.526256561279297
      ],
      [
        "ng",
        -9.526558876037598
      ],
      [
        "▁ናቸው",
        -9.528382301330566
      ],
      [
        "▁Rahotanni",
        -9.529600143432617
      ],
      [
        "▁gbé",
        -9.52983283996582
      ],
      [
        "▁l",
        -9.530488967895508
      ],
      [
        "▁yara",
        -9.531429290771484
      ],
      [
        "▁mutum",
        -9.532614707946777
      ],
      [
        "▁jana",
        -9.533656120300293
      ],
      [
        "ጽ",
        -9.535391807556152
      ],
      [
        "ዛ",
        -9.53566837310791
      ],
      [
        "▁mwa",
        -9.535950660705566
      ],
      [
        "eri",
        -9.537924766540527
      ],
      [
        "run",
        -9.53865909576416
      ],
      [
        "▁Su",
        -9.539463996887207
      ],
      [
        "▁ahịa",
        -9.53975772857666
      ],
      [
        "▁yayi",
        -9.540328025817871
      ],
      [
        "▁mkpa",
        -9.540467262268066
      ],
      [
        "▁የሆነ",
        -9.541074752807617
      ],
      [
        "▁maana",
        -9.542749404907227
      ],
      [
        "ዱ",
        -9.543740272521973
      ],
      [
        "▁በማለት",
        -9.545550346374512
      ],
      [
        "▁baba",
        -9.545670509338379
      ],
      [
        "▁ykn",
        -9.54617977142334
      ],
      [
        "▁aanu",
        -9.546259880065918
      ],
      [
        "▁hojii",
        -9.546515464782715
      ],
      [
        "▁hanyar",
        -9.547037124633789
      ],
      [
        "▁dhidi",
        -9.547065734863281
      ],
      [
        "▁cewar",
        -9.547760963439941
      ],
      [
        "▁taarifa",
        -9.548598289489746
      ],
      [
        "ኩ",
        -9.549575805664062
      ],
      [
        "▁re",
        -9.549904823303223
      ],
      [
        "▁shekaru",
        -9.551344871520996
      ],
      [
        "▁ሌላ",
        -9.552278518676758
      ],
      [
        "▁ዘንድ",
        -9.55362319946289
      ],
      [
        "▁viongozi",
        -9.553686141967773
      ],
      [
        "▁haa",
        -9.554189682006836
      ],
      [
        "▁hakan",
        -9.554526329040527
      ],
      [
        "▁KU",
        -9.554877281188965
      ],
      [
        "▁video",
        -9.555102348327637
      ],
      [
        "▁Ethiopia",
        -9.55555534362793
      ],
      [
        "ዓ",
        -9.556904792785645
      ],
      [
        "▁Wannan",
        -9.55714225769043
      ],
      [
        "sii",
        -9.557632446289062
      ],
      [
        "oo",
        -9.557783126831055
      ],
      [
        "▁aho",
        -9.55805778503418
      ],
      [
        "▁qeyb",
        -9.55807876586914
      ],
      [
        "▁sare",
        -9.559492111206055
      ],
      [
        "▁agha",
        -9.560572624206543
      ],
      [
        "▁saba",
        -9.560644149780273
      ],
      [
        "▁hicho",
        -9.560772895812988
      ],
      [
        "vu",
        -9.561405181884766
      ],
      [
        "▁nkiri",
        -9.562745094299316
      ],
      [
        "▁yayin",
        -9.56296157836914
      ],
      [
        "P",
        -9.563788414001465
      ],
      [
        "▁zao",
        -9.5643310546875
      ],
      [
        "▁ሰዓታት",
        -9.56441593170166
      ],
      [
        "▁eme",
        -9.564762115478516
      ],
      [
        "ዎቹ",
        -9.565284729003906
      ],
      [
        "▁ፍርዲ",
        -9.567947387695312
      ],
      [
        "▁chama",
        -9.567972183227539
      ],
      [
        "▁ciidamada",
        -9.56928825378418
      ],
      [
        "▁Iran",
        -9.570556640625
      ],
      [
        "▁vy",
        -9.571342468261719
      ],
      [
        "▁የፖለቲካ",
        -9.572280883789062
      ],
      [
        "▁ስም",
        -9.573476791381836
      ],
      [
        "▁tan",
        -9.573549270629883
      ],
      [
        "mọ",
        -9.573622703552246
      ],
      [
        "▁gani",
        -9.574050903320312
      ],
      [
        "▁High",
        -9.575210571289062
      ],
      [
        "▁dheer",
        -9.577473640441895
      ],
      [
        "▁Shi",
        -9.57757568359375
      ],
      [
        "ahụ",
        -9.577794075012207
      ],
      [
        "▁guud",
        -9.578353881835938
      ],
      [
        "▁hili",
        -9.578453063964844
      ],
      [
        "▁mootummaa",
        -9.58016586303711
      ],
      [
        "▁ሓደ",
        -9.580294609069824
      ],
      [
        "▁reer",
        -9.580510139465332
      ],
      [
        "ሻ",
        -9.58165168762207
      ],
      [
        "▁elu",
        -9.582015991210938
      ],
      [
        "ቅድሚ",
        -9.5827054977417
      ],
      [
        "▁የማይ",
        -9.582910537719727
      ],
      [
        "▁Image",
        -9.58397102355957
      ],
      [
        "▁For",
        -9.584388732910156
      ],
      [
        "▁nje",
        -9.584517478942871
      ],
      [
        "▁galay",
        -9.585149765014648
      ],
      [
        "▁hana",
        -9.58632755279541
      ],
      [
        "▁watoto",
        -9.588258743286133
      ],
      [
        "▁ipinlẹ",
        -9.588793754577637
      ],
      [
        "▁neman",
        -9.588957786560059
      ],
      [
        "▁Marekani",
        -9.589081764221191
      ],
      [
        "▁ስለምንታይ",
        -9.590014457702637
      ],
      [
        "▁Taifa",
        -9.591277122497559
      ],
      [
        "▁የማ",
        -9.591544151306152
      ],
      [
        "▁akwai",
        -9.593936920166016
      ],
      [
        "▁iwe",
        -9.594426155090332
      ],
      [
        "▁Katika",
        -9.596077919006348
      ],
      [
        "▁majalisar",
        -9.597339630126953
      ],
      [
        "nya",
        -9.597524642944336
      ],
      [
        "▁ngwa",
        -9.597923278808594
      ],
      [
        "▁kum",
        -9.59800910949707
      ],
      [
        "▁ማድረግ",
        -9.598223686218262
      ],
      [
        "▁hadda",
        -9.599005699157715
      ],
      [
        "▁አንዱ",
        -9.599603652954102
      ],
      [
        "ani",
        -9.599715232849121
      ],
      [
        "▁Madaxweyne",
        -9.600975036621094
      ],
      [
        "▁ammoo",
        -9.601155281066895
      ],
      [
        "▁ijọba",
        -9.601574897766113
      ],
      [
        "▁ከተ",
        -9.602237701416016
      ],
      [
        "▁Kan",
        -9.603716850280762
      ],
      [
        "▁miti",
        -9.604166984558105
      ],
      [
        "▁ኣመና",
        -9.604582786560059
      ],
      [
        "aatii",
        -9.60523796081543
      ],
      [
        "▁sẹ",
        -9.6061429977417
      ],
      [
        "▁Zanzibar",
        -9.606977462768555
      ],
      [
        "▁rí",
        -9.607026100158691
      ],
      [
        "▁maamulka",
        -9.607342720031738
      ],
      [
        "▁wanao",
        -9.607386589050293
      ],
      [
        "▁ብለው",
        -9.60751724243164
      ],
      [
        "▁Federaalka",
        -9.607832908630371
      ],
      [
        "▁ፍቱዋ",
        -9.607918739318848
      ],
      [
        "ኖ",
        -9.60827922821045
      ],
      [
        "day",
        -9.608497619628906
      ],
      [
        "▁akiwa",
        -9.609173774719238
      ],
      [
        "▁wengine",
        -9.6091890335083
      ],
      [
        "▁nool",
        -9.609314918518066
      ],
      [
        "▁jijini",
        -9.61011791229248
      ],
      [
        "▁igihe",
        -9.610641479492188
      ],
      [
        "▁ሌሎች",
        -9.61124038696289
      ],
      [
        "▁Dan",
        -9.611903190612793
      ],
      [
        "▁Pidgin",
        -9.612654685974121
      ],
      [
        "▁chọrọ",
        -9.613497734069824
      ],
      [
        "▁ገሊጹ",
        -9.613598823547363
      ],
      [
        "▁Naịjirịa",
        -9.613609313964844
      ],
      [
        "▁nta",
        -9.613944053649902
      ],
      [
        "▁yidhi",
        -9.615673065185547
      ],
      [
        "▁እዩ።",
        -9.615686416625977
      ],
      [
        "▁hivi",
        -9.616034507751465
      ],
      [
        "▁talk",
        -9.616594314575195
      ],
      [
        "▁ድርጅት",
        -9.616786003112793
      ],
      [
        "▁የአ",
        -9.617103576660156
      ],
      [
        "ran",
        -9.61728286743164
      ],
      [
        "▁በኩል",
        -9.61742115020752
      ],
      [
        "▁eneo",
        -9.618728637695312
      ],
      [
        "rratti",
        -9.618741989135742
      ],
      [
        "tọ",
        -9.618782043457031
      ],
      [
        "▁ኢትዮጵያን",
        -9.618790626525879
      ],
      [
        "▁year",
        -9.618988990783691
      ],
      [
        "▁Mai",
        -9.619232177734375
      ],
      [
        "▁Obbo",
        -9.619383811950684
      ],
      [
        "▁ትምህርት",
        -9.619455337524414
      ],
      [
        "war",
        -9.619874954223633
      ],
      [
        "▁hanga",
        -9.619943618774414
      ],
      [
        "▁ummata",
        -9.620058059692383
      ],
      [
        "min",
        -9.620789527893066
      ],
      [
        "▁leta",
        -9.62096118927002
      ],
      [
        "shiryen",
        -9.621333122253418
      ],
      [
        "ፋ",
        -9.621496200561523
      ],
      [
        "▁Mr",
        -9.622089385986328
      ],
      [
        "▁zaman",
        -9.622462272644043
      ],
      [
        "us",
        -9.622653007507324
      ],
      [
        "▁World",
        -9.622825622558594
      ],
      [
        "▁huduma",
        -9.622936248779297
      ],
      [
        "ዚ",
        -9.623332977294922
      ],
      [
        "he",
        -9.62403392791748
      ],
      [
        "▁shortlist",
        -9.624975204467773
      ],
      [
        "eji",
        -9.62550163269043
      ],
      [
        "▁Je",
        -9.626179695129395
      ],
      [
        "▁Sai",
        -9.626538276672363
      ],
      [
        "▁ኡጋንዳ",
        -9.626747131347656
      ],
      [
        "▁yín",
        -9.628524780273438
      ],
      [
        "▁picha",
        -9.62945556640625
      ],
      [
        "▁Bidiyo",
        -9.62983226776123
      ],
      [
        "▁waki",
        -9.630331039428711
      ],
      [
        "ዘ",
        -9.63052749633789
      ],
      [
        "▁ọkọ",
        -9.6317777633667
      ],
      [
        "▁war",
        -9.631872177124023
      ],
      [
        "▁ከሆነ",
        -9.631917953491211
      ],
      [
        "▁kawo",
        -9.631967544555664
      ],
      [
        "ንና",
        -9.63266372680664
      ],
      [
        "igihugu",
        -9.633072853088379
      ],
      [
        "▁shacabka",
        -9.633759498596191
      ],
      [
        "dda",
        -9.634101867675781
      ],
      [
        "▁።",
        -9.634132385253906
      ],
      [
        "▁በሚል",
        -9.634934425354004
      ],
      [
        "▁yau",
        -9.6357421875
      ],
      [
        "▁huku",
        -9.63679027557373
      ],
      [
        "ቴ",
        -9.640506744384766
      ],
      [
        "▁Kanayo",
        -9.641107559204102
      ],
      [
        "nga",
        -9.64141845703125
      ],
      [
        "▁ቁጥር",
        -9.643096923828125
      ],
      [
        "ሃ",
        -9.643919944763184
      ],
      [
        "▁ኣውሮጳ",
        -9.644124984741211
      ],
      [
        "F",
        -9.644377708435059
      ],
      [
        "iin",
        -9.645570755004883
      ],
      [
        "▁kontri",
        -9.645676612854004
      ],
      [
        "▁ከምዝኽእል",
        -9.646295547485352
      ],
      [
        "▁ፓርቲ",
        -9.647274017333984
      ],
      [
        "▁ብዛዕባ",
        -9.64863395690918
      ],
      [
        "▁mkuu",
        -9.648727416992188
      ],
      [
        "▁Sunday",
        -9.649209976196289
      ],
      [
        "▁ለማ",
        -9.649340629577637
      ],
      [
        "▁ታሪክ",
        -9.649688720703125
      ],
      [
        "▁Gobolka",
        -9.650424003601074
      ],
      [
        "▁babu",
        -9.650959968566895
      ],
      [
        "▁un",
        -9.651092529296875
      ],
      [
        "▁lafiya",
        -9.651196479797363
      ],
      [
        "▁lè",
        -9.651281356811523
      ],
      [
        "▁Ee",
        -9.65146541595459
      ],
      [
        "▁cause",
        -9.651771545410156
      ],
      [
        "shirye",
        -9.65196704864502
      ],
      [
        "ሁ",
        -9.653768539428711
      ],
      [
        "ሶ",
        -9.653820991516113
      ],
      [
        "▁nri",
        -9.654071807861328
      ],
      [
        "▁መብት",
        -9.654335021972656
      ],
      [
        "▁ዓይነት",
        -9.654963493347168
      ],
      [
        "▁obodo",
        -9.655202865600586
      ],
      [
        "▁balse",
        -9.655234336853027
      ],
      [
        "▁baa",
        -9.655274391174316
      ],
      [
        "ቱን",
        -9.655671119689941
      ],
      [
        "▁facts",
        -9.656539916992188
      ],
      [
        "wu",
        -9.656654357910156
      ],
      [
        "▁time",
        -9.656960487365723
      ],
      [
        "▁Dowladda",
        -9.65785026550293
      ],
      [
        "▁ሚኒስትር",
        -9.658525466918945
      ],
      [
        "▁wenye",
        -9.659189224243164
      ],
      [
        "▁bulshada",
        -9.659255981445312
      ],
      [
        "▁Reuters",
        -9.660228729248047
      ],
      [
        "▁mmiri",
        -9.660965919494629
      ],
      [
        "L",
        -9.66152572631836
      ],
      [
        "▁faa",
        -9.661601066589355
      ],
      [
        "▁Nọvemba",
        -9.661870956420898
      ],
      [
        "▁exercise",
        -9.662707328796387
      ],
      [
        "ነው",
        -9.663177490234375
      ],
      [
        "▁turan",
        -9.663214683532715
      ],
      [
        "▁South",
        -9.663381576538086
      ],
      [
        "▁Wo",
        -9.663423538208008
      ],
      [
        "▁ገንዘብ",
        -9.663679122924805
      ],
      [
        "▁lokaci",
        -9.664702415466309
      ],
      [
        "▁son",
        -9.665596961975098
      ],
      [
        "af",
        -9.666900634765625
      ],
      [
        "▁tabbatar",
        -9.667903900146484
      ],
      [
        "▁ሃገር",
        -9.668679237365723
      ],
      [
        "dan",
        -9.670862197875977
      ],
      [
        "▁njia",
        -9.670897483825684
      ],
      [
        "ኪ",
        -9.673089027404785
      ],
      [
        "▁ነቲ",
        -9.673593521118164
      ],
      [
        "ም፡፡",
        -9.674010276794434
      ],
      [
        "▁ጀምሮ",
        -9.674649238586426
      ],
      [
        "▁tuna",
        -9.675261497497559
      ],
      [
        "▁ጠቅላይ",
        -9.677522659301758
      ],
      [
        "▁uru",
        -9.678215980529785
      ],
      [
        "▁suuraa",
        -9.678884506225586
      ],
      [
        "▁wen",
        -9.679078102111816
      ],
      [
        "com",
        -9.679129600524902
      ],
      [
        "pọ",
        -9.679913520812988
      ],
      [
        "▁jambo",
        -9.6805419921875
      ],
      [
        "▁ስ",
        -9.680652618408203
      ],
      [
        "▁àmúy",
        -9.681439399719238
      ],
      [
        "v",
        -9.681587219238281
      ],
      [
        "mbo",
        -9.681746482849121
      ],
      [
        "▁ሰብ",
        -9.682058334350586
      ],
      [
        "▁karin",
        -9.682319641113281
      ],
      [
        "▁Somalia",
        -9.683810234069824
      ],
      [
        "ቦ",
        -9.684144020080566
      ],
      [
        "▁alikuwa",
        -9.684383392333984
      ],
      [
        "▁Afaan",
        -9.685098648071289
      ],
      [
        "▁chini",
        -9.685574531555176
      ],
      [
        "▁yóò",
        -9.685750007629395
      ],
      [
        "▁ተፈጺሙ",
        -9.686389923095703
      ],
      [
        "▁ገበናት",
        -9.687588691711426
      ],
      [
        "▁kupitia",
        -9.688103675842285
      ],
      [
        "▁bya",
        -9.688591957092285
      ],
      [
        "▁Oduu",
        -9.689067840576172
      ],
      [
        "▁gbígbọ",
        -9.689132690429688
      ],
      [
        "W",
        -9.690132141113281
      ],
      [
        "en",
        -9.691704750061035
      ],
      [
        "▁laakiin",
        -9.692208290100098
      ],
      [
        "nà",
        -9.692923545837402
      ],
      [
        "▁ume",
        -9.693567276000977
      ],
      [
        "▁markaana",
        -9.694061279296875
      ],
      [
        "▁kaga",
        -9.694079399108887
      ],
      [
        "▁rediyo",
        -9.69414234161377
      ],
      [
        "▁uchaguzi",
        -9.695158958435059
      ],
      [
        "▁kadib",
        -9.695236206054688
      ],
      [
        "▁timu",
        -9.695734977722168
      ],
      [
        "▁እንታይ",
        -9.696264266967773
      ],
      [
        "▁also",
        -9.696436882019043
      ],
      [
        "▁egwu",
        -9.696748733520508
      ],
      [
        "▁bisa",
        -9.696929931640625
      ],
      [
        "▁Quick",
        -9.6987943649292
      ],
      [
        "▁ቀሪቦም",
        -9.701047897338867
      ],
      [
        "▁d",
        -9.701239585876465
      ],
      [
        "Ma",
        -9.702393531799316
      ],
      [
        "▁Dis",
        -9.702608108520508
      ],
      [
        "▁yetu",
        -9.703226089477539
      ],
      [
        "▁Labaran",
        -9.703496932983398
      ],
      [
        "▁Wasanni",
        -9.70474910736084
      ],
      [
        "▁OLUWA",
        -9.704817771911621
      ],
      [
        "nii",
        -9.70523738861084
      ],
      [
        "▁eeyan",
        -9.705923080444336
      ],
      [
        "one",
        -9.706795692443848
      ],
      [
        "▁W",
        -9.70914363861084
      ],
      [
        "▁won",
        -9.709343910217285
      ],
      [
        "▁shekarar",
        -9.709513664245605
      ],
      [
        "▁H",
        -9.710135459899902
      ],
      [
        "▁MSMEs",
        -9.71059799194336
      ],
      [
        "kooda",
        -9.712080955505371
      ],
      [
        "▁kamid",
        -9.71250057220459
      ],
      [
        "▁ክርስቲያን",
        -9.712693214416504
      ],
      [
        "H",
        -9.713443756103516
      ],
      [
        "▁taron",
        -9.71345329284668
      ],
      [
        "▁zote",
        -9.713966369628906
      ],
      [
        "▁ስክፍትኡ",
        -9.71416187286377
      ],
      [
        "▁ይህንን",
        -9.714573860168457
      ],
      [
        "lla",
        -9.714964866638184
      ],
      [
        "▁socda",
        -9.714987754821777
      ],
      [
        "▁ụbọchị",
        -9.71518611907959
      ],
      [
        "▁ተስፋ",
        -9.715800285339355
      ],
      [
        "▁banyere",
        -9.71603775024414
      ],
      [
        "ጭ",
        -9.716496467590332
      ],
      [
        "▁naannoo",
        -9.717458724975586
      ],
      [
        "▁usoro",
        -9.71765422821045
      ],
      [
        "▁ልዩ",
        -9.718536376953125
      ],
      [
        "ቕ",
        -9.718855857849121
      ],
      [
        "▁zina",
        -9.719535827636719
      ],
      [
        "▁eyi",
        -9.719944953918457
      ],
      [
        "▁baahan",
        -9.7200288772583
      ],
      [
        "▁መሆን",
        -9.720182418823242
      ],
      [
        "▁Kaduna",
        -9.720240592956543
      ],
      [
        "▁owo",
        -9.720391273498535
      ],
      [
        "▁ዝተ",
        -9.720768928527832
      ],
      [
        "ፅ",
        -9.720784187316895
      ],
      [
        "▁nnkan",
        -9.721978187561035
      ],
      [
        "▁sheria",
        -9.721993446350098
      ],
      [
        "▁Musamman",
        -9.722295761108398
      ],
      [
        "ሓ",
        -9.72260856628418
      ],
      [
        "▁iwu",
        -9.723074913024902
      ],
      [
        "▁Go",
        -9.723958015441895
      ],
      [
        "▁more",
        -9.724547386169434
      ],
      [
        "▁Sheekh",
        -9.725064277648926
      ],
      [
        "▁gidan",
        -9.728409767150879
      ],
      [
        "gba",
        -9.729073524475098
      ],
      [
        "▁Mwenyekiti",
        -9.730131149291992
      ],
      [
        "▁»",
        -9.730557441711426
      ],
      [
        "ara",
        -9.73092269897461
      ],
      [
        "▁erga",
        -9.731301307678223
      ],
      [
        "▁ባለ",
        -9.731889724731445
      ],
      [
        "▁hoton",
        -9.732309341430664
      ],
      [
        "▁mpya",
        -9.732336044311523
      ],
      [
        "▁Amma",
        -9.732385635375977
      ],
      [
        "▁League",
        -9.73299503326416
      ],
      [
        "▁walba",
        -9.733307838439941
      ],
      [
        "▁kabla",
        -9.733335494995117
      ],
      [
        "▁law",
        -9.734109878540039
      ],
      [
        "▁too",
        -9.734211921691895
      ],
      [
        "▁jama",
        -9.734213829040527
      ],
      [
        "▁House",
        -9.734614372253418
      ],
      [
        "▁J",
        -9.736461639404297
      ],
      [
        "▁doonaa",
        -9.737247467041016
      ],
      [
        "ina",
        -9.738184928894043
      ],
      [
        "▁Cikakk",
        -9.738313674926758
      ],
      [
        "▁yace",
        -9.738432884216309
      ],
      [
        "▁aliye",
        -9.739641189575195
      ],
      [
        "▁laba",
        -9.740459442138672
      ],
      [
        "▁ኮሮናቫይረስ",
        -9.740575790405273
      ],
      [
        "▁nípa",
        -9.740890502929688
      ],
      [
        "▁kasoo",
        -9.741064071655273
      ],
      [
        "▁Home",
        -9.741128921508789
      ],
      [
        "▁noqon",
        -9.741552352905273
      ],
      [
        "▁ያለውን",
        -9.741668701171875
      ],
      [
        "▁ያሉ",
        -9.742164611816406
      ],
      [
        "▁Bu",
        -9.743474960327148
      ],
      [
        "▁mẹ",
        -9.744030952453613
      ],
      [
        "▁ሙሉ",
        -9.744497299194336
      ],
      [
        "raa",
        -9.74461555480957
      ],
      [
        "▁kọjá",
        -9.745281219482422
      ],
      [
        "▁Muuqaal",
        -9.745606422424316
      ],
      [
        "▁Shehu",
        -9.745766639709473
      ],
      [
        "▁ሀገር",
        -9.746601104736328
      ],
      [
        "▁ilu",
        -9.747395515441895
      ],
      [
        "ኔ",
        -9.74751091003418
      ],
      [
        "jú",
        -9.748235702514648
      ],
      [
        "▁haala",
        -9.750004768371582
      ],
      [
        "▁Wasiirka",
        -9.750407218933105
      ],
      [
        "▁aysan",
        -9.750432968139648
      ],
      [
        "▁ኣይ",
        -9.750828742980957
      ],
      [
        "sẹ",
        -9.751694679260254
      ],
      [
        "▁mú",
        -9.752144813537598
      ],
      [
        "ኮ",
        -9.753557205200195
      ],
      [
        "▁መረጃ",
        -9.753665924072266
      ],
      [
        "▁•",
        -9.753708839416504
      ],
      [
        ",”",
        -9.753899574279785
      ],
      [
        "▁Nishadi",
        -9.754020690917969
      ],
      [
        "▁እግዚአብሔር",
        -9.755148887634277
      ],
      [
        "▁graduate",
        -9.75666618347168
      ],
      [
        "▁mafi",
        -9.756965637207031
      ],
      [
        "▁Perezida",
        -9.757512092590332
      ],
      [
        "▁abubuwan",
        -9.758194923400879
      ],
      [
        "▁hawa",
        -9.758347511291504
      ],
      [
        "▁tsaro",
        -9.758383750915527
      ],
      [
        "▁Donald",
        -9.758706092834473
      ],
      [
        "ታቸው",
        -9.758776664733887
      ],
      [
        "▁Junior",
        -9.758809089660645
      ],
      [
        "uuf",
        -9.75936508178711
      ],
      [
        "▁start",
        -9.760890007019043
      ],
      [
        "gii",
        -9.76220989227295
      ],
      [
        "▁girls",
        -9.763264656066895
      ],
      [
        "▁mama",
        -9.76378059387207
      ],
      [
        "▁sehemu",
        -9.763960838317871
      ],
      [
        "▁ABO",
        -9.764009475708008
      ],
      [
        "▁ሰላም",
        -9.76486873626709
      ],
      [
        "ጅ",
        -9.766221046447754
      ],
      [
        "▁nin",
        -9.76647663116455
      ],
      [
        "▁ኣፍሪቃ",
        -9.76744270324707
      ],
      [
        "▁Madrid",
        -9.76748275756836
      ],
      [
        "▁deebi",
        -9.767752647399902
      ],
      [
        "▁በአንድ",
        -9.767874717712402
      ],
      [
        "▁ሃገራት",
        -9.768428802490234
      ],
      [
        "▁እኛ",
        -9.768616676330566
      ],
      [
        "▁become",
        -9.76896858215332
      ],
      [
        "▁gwamnati",
        -9.769824028015137
      ],
      [
        "▁kutumia",
        -9.76987361907959
      ],
      [
        "▁Egwuregwu",
        -9.770326614379883
      ],
      [
        "able",
        -9.771404266357422
      ],
      [
        "▁Instagram",
        -9.771498680114746
      ],
      [
        "▁አገልግሎት",
        -9.7716646194458
      ],
      [
        "▁ju",
        -9.772058486938477
      ],
      [
        "▁ምንጪ",
        -9.772160530090332
      ],
      [
        "dọ",
        -9.77224349975586
      ],
      [
        "ቆ",
        -9.774001121520996
      ],
      [
        "▁Soomaalida",
        -9.774871826171875
      ],
      [
        "ቁ",
        -9.775042533874512
      ],
      [
        "▁maeneo",
        -9.775309562683105
      ],
      [
        "▁ሲል",
        -9.775309562683105
      ],
      [
        "▁ayay",
        -9.776031494140625
      ],
      [
        "▁Magufuli",
        -9.776058197021484
      ],
      [
        "tuu",
        -9.776129722595215
      ],
      [
        "▁ናቸው።",
        -9.777326583862305
      ],
      [
        "▁ቡድን",
        -9.778151512145996
      ],
      [
        "▁ọdún",
        -9.779111862182617
      ],
      [
        "ibi",
        -9.78133487701416
      ],
      [
        "▁Waxaan",
        -9.781524658203125
      ],
      [
        "ቤት",
        -9.782169342041016
      ],
      [
        "ለው",
        -9.78223991394043
      ],
      [
        "▁abu",
        -9.78283977508545
      ],
      [
        "▁L",
        -9.782845497131348
      ],
      [
        "chaa",
        -9.782991409301758
      ],
      [
        "mbi",
        -9.784066200256348
      ],
      [
        "▁Ji",
        -9.784285545349121
      ],
      [
        "▁ምርጫ",
        -9.784589767456055
      ],
      [
        "▁Ana",
        -9.78501033782959
      ],
      [
        "▁gasar",
        -9.785492897033691
      ],
      [
        "▁doonaan",
        -9.78553295135498
      ],
      [
        "ችን",
        -9.785562515258789
      ],
      [
        "▁hal",
        -9.785767555236816
      ],
      [
        "▁ኢ",
        -9.785935401916504
      ],
      [
        "faa",
        -9.78630256652832
      ],
      [
        "▁kweli",
        -9.786405563354492
      ],
      [
        "▁mbali",
        -9.78646469116211
      ],
      [
        "▁Mheshimiwa",
        -9.787025451660156
      ],
      [
        "▁እንኳን",
        -9.78754997253418
      ],
      [
        "▁sano",
        -9.789719581604004
      ],
      [
        "▁Big",
        -9.79017448425293
      ],
      [
        "ngo",
        -9.790201187133789
      ],
      [
        "▁hapo",
        -9.790698051452637
      ],
      [
        "ባት",
        -9.790876388549805
      ],
      [
        "▁kwezi",
        -9.79149055480957
      ],
      [
        "oldest",
        -9.791735649108887
      ],
      [
        "▁musamman",
        -9.793054580688477
      ],
      [
        "▁እንዳይ",
        -9.793631553649902
      ],
      [
        "▁fídíò",
        -9.793816566467285
      ],
      [
        "▁tẹ",
        -9.7941312789917
      ],
      [
        "jẹ",
        -9.796092987060547
      ],
      [
        "lé",
        -9.797203063964844
      ],
      [
        "ila",
        -9.797977447509766
      ],
      [
        "▁ọma",
        -9.79825496673584
      ],
      [
        "▁አካባቢ",
        -9.798405647277832
      ],
      [
        "▁ህወሓት",
        -9.798556327819824
      ],
      [
        "▁iliyo",
        -9.798840522766113
      ],
      [
        "▁inaan",
        -9.799386978149414
      ],
      [
        "▁yose",
        -9.801408767700195
      ],
      [
        "▁inayo",
        -9.801636695861816
      ],
      [
        "▁bata",
        -9.801753044128418
      ],
      [
        "▁Habari",
        -9.801815032958984
      ],
      [
        "▁mjini",
        -9.80191707611084
      ],
      [
        "▁rashin",
        -9.802290916442871
      ],
      [
        "▁samar",
        -9.80236530303955
      ],
      [
        "▁ከሚ",
        -9.802563667297363
      ],
      [
        "▁maji",
        -9.802629470825195
      ],
      [
        "▁Cha",
        -9.803217887878418
      ],
      [
        "▁umu",
        -9.803688049316406
      ],
      [
        "▁Viidiyoo",
        -9.804932594299316
      ],
      [
        "▁sakamakon",
        -9.805158615112305
      ],
      [
        "▁ubuzima",
        -9.805932998657227
      ],
      [
        "▁ስለዚህ",
        -9.806349754333496
      ],
      [
        "▁So",
        -9.80643367767334
      ],
      [
        "otu",
        -9.806487083435059
      ],
      [
        "iyo",
        -9.806661605834961
      ],
      [
        "▁እጅግ",
        -9.807445526123047
      ],
      [
        "tt",
        -9.807806968688965
      ],
      [
        "ኡ",
        -9.80819320678711
      ],
      [
        "▁vote",
        -9.808534622192383
      ],
      [
        "▁yote",
        -9.80890941619873
      ],
      [
        "ve",
        -9.808948516845703
      ],
      [
        "▁kura",
        -9.810807228088379
      ],
      [
        "jo",
        -9.81197452545166
      ],
      [
        "▁bora",
        -9.813254356384277
      ],
      [
        "▁nwoke",
        -9.813837051391602
      ],
      [
        "▁hay",
        -9.814684867858887
      ],
      [
        "▁Baarlamaanka",
        -9.815021514892578
      ],
      [
        "▁እነዚህ",
        -9.815196990966797
      ],
      [
        "▁Ado",
        -9.815290451049805
      ],
      [
        "▁walitti",
        -9.815729141235352
      ],
      [
        "▁ገ",
        -9.816831588745117
      ],
      [
        "▁እንዳ",
        -9.818374633789062
      ],
      [
        "▁mkubwa",
        -9.818389892578125
      ],
      [
        "▁wanaagsan",
        -9.818707466125488
      ],
      [
        "tin",
        -9.81872844696045
      ],
      [
        "▁But",
        -9.819435119628906
      ],
      [
        "▁sauran",
        -9.81948184967041
      ],
      [
        "▁ONU",
        -9.819954872131348
      ],
      [
        "▁Bara",
        -9.820165634155273
      ],
      [
        "▁waka",
        -9.820762634277344
      ],
      [
        "▁deegaanka",
        -9.82081127166748
      ],
      [
        "▁sheegtay",
        -9.821105003356934
      ],
      [
        "▁rasmi",
        -9.821123123168945
      ],
      [
        "▁ọchịchị",
        -9.821687698364258
      ],
      [
        "kiisa",
        -9.822259902954102
      ],
      [
        "▁ndio",
        -9.822561264038086
      ],
      [
        "▁ụfọdụ",
        -9.823115348815918
      ],
      [
        "▁iko",
        -9.823486328125
      ],
      [
        "▁ezi",
        -9.824224472045898
      ],
      [
        "ዮ",
        -9.824431419372559
      ],
      [
        "▁because",
        -9.824787139892578
      ],
      [
        "▁pesin",
        -9.82520866394043
      ],
      [
        "▁Bo",
        -9.825234413146973
      ],
      [
        "▁በርካታ",
        -9.825969696044922
      ],
      [
        "▁magaalaa",
        -9.826598167419434
      ],
      [
        "▁abala",
        -9.826983451843262
      ],
      [
        "▁guddaa",
        -9.827574729919434
      ],
      [
        "▁Li",
        -9.829085350036621
      ],
      [
        "▁Ọlọrun",
        -9.829141616821289
      ],
      [
        "▁nyingi",
        -9.830076217651367
      ],
      [
        "▁garin",
        -9.830764770507812
      ],
      [
        "yaa",
        -9.831228256225586
      ],
      [
        "▁zake",
        -9.832202911376953
      ],
      [
        "ቤ",
        -9.832440376281738
      ],
      [
        "▁ሰዓት",
        -9.83262825012207
      ],
      [
        "rwa",
        -9.832941055297852
      ],
      [
        "▁Ibrahim",
        -9.833117485046387
      ],
      [
        "▁mbili",
        -9.833402633666992
      ],
      [
        "▁ወር",
        -9.833748817443848
      ],
      [
        "▁Aba",
        -9.834409713745117
      ],
      [
        "▁shirin",
        -9.834816932678223
      ],
      [
        "▁Mkoa",
        -9.835563659667969
      ],
      [
        "▁taas",
        -9.835663795471191
      ],
      [
        "▁African",
        -9.83598804473877
      ],
      [
        "ጡ",
        -9.83639144897461
      ],
      [
        "▁jiraan",
        -9.8372163772583
      ],
      [
        "ሬ",
        -9.837930679321289
      ],
      [
        "▁bọ",
        -9.838930130004883
      ],
      [
        "▁òun",
        -9.840142250061035
      ],
      [
        "▁ico",
        -9.840495109558105
      ],
      [
        "▁mw",
        -9.840846061706543
      ],
      [
        "▁oke",
        -9.841758728027344
      ],
      [
        "ṣẹ",
        -9.84242057800293
      ],
      [
        "▁ፕረዚደንት",
        -9.842443466186523
      ],
      [
        "▁ikiwa",
        -9.842822074890137
      ],
      [
        "▁mkutano",
        -9.843255996704102
      ],
      [
        "▁አባላት",
        -9.843499183654785
      ],
      [
        "▁Youth",
        -9.8441162109375
      ],
      [
        "ጉ",
        -9.844121932983398
      ],
      [
        "R",
        -9.844289779663086
      ],
      [
        "▁yẹ",
        -9.844461441040039
      ],
      [
        "▁yaada",
        -9.845357894897461
      ],
      [
        "▁Shugaba",
        -9.845727920532227
      ],
      [
        "▁ወይ",
        -9.845993995666504
      ],
      [
        "▁Dalka",
        -9.846339225769043
      ],
      [
        "▁Minister",
        -9.84644603729248
      ],
      [
        "▁dá",
        -9.847036361694336
      ],
      [
        "▁Eko",
        -9.848341941833496
      ],
      [
        "▁Fa",
        -9.848344802856445
      ],
      [
        "▁kawai",
        -9.849640846252441
      ],
      [
        "▁ሓ",
        -9.849782943725586
      ],
      [
        "ck",
        -9.850150108337402
      ],
      [
        "▁nakwa",
        -9.850193977355957
      ],
      [
        "▁kwesịrị",
        -9.850996017456055
      ],
      [
        "▁የተለያዩ",
        -9.851398468017578
      ],
      [
        "el",
        -9.851930618286133
      ],
      [
        "gwa",
        -9.853118896484375
      ],
      [
        "▁mchezo",
        -9.853506088256836
      ],
      [
        "▁kitu",
        -9.853775024414062
      ],
      [
        "ewuewu",
        -9.855701446533203
      ],
      [
        "▁atọ",
        -9.855950355529785
      ],
      [
        "▁Tu",
        -9.856180191040039
      ],
      [
        "▁Re",
        -9.856508255004883
      ],
      [
        "▁ትሕዝቶ",
        -9.856545448303223
      ],
      [
        "▁Golaha",
        -9.856700897216797
      ],
      [
        "▁muhimu",
        -9.857034683227539
      ],
      [
        "ጫ",
        -9.858864784240723
      ],
      [
        "▁አይደለም",
        -9.859147071838379
      ],
      [
        "▁nyingine",
        -9.85950756072998
      ],
      [
        "imyaka",
        -9.859932899475098
      ],
      [
        "kin",
        -9.860100746154785
      ],
      [
        "X",
        -9.86021900177002
      ],
      [
        "▁halka",
        -9.860618591308594
      ],
      [
        "oota",
        -9.861030578613281
      ],
      [
        "▁አን",
        -9.861303329467773
      ],
      [
        "▁ahayn",
        -9.86148452758789
      ],
      [
        "▁yawa",
        -9.861865043640137
      ],
      [
        "▁Congo",
        -9.862971305847168
      ],
      [
        "pu",
        -9.86325740814209
      ],
      [
        "etiti",
        -9.863541603088379
      ],
      [
        "wákàt",
        -9.86408805847168
      ],
      [
        "▁መሰረት",
        -9.864141464233398
      ],
      [
        "▁Airforce",
        -9.86469841003418
      ],
      [
        "▁guyyaa",
        -9.864937782287598
      ],
      [
        "▁nguvu",
        -9.865636825561523
      ],
      [
        "▁kanaan",
        -9.865845680236816
      ],
      [
        "▁hamwe",
        -9.866007804870605
      ],
      [
        "BN",
        -9.86655330657959
      ],
      [
        "▁Har",
        -9.867411613464355
      ],
      [
        "▁Wine",
        -9.868695259094238
      ],
      [
        "pi",
        -9.869468688964844
      ],
      [
        "ኛው",
        -9.87044620513916
      ],
      [
        "▁Afirka",
        -9.872713088989258
      ],
      [
        "amatora",
        -9.873332977294922
      ],
      [
        "▁selection",
        -9.873952865600586
      ],
      [
        "▁out",
        -9.873963356018066
      ],
      [
        "▁ከባቢ",
        -9.874429702758789
      ],
      [
        "ch",
        -9.87500286102295
      ],
      [
        "▁still",
        -9.875186920166016
      ],
      [
        "ኽ",
        -9.875239372253418
      ],
      [
        "▁saabsan",
        -9.875325202941895
      ],
      [
        "▁court",
        -9.876298904418945
      ],
      [
        "▁kugira",
        -9.876749992370605
      ],
      [
        "▁መጋቢት",
        -9.87726879119873
      ],
      [
        "daa",
        -9.877276420593262
      ],
      [
        "▁Idaacadda",
        -9.877474784851074
      ],
      [
        "▁ሁሉም",
        -9.87853717803955
      ],
      [
        "▁dates",
        -9.880196571350098
      ],
      [
        "▁women",
        -9.880265235900879
      ],
      [
        "▁kanneen",
        -9.88115406036377
      ],
      [
        "▁vi",
        -9.881695747375488
      ],
      [
        "▁wi",
        -9.881861686706543
      ],
      [
        "▁ታ",
        -9.881922721862793
      ],
      [
        "▁mean",
        -9.882740020751953
      ],
      [
        "nsu",
        -9.883411407470703
      ],
      [
        "▁ntị",
        -9.884058952331543
      ],
      [
        "▁nítorí",
        -9.88479995727539
      ],
      [
        "▁ፍርድ",
        -9.885138511657715
      ],
      [
        "agba",
        -9.885419845581055
      ],
      [
        "▁wasa",
        -9.88660717010498
      ],
      [
        "▁lama",
        -9.887678146362305
      ],
      [
        "▁deh",
        -9.88797664642334
      ],
      [
        "▁El",
        -9.888200759887695
      ],
      [
        "laa",
        -9.888810157775879
      ],
      [
        "▁አቀፍ",
        -9.888838768005371
      ],
      [
        "▁Naija",
        -9.888989448547363
      ],
      [
        "▁ለምን",
        -9.889143943786621
      ],
      [
        "▁kasance",
        -9.889169692993164
      ],
      [
        "▁wixii",
        -9.889459609985352
      ],
      [
        "▁yawan",
        -9.889856338500977
      ],
      [
        "▁tena",
        -9.890058517456055
      ],
      [
        "▁የምን",
        -9.890140533447266
      ],
      [
        "▁jamii",
        -9.890961647033691
      ],
      [
        "▁kafin",
        -9.890968322753906
      ],
      [
        "▁Mi",
        -9.891131401062012
      ],
      [
        "▁Majalisar",
        -9.891511917114258
      ],
      [
        "ዎችን",
        -9.892454147338867
      ],
      [
        "▁Gahuza",
        -9.89294719696045
      ],
      [
        "▁elimu",
        -9.893343925476074
      ],
      [
        "▁wetu",
        -9.893839836120605
      ],
      [
        "▁ọkụ",
        -9.895297050476074
      ],
      [
        "▁kamata",
        -9.895354270935059
      ],
      [
        "eed",
        -9.895554542541504
      ],
      [
        "▁kó",
        -9.89661693572998
      ],
      [
        "rí",
        -9.897064208984375
      ],
      [
        "▁maamul",
        -9.898837089538574
      ],
      [
        "▁መግለጫ",
        -9.899012565612793
      ],
      [
        "qa",
        -9.899271011352539
      ],
      [
        "▁kare",
        -9.89974594116211
      ],
      [
        "▁Real",
        -9.899787902832031
      ],
      [
        "▁kanaa",
        -9.900179862976074
      ],
      [
        "▁arrimaha",
        -9.900540351867676
      ],
      [
        "▁Ganacsi",
        -9.900693893432617
      ],
      [
        "▁hedduu",
        -9.900970458984375
      ],
      [
        "▁suppose",
        -9.901371002197266
      ],
      [
        "▁five",
        -9.901389122009277
      ],
      [
        "▁taifa",
        -9.902297019958496
      ],
      [
        "▁isagoo",
        -9.9027738571167
      ],
      [
        "oge",
        -9.902833938598633
      ],
      [
        "፦",
        -9.9032564163208
      ],
      [
        "▁bọọlụ",
        -9.903923988342285
      ],
      [
        "eef",
        -9.903946876525879
      ],
      [
        "▁ihi",
        -9.904634475708008
      ],
      [
        "▁f",
        -9.905390739440918
      ],
      [
        "▁Me",
        -9.90549373626709
      ],
      [
        "▁ምክር",
        -9.906320571899414
      ],
      [
        "▁Google",
        -9.907512664794922
      ],
      [
        "▁Investment",
        -9.907758712768555
      ],
      [
        "▁uummata",
        -9.908679962158203
      ],
      [
        "▁ተብሎ",
        -9.908956527709961
      ],
      [
        "ጠ",
        -9.90896224975586
      ],
      [
        "▁hasa",
        -9.909467697143555
      ],
      [
        "ኤ",
        -9.909685134887695
      ],
      [
        "ishobora",
        -9.910082817077637
      ],
      [
        "▁gbọ",
        -9.911229133605957
      ],
      [
        "▁bado",
        -9.911901473999023
      ],
      [
        "▁መምህር",
        -9.911931037902832
      ],
      [
        "▁ọkaibe",
        -9.912039756774902
      ],
      [
        "▁James",
        -9.912109375
      ],
      [
        "nsa",
        -9.913280487060547
      ],
      [
        "▁Bobi",
        -9.913735389709473
      ],
      [
        "▁inni",
        -9.915060997009277
      ],
      [
        "nka",
        -9.915282249450684
      ],
      [
        "ffaa",
        -9.915283203125
      ],
      [
        "▁sanya",
        -9.91579532623291
      ],
      [
        "▁ቢሆን",
        -9.915813446044922
      ],
      [
        "▁የምት",
        -9.915902137756348
      ],
      [
        "▁Kana",
        -9.916253089904785
      ],
      [
        "▁Disemba",
        -9.916327476501465
      ],
      [
        "▁Korea",
        -9.916348457336426
      ],
      [
        "▁iyi",
        -9.916633605957031
      ],
      [
        "▁ግንኙነት",
        -9.917852401733398
      ],
      [
        "▁Mgbe",
        -9.918975830078125
      ],
      [
        "▁happun",
        -9.919361114501953
      ],
      [
        "▁bada",
        -9.920954704284668
      ],
      [
        "pata",
        -9.921162605285645
      ],
      [
        "▁ise",
        -9.921388626098633
      ],
      [
        "▁ኣመሪካ",
        -9.921773910522461
      ],
      [
        "V",
        -9.921942710876465
      ],
      [
        "▁ፖሊስ",
        -9.922438621520996
      ],
      [
        "▁kee",
        -9.923320770263672
      ],
      [
        "▁weh",
        -9.923349380493164
      ],
      [
        "ሜ",
        -9.923664093017578
      ],
      [
        "▁kabisa",
        -9.923843383789062
      ],
      [
        "▁waye",
        -9.924006462097168
      ],
      [
        "▁dhaqan",
        -9.924479484558105
      ],
      [
        "▁Kama",
        -9.924943923950195
      ],
      [
        "ፊ",
        -9.926040649414062
      ],
      [
        "▁support",
        -9.926281929016113
      ],
      [
        "▁ግድብ",
        -9.926593780517578
      ],
      [
        "▁Gu",
        -9.926613807678223
      ],
      [
        "nay",
        -9.926843643188477
      ],
      [
        "amu",
        -9.926854133605957
      ],
      [
        "▁መሆኑ",
        -9.92705249786377
      ],
      [
        "▁Cayaaraha",
        -9.92760944366455
      ],
      [
        "▁ያስ",
        -9.927791595458984
      ],
      [
        "▁Umoja",
        -9.928316116333008
      ],
      [
        "▁ጥሩ",
        -9.92946720123291
      ],
      [
        "▁ዘይ",
        -9.930047988891602
      ],
      [
        "▁yaki",
        -9.930871963500977
      ],
      [
        "▁Anyị",
        -9.932053565979004
      ],
      [
        "▁nini",
        -9.933053970336914
      ],
      [
        "▁labarai",
        -9.9339599609375
      ],
      [
        "▁cyane",
        -9.934111595153809
      ],
      [
        "ኻ",
        -9.934218406677246
      ],
      [
        "▁Barnaamijyada",
        -9.934389114379883
      ],
      [
        "▁Ciidamada",
        -9.935691833496094
      ],
      [
        "▁inaad",
        -9.936773300170898
      ],
      [
        "▁Akka",
        -9.937137603759766
      ],
      [
        "▁kuji",
        -9.937155723571777
      ],
      [
        "▁shule",
        -9.937838554382324
      ],
      [
        "sta",
        -9.937936782836914
      ],
      [
        "▁wadda",
        -9.937983512878418
      ],
      [
        "ጃ",
        -9.938364028930664
      ],
      [
        "▁We",
        -9.938461303710938
      ],
      [
        "▁ነው፤",
        -9.938688278198242
      ],
      [
        "▁send",
        -9.93913745880127
      ],
      [
        "▁Sẹ",
        -9.939482688903809
      ],
      [
        "▁mutanen",
        -9.939626693725586
      ],
      [
        "▁ከምዝ",
        -9.940516471862793
      ],
      [
        "▁ዋይን",
        -9.94064712524414
      ],
      [
        "▁maendeleo",
        -9.941649436950684
      ],
      [
        "▁መረጻ",
        -9.941656112670898
      ],
      [
        "▁polisi",
        -9.941916465759277
      ],
      [
        "▁mul",
        -9.942684173583984
      ],
      [
        "▁ቦቢ",
        -9.943231582641602
      ],
      [
        "▁uwo",
        -9.943503379821777
      ],
      [
        "▁ኣቶ",
        -9.944008827209473
      ],
      [
        "▁ọba",
        -9.944214820861816
      ],
      [
        "▁dagaal",
        -9.945693969726562
      ],
      [
        "▁በዓልቲ",
        -9.945789337158203
      ],
      [
        "▁ambazo",
        -9.94587230682373
      ],
      [
        "▁ሲያ",
        -9.946049690246582
      ],
      [
        "J",
        -9.946455955505371
      ],
      [
        "ah",
        -9.946760177612305
      ],
      [
        "▁ruo",
        -9.947253227233887
      ],
      [
        "▁ila",
        -9.947399139404297
      ],
      [
        "nis",
        -9.947628021240234
      ],
      [
        "▁tsarin",
        -9.947847366333008
      ],
      [
        "▁UK",
        -9.948627471923828
      ],
      [
        "▁ዋጋ",
        -9.948773384094238
      ],
      [
        "▁uwezo",
        -9.948819160461426
      ],
      [
        "ን፣",
        -9.949289321899414
      ],
      [
        "llee",
        -9.950357437133789
      ],
      [
        "▁ለውጥ",
        -9.950369834899902
      ],
      [
        "▁Hay",
        -9.950715065002441
      ],
      [
        "▁Idris",
        -9.950750350952148
      ],
      [
        "▁Maamulka",
        -9.950777053833008
      ],
      [
        "toa",
        -9.950806617736816
      ],
      [
        "▁Wani",
        -9.951099395751953
      ],
      [
        "▁sanda",
        -9.951103210449219
      ],
      [
        "▁kipindi",
        -9.951196670532227
      ],
      [
        "▁mbụ",
        -9.951597213745117
      ],
      [
        "▁fans",
        -9.952014923095703
      ],
      [
        "rka",
        -9.953211784362793
      ],
      [
        "▁ናቸው፡፡",
        -9.954031944274902
      ],
      [
        "▁Abubakar",
        -9.954549789428711
      ],
      [
        "▁maal",
        -9.955207824707031
      ],
      [
        "▁ሰ",
        -9.955290794372559
      ],
      [
        "▁ሲሉ",
        -9.955583572387695
      ],
      [
        "▁Pa",
        -9.955650329589844
      ],
      [
        "▁musu",
        -9.95619010925293
      ],
      [
        "▁cutar",
        -9.956585884094238
      ],
      [
        "il",
        -9.957466125488281
      ],
      [
        "▁Sidoo",
        -9.95754337310791
      ],
      [
        "ፉ",
        -9.957765579223633
      ],
      [
        "▁ልጆች",
        -9.95819091796875
      ],
      [
        "▁ìlú",
        -9.95858383178711
      ],
      [
        "▁ኣለኹ",
        -9.959502220153809
      ],
      [
        "▁TV",
        -9.959992408752441
      ],
      [
        "tar",
        -9.960545539855957
      ],
      [
        "▁Finfinnee",
        -9.9606294631958
      ],
      [
        "ry",
        -9.961237907409668
      ],
      [
        "ነቱ",
        -9.961851119995117
      ],
      [
        "bar",
        -9.96206283569336
      ],
      [
        "▁ል",
        -9.962334632873535
      ],
      [
        "▁sannan",
        -9.962343215942383
      ],
      [
        "▁አስተዳደር",
        -9.962446212768555
      ],
      [
        "▁pikin",
        -9.962658882141113
      ],
      [
        "▁kwani",
        -9.96360969543457
      ],
      [
        "ኦ",
        -9.964056015014648
      ],
      [
        "▁ኃይል",
        -9.964696884155273
      ],
      [
        "ዩ።",
        -9.965225219726562
      ],
      [
        "▁KWA",
        -9.966046333312988
      ],
      [
        "▁uyu",
        -9.96649169921875
      ],
      [
        "▁nitori",
        -9.966898918151855
      ],
      [
        "umma",
        -9.967202186584473
      ],
      [
        "▁kwenda",
        -9.967382431030273
      ],
      [
        "▁waxayna",
        -9.96855640411377
      ],
      [
        "▁Jajjaboo",
        -9.968977928161621
      ],
      [
        "▁addaa",
        -9.969074249267578
      ],
      [
        "▁የነበረው",
        -9.969606399536133
      ],
      [
        "▁iyada",
        -9.969925880432129
      ],
      [
        "▁Katibu",
        -9.969961166381836
      ],
      [
        "▁kokarin",
        -9.970304489135742
      ],
      [
        "▁ያል",
        -9.970361709594727
      ],
      [
        "ike",
        -9.970783233642578
      ],
      [
        "taan",
        -9.971006393432617
      ],
      [
        "`",
        -9.971083641052246
      ],
      [
        "▁bayar",
        -9.971304893493652
      ],
      [
        "kun",
        -9.97134780883789
      ],
      [
        "▁የሚለው",
        -9.971529960632324
      ],
      [
        "▁bwo",
        -9.971559524536133
      ],
      [
        "▁ክት",
        -9.972918510437012
      ],
      [
        "▁hagati",
        -9.973067283630371
      ],
      [
        "▁Mkurugenzi",
        -9.973301887512207
      ],
      [
        "▁day",
        -9.97335433959961
      ],
      [
        "▁ላ",
        -9.97374439239502
      ],
      [
        "▁ማን",
        -9.974018096923828
      ],
      [
        "ts",
        -9.97413158416748
      ],
      [
        "▁basi",
        -9.97518253326416
      ],
      [
        "ቶም",
        -9.975240707397461
      ],
      [
        "▁ሚሊዮን",
        -9.975273132324219
      ],
      [
        "▁LA",
        -9.975351333618164
      ],
      [
        "gan",
        -9.975386619567871
      ],
      [
        "taka",
        -9.975663185119629
      ],
      [
        "▁pili",
        -9.976018905639648
      ],
      [
        "▁አይነት",
        -9.976791381835938
      ],
      [
        "▁manyan",
        -9.97765064239502
      ],
      [
        "Y",
        -9.978102684020996
      ],
      [
        "▁munsi",
        -9.978515625
      ],
      [
        "▁ይህም",
        -9.979055404663086
      ],
      [
        "▁ayaan",
        -9.9790620803833
      ],
      [
        "▁wadannan",
        -9.979290962219238
      ],
      [
        "▁Election",
        -9.979936599731445
      ],
      [
        "▁biraa",
        -9.979962348937988
      ],
      [
        "esi",
        -9.980070114135742
      ],
      [
        "▁ሓድሽ",
        -9.981598854064941
      ],
      [
        "▁qabtay",
        -9.98184871673584
      ],
      [
        "▁lockdown",
        -9.981911659240723
      ],
      [
        "▁tsohon",
        -9.982818603515625
      ],
      [
        "kuwa",
        -9.98296070098877
      ],
      [
        "▁ọrịa",
        -9.983088493347168
      ],
      [
        "▁world",
        -9.983367919921875
      ],
      [
        "▁እዋን",
        -9.983667373657227
      ],
      [
        "gun",
        -9.984065055847168
      ],
      [
        "▁London",
        -9.984079360961914
      ],
      [
        "▁Asalin",
        -9.984092712402344
      ],
      [
        "▁West",
        -9.984119415283203
      ],
      [
        "▁Hata",
        -9.984214782714844
      ],
      [
        "▁mwenye",
        -9.984740257263184
      ],
      [
        "▁Nàìjíríà",
        -9.984770774841309
      ],
      [
        "▁መሪ",
        -9.984858512878418
      ],
      [
        "▁Mudane",
        -9.985485076904297
      ],
      [
        "▁gbẹ",
        -9.98572826385498
      ],
      [
        "▁Ti",
        -9.985769271850586
      ],
      [
        "▁aanay",
        -9.98582649230957
      ],
      [
        "▁zabe",
        -9.986130714416504
      ],
      [
        "▁Ah",
        -9.986456871032715
      ],
      [
        "▁Sudan",
        -9.986651420593262
      ],
      [
        "▁koma",
        -9.987079620361328
      ],
      [
        "▁dhigay",
        -9.98721694946289
      ],
      [
        "▁upande",
        -9.987285614013672
      ],
      [
        "▁Cup",
        -9.987848281860352
      ],
      [
        "▁Bilisummaa",
        -9.988480567932129
      ],
      [
        "▁dat",
        -9.988814353942871
      ],
      [
        "ጻ",
        -9.988819122314453
      ],
      [
        "▁dhanka",
        -9.988923072814941
      ],
      [
        "ተን",
        -9.988940238952637
      ],
      [
        "▁Mareykanka",
        -9.98945140838623
      ],
      [
        "▁hoto",
        -9.98991870880127
      ],
      [
        "▁kwi",
        -9.990442276000977
      ],
      [
        "dhi",
        -9.990822792053223
      ],
      [
        "icumi",
        -9.991256713867188
      ],
      [
        "▁ጉዳዮች",
        -9.991618156433105
      ],
      [
        "▁shugaba",
        -9.992107391357422
      ],
      [
        "▁Yesu",
        -9.992277145385742
      ],
      [
        "▁gida",
        -9.992846488952637
      ],
      [
        "▁Yoruba",
        -9.992879867553711
      ],
      [
        "▁after",
        -9.99290943145752
      ],
      [
        "▁egbu",
        -9.993773460388184
      ],
      [
        "▁mwezi",
        -9.993989944458008
      ],
      [
        "itti",
        -9.994100570678711
      ],
      [
        "▁Gee",
        -9.994288444519043
      ],
      [
        "mee",
        -9.995034217834473
      ],
      [
        "▁kyau",
        -9.995332717895508
      ],
      [
        "ቀ",
        -9.995649337768555
      ],
      [
        "”.",
        -9.995793342590332
      ],
      [
        "▁በተለይ",
        -9.996159553527832
      ],
      [
        "▁ሎሚ",
        -9.996225357055664
      ],
      [
        "▁baay",
        -9.996376037597656
      ],
      [
        "▁isugu",
        -9.996476173400879
      ],
      [
        "▁rais",
        -9.996931076049805
      ],
      [
        "▁bakin",
        -9.997025489807129
      ],
      [
        "▁muddo",
        -9.997273445129395
      ],
      [
        "▁ዝብል",
        -9.99742317199707
      ],
      [
        "▁shan",
        -9.997471809387207
      ],
      [
        "▁Im",
        -9.997482299804688
      ],
      [
        "▁BBNaija",
        -9.997604370117188
      ],
      [
        "▁Wizara",
        -9.997776985168457
      ],
      [
        "▁dhashay",
        -9.997878074645996
      ],
      [
        "▁National",
        -9.998404502868652
      ],
      [
        "▁nyere",
        -9.998744010925293
      ],
      [
        "▁egwuregwu",
        -9.998842239379883
      ],
      [
        "che",
        -9.998950958251953
      ],
      [
        "afọ",
        -9.999895095825195
      ],
      [
        "▁koo",
        -10.000020980834961
      ],
      [
        "▁nile",
        -10.001017570495605
      ],
      [
        "▁sheegeen",
        -10.002248764038086
      ],
      [
        "▁gadi",
        -10.002382278442383
      ],
      [
        "▁jir",
        -10.002903938293457
      ],
      [
        "ገ",
        -10.004313468933105
      ],
      [
        "▁waxaad",
        -10.004422187805176
      ],
      [
        "▁biashara",
        -10.00539779663086
      ],
      [
        "▁ለማድረግ",
        -10.006256103515625
      ],
      [
        "▁በሙሉ",
        -10.006470680236816
      ],
      [
        "ll",
        -10.006819725036621
      ],
      [
        "▁ruwa",
        -10.007023811340332
      ],
      [
        "▁even",
        -10.007823944091797
      ],
      [
        "▁As",
        -10.007976531982422
      ],
      [
        "ona",
        -10.008077621459961
      ],
      [
        "á",
        -10.008293151855469
      ],
      [
        "▁free",
        -10.008633613586426
      ],
      [
        "▁መልኩ",
        -10.008807182312012
      ],
      [
        "▁wako",
        -10.009214401245117
      ],
      [
        "▁tún",
        -10.009469032287598
      ],
      [
        "▁ይሁን",
        -10.009592056274414
      ],
      [
        "zu",
        -10.009868621826172
      ],
      [
        "muu",
        -10.009988784790039
      ],
      [
        "▁Qoraalka",
        -10.010889053344727
      ],
      [
        "▁Mana",
        -10.011404991149902
      ],
      [
        "▁ልዕሊ",
        -10.011425018310547
      ],
      [
        "fanya",
        -10.011552810668945
      ],
      [
        "▁Ja",
        -10.011903762817383
      ],
      [
        "ata",
        -10.012903213500977
      ],
      [
        "fin",
        -10.013035774230957
      ],
      [
        "▁Maxamuud",
        -10.013083457946777
      ],
      [
        "▁zargin",
        -10.0132474899292
      ],
      [
        "▁Le",
        -10.01357650756836
      ],
      [
        "▁Ó",
        -10.013623237609863
      ],
      [
        "▁wewe",
        -10.014575004577637
      ],
      [
        "▁kiasi",
        -10.0150785446167
      ],
      [
        "ሀ",
        -10.015640258789062
      ],
      [
        "▁dilay",
        -10.015848159790039
      ],
      [
        "▁lafa",
        -10.015910148620605
      ],
      [
        "▁Kuma",
        -10.016072273254395
      ],
      [
        "▁Soo",
        -10.01638412475586
      ],
      [
        "▁explosion",
        -10.016888618469238
      ],
      [
        "▁kuva",
        -10.017267227172852
      ],
      [
        "ሸ",
        -10.01742172241211
      ],
      [
        "▁Ke",
        -10.017953872680664
      ],
      [
        "adaha",
        -10.018180847167969
      ],
      [
        "▁jiri",
        -10.019437789916992
      ],
      [
        "▁አሁንም",
        -10.020051956176758
      ],
      [
        "▁መሠረት",
        -10.020498275756836
      ],
      [
        "▁She",
        -10.020527839660645
      ],
      [
        "▁ሺህ",
        -10.02135181427002
      ],
      [
        "cho",
        -10.021537780761719
      ],
      [
        "▁deg",
        -10.021768569946289
      ],
      [
        "nụ",
        -10.022088050842285
      ],
      [
        "በትን",
        -10.022233009338379
      ],
      [
        "▁vile",
        -10.023459434509277
      ],
      [
        "ንህይወተይ",
        -10.024781227111816
      ],
      [
        "um",
        -10.025032997131348
      ],
      [
        "▁siri",
        -10.02523136138916
      ],
      [
        "▁he",
        -10.025304794311523
      ],
      [
        "▁ተጨኒቐ",
        -10.02550220489502
      ],
      [
        "▁White",
        -10.025594711303711
      ],
      [
        "▁vijana",
        -10.026237487792969
      ],
      [
        "▁ገዛይን",
        -10.026470184326172
      ],
      [
        "ጸ",
        -10.028907775878906
      ],
      [
        "▁uta",
        -10.029202461242676
      ],
      [
        "▁ትልቅ",
        -10.030146598815918
      ],
      [
        "▁kooxda",
        -10.030324935913086
      ],
      [
        "▁Ru",
        -10.030478477478027
      ],
      [
        "▁leedahay",
        -10.03080940246582
      ],
      [
        "▁president",
        -10.030905723571777
      ],
      [
        "▁Wilaya",
        -10.031560897827148
      ],
      [
        "▁aina",
        -10.032825469970703
      ],
      [
        "▁begin",
        -10.033462524414062
      ],
      [
        "▁find",
        -10.033734321594238
      ],
      [
        "▁መግለጺ",
        -10.033897399902344
      ],
      [
        "▁Mohammed",
        -10.034435272216797
      ],
      [
        "▁እምነት",
        -10.03478717803955
      ],
      [
        "▁pẹ",
        -10.035144805908203
      ],
      [
        "▁hoos",
        -10.03522777557373
      ],
      [
        "▁owó",
        -10.035837173461914
      ],
      [
        "▁መጠን",
        -10.036498069763184
      ],
      [
        "▁kayan",
        -10.037503242492676
      ],
      [
        "▁Atiku",
        -10.037657737731934
      ],
      [
        "▁kudi",
        -10.037982940673828
      ],
      [
        "▁tofauti",
        -10.038148880004883
      ],
      [
        "▁zilizo",
        -10.038211822509766
      ],
      [
        "▁hunda",
        -10.038503646850586
      ],
      [
        "▁kudin",
        -10.038504600524902
      ],
      [
        "▁yangu",
        -10.038923263549805
      ],
      [
        "▁ዶክተር",
        -10.039037704467773
      ],
      [
        "▷",
        -10.040024757385254
      ],
      [
        "▁mwisho",
        -10.040303230285645
      ],
      [
        "▁Ugu",
        -10.040961265563965
      ],
      [
        "▁gama",
        -10.041065216064453
      ],
      [
        "ida",
        -10.041961669921875
      ],
      [
        "▁bincike",
        -10.042121887207031
      ],
      [
        "▁Muuse",
        -10.042526245117188
      ],
      [
        "afi",
        -10.043017387390137
      ],
      [
        "▁መሬት",
        -10.043018341064453
      ],
      [
        "▁com",
        -10.043707847595215
      ],
      [
        "▁አላ",
        -10.044120788574219
      ],
      [
        "ሐ",
        -10.044353485107422
      ],
      [
        "kwara",
        -10.045167922973633
      ],
      [
        "▁Vi",
        -10.045287132263184
      ],
      [
        "▁run",
        -10.045479774475098
      ],
      [
        "▁ኣብቲ",
        -10.046483039855957
      ],
      [
        "atti",
        -10.046587944030762
      ],
      [
        "▁Sun",
        -10.047065734863281
      ],
      [
        "▁daban",
        -10.047648429870605
      ],
      [
        "ጨ",
        -10.047782897949219
      ],
      [
        "▁Island",
        -10.047826766967773
      ],
      [
        "▁አካል",
        -10.04804801940918
      ],
      [
        "▁Gịnị",
        -10.049112319946289
      ],
      [
        "ihii",
        -10.049180030822754
      ],
      [
        "▁dhimma",
        -10.049418449401855
      ],
      [
        "▁Syria",
        -10.05057144165039
      ],
      [
        "▁dé",
        -10.05090618133545
      ],
      [
        "▁እውን",
        -10.050936698913574
      ],
      [
        "▁Sh",
        -10.051244735717773
      ],
      [
        "▁George",
        -10.052373886108398
      ],
      [
        "▁À",
        -10.052980422973633
      ],
      [
        "▁ò",
        -10.0531587600708
      ],
      [
        "▁wuxuuna",
        -10.054340362548828
      ],
      [
        "▁ZA",
        -10.054970741271973
      ],
      [
        "▁bwiwe",
        -10.055262565612793
      ],
      [
        "▁በመሆኑ",
        -10.056351661682129
      ],
      [
        "nce",
        -10.056398391723633
      ],
      [
        "nda",
        -10.056612968444824
      ],
      [
        "iki",
        -10.057082176208496
      ],
      [
        "xa",
        -10.057093620300293
      ],
      [
        "▁Kuu",
        -10.058131217956543
      ],
      [
        "▁qofka",
        -10.058775901794434
      ],
      [
        "arụ",
        -10.058826446533203
      ],
      [
        "▁over",
        -10.059292793273926
      ],
      [
        "iisul",
        -10.059466361999512
      ],
      [
        "▁ogun",
        -10.059785842895508
      ],
      [
        "▁hankali",
        -10.059819221496582
      ],
      [
        "▁shine",
        -10.06029987335205
      ],
      [
        "▁us",
        -10.0610933303833
      ],
      [
        "▁ስርዓት",
        -10.062804222106934
      ],
      [
        "nimo",
        -10.062958717346191
      ],
      [
        "▁በማድረግ",
        -10.063036918640137
      ],
      [
        "▁እቶም",
        -10.063669204711914
      ],
      [
        "▁abbaa",
        -10.063809394836426
      ],
      [
        "mar",
        -10.06441593170166
      ],
      [
        "ፕ",
        -10.064420700073242
      ],
      [
        "ebe",
        -10.064458847045898
      ],
      [
        "▁arrest",
        -10.0645751953125
      ],
      [
        "ል።",
        -10.064988136291504
      ],
      [
        "soo",
        -10.065502166748047
      ],
      [
        "Ha",
        -10.065591812133789
      ],
      [
        "▁sugan",
        -10.065899848937988
      ],
      [
        "▁ndege",
        -10.065932273864746
      ],
      [
        "▁Baba",
        -10.066119194030762
      ],
      [
        "▁Paul",
        -10.06618881225586
      ],
      [
        "kaa",
        -10.066228866577148
      ],
      [
        "▁Fulani",
        -10.066969871520996
      ],
      [
        "▁Naibu",
        -10.06736946105957
      ],
      [
        "▁Lakini",
        -10.06755542755127
      ],
      [
        "▁EFCC",
        -10.067922592163086
      ],
      [
        "cu",
        -10.068140029907227
      ],
      [
        "▁ስልጣን",
        -10.069226264953613
      ],
      [
        "▁doona",
        -10.069326400756836
      ],
      [
        "▁any",
        -10.069525718688965
      ],
      [
        "ምባ",
        -10.069807052612305
      ],
      [
        "chu",
        -10.069836616516113
      ],
      [
        "▁ọlọ",
        -10.070391654968262
      ],
      [
        "ናብቲ",
        -10.070438385009766
      ],
      [
        "ችው",
        -10.070966720581055
      ],
      [
        "▁Nkọwa",
        -10.070976257324219
      ],
      [
        "▁Yeroo",
        -10.071359634399414
      ],
      [
        "▁ስር",
        -10.072150230407715
      ],
      [
        "▁mbele",
        -10.072288513183594
      ],
      [
        "▁tayari",
        -10.072441101074219
      ],
      [
        "▁እዚህ",
        -10.072458267211914
      ],
      [
        "▁nwaanyị",
        -10.072478294372559
      ],
      [
        "▁pada",
        -10.072807312011719
      ],
      [
        "▁oga",
        -10.073290824890137
      ],
      [
        "pụta",
        -10.07410717010498
      ],
      [
        "▁Bar",
        -10.07429027557373
      ],
      [
        "sema",
        -10.074416160583496
      ],
      [
        "▁ኦሮሚያ",
        -10.07470703125
      ],
      [
        "▁ቤቱ",
        -10.075119018554688
      ],
      [
        "▁yan",
        -10.075448989868164
      ],
      [
        "ayaa",
        -10.076618194580078
      ],
      [
        "ን፡",
        -10.07671070098877
      ],
      [
        "▁zamani",
        -10.076736450195312
      ],
      [
        "▁sabon",
        -10.077445030212402
      ],
      [
        "▁meesha",
        -10.07790756225586
      ],
      [
        "ihu",
        -10.078241348266602
      ],
      [
        "▁፤",
        -10.078291893005371
      ],
      [
        "▁dauki",
        -10.078536033630371
      ],
      [
        "▁Sha",
        -10.07857608795166
      ],
      [
        "▁ዶላር",
        -10.078802108764648
      ],
      [
        "▁sita",
        -10.07902717590332
      ],
      [
        "ab",
        -10.079416275024414
      ],
      [
        "▁Awọn",
        -10.079998970031738
      ],
      [
        "▁latest",
        -10.079999923706055
      ],
      [
        "▁nne",
        -10.080109596252441
      ],
      [
        "▁ተባሂሉ",
        -10.08032512664795
      ],
      [
        "▁warra",
        -10.080597877502441
      ],
      [
        "▁mirga",
        -10.080968856811523
      ],
      [
        "▁አት",
        -10.081003189086914
      ],
      [
        "▁wato",
        -10.081025123596191
      ],
      [
        "▁yeye",
        -10.081197738647461
      ],
      [
        "▁Bunge",
        -10.082255363464355
      ],
      [
        "▁namni",
        -10.082263946533203
      ],
      [
        "▁gudaha",
        -10.082691192626953
      ],
      [
        "▁INEC",
        -10.083863258361816
      ],
      [
        "adii",
        -10.083990097045898
      ],
      [
        "▁ዓረብ",
        -10.084216117858887
      ],
      [
        "▁Oromo",
        -10.084226608276367
      ],
      [
        "▁ሃ",
        -10.085572242736816
      ],
      [
        "▁duniani",
        -10.085798263549805
      ],
      [
        "ers",
        -10.086024284362793
      ],
      [
        "ዴ",
        -10.086027145385742
      ],
      [
        "▁qofa",
        -10.086193084716797
      ],
      [
        "▁siyaasaa",
        -10.086882591247559
      ],
      [
        "▁maqaa",
        -10.086896896362305
      ],
      [
        "▁lina",
        -10.086923599243164
      ],
      [
        "▁sawirka",
        -10.087035179138184
      ],
      [
        "ayi",
        -10.087714195251465
      ],
      [
        "nge",
        -10.088257789611816
      ],
      [
        "▁fiican",
        -10.089266777038574
      ],
      [
        "▁ኣለዎ",
        -10.090079307556152
      ],
      [
        "din",
        -10.090550422668457
      ],
      [
        "▁mpaka",
        -10.090670585632324
      ],
      [
        "é",
        -10.091231346130371
      ],
      [
        "ህን",
        -10.091340065002441
      ],
      [
        "▁ድሕሪ",
        -10.091848373413086
      ],
      [
        "▁ፈነወ",
        -10.092068672180176
      ],
      [
        "weza",
        -10.092144012451172
      ],
      [
        "▁suala",
        -10.09228515625
      ],
      [
        "▁kókó",
        -10.092594146728516
      ],
      [
        "ላት",
        -10.092667579650879
      ],
      [
        "▁just",
        -10.092853546142578
      ],
      [
        "▁jinsi",
        -10.092886924743652
      ],
      [
        "“",
        -10.093722343444824
      ],
      [
        "ura",
        -10.094381332397461
      ],
      [
        "▁money",
        -10.094962120056152
      ],
      [
        "▁mas",
        -10.095088005065918
      ],
      [
        "▁Super",
        -10.095168113708496
      ],
      [
        "▁far",
        -10.095561981201172
      ],
      [
        "▁kor",
        -10.096481323242188
      ],
      [
        "▁Farmaajo",
        -10.096606254577637
      ],
      [
        "▁destroy",
        -10.09696102142334
      ],
      [
        "mwo",
        -10.097061157226562
      ],
      [
        "▁Barcelona",
        -10.097694396972656
      ],
      [
        "▁Bayanan",
        -10.097970008850098
      ],
      [
        "▁Cumar",
        -10.098044395446777
      ],
      [
        "▁degmada",
        -10.098361015319824
      ],
      [
        "▁Nollywood",
        -10.09852409362793
      ],
      [
        "▁Ay",
        -10.099180221557617
      ],
      [
        "▁Ì",
        -10.099723815917969
      ],
      [
        "▁Emir",
        -10.099824905395508
      ],
      [
        "▁በአዲስ",
        -10.099907875061035
      ],
      [
        "▁nigba",
        -10.09992790222168
      ],
      [
        "▁namna",
        -10.100563049316406
      ],
      [
        "▁namoonni",
        -10.1006441116333
      ],
      [
        "▁addunyaa",
        -10.100678443908691
      ],
      [
        "▁ẹjọ",
        -10.10075855255127
      ],
      [
        "▁tatu",
        -10.101349830627441
      ],
      [
        "›",
        -10.101524353027344
      ],
      [
        "son",
        -10.102142333984375
      ],
      [
        "▁ማእሰርቲ",
        -10.104116439819336
      ],
      [
        "▁uko",
        -10.10428524017334
      ],
      [
        "▁kuwo",
        -10.104690551757812
      ],
      [
        "▁halin",
        -10.105772018432617
      ],
      [
        "rri",
        -10.10578727722168
      ],
      [
        "▁በሌላ",
        -10.10587215423584
      ],
      [
        "▁Soomaali",
        -10.106395721435547
      ],
      [
        "▁waggaa",
        -10.106754302978516
      ],
      [
        "▁huko",
        -10.106932640075684
      ],
      [
        "▁kaa",
        -10.10735034942627
      ],
      [
        "baa",
        -10.107521057128906
      ],
      [
        "▁ያላቸው",
        -10.10754680633545
      ],
      [
        "ጊ",
        -10.107583045959473
      ],
      [
        "▁አንዳንድ",
        -10.107678413391113
      ],
      [
        "ልን",
        -10.107717514038086
      ],
      [
        "▁Sawirka",
        -10.107980728149414
      ],
      [
        "▁ቋንቋ",
        -10.108129501342773
      ],
      [
        "▁fight",
        -10.108558654785156
      ],
      [
        "ኢ",
        -10.10902214050293
      ],
      [
        "▁kuwaas",
        -10.109343528747559
      ],
      [
        "▁Alisema",
        -10.109390258789062
      ],
      [
        "▁data",
        -10.109410285949707
      ],
      [
        "elu",
        -10.109624862670898
      ],
      [
        "▁happen",
        -10.110472679138184
      ],
      [
        "▁leeyihiin",
        -10.111019134521484
      ],
      [
        "▁mgbasa",
        -10.111234664916992
      ],
      [
        "waa",
        -10.11125373840332
      ],
      [
        "▁Ten",
        -10.111579895019531
      ],
      [
        "▁Daga",
        -10.112098693847656
      ],
      [
        "▁shaqo",
        -10.112156867980957
      ],
      [
        "▁immoo",
        -10.112505912780762
      ],
      [
        "▁lé",
        -10.113175392150879
      ],
      [
        "▁Oromoon",
        -10.113527297973633
      ],
      [
        "▁Waya",
        -10.114314079284668
      ],
      [
        "▁ጥቅም",
        -10.11471939086914
      ],
      [
        "▁መልካም",
        -10.114884376525879
      ],
      [
        "atu",
        -10.115086555480957
      ],
      [
        "▁jiro",
        -10.115527153015137
      ],
      [
        "ዕምሪ",
        -10.115723609924316
      ],
      [
        "▁lawyer",
        -10.11572551727295
      ],
      [
        "▁damar",
        -10.116042137145996
      ],
      [
        "▁ቀደም",
        -10.116455078125
      ],
      [
        "▁kwallon",
        -10.116514205932617
      ],
      [
        "teen",
        -10.116799354553223
      ],
      [
        "umusirikare",
        -10.1168794631958
      ],
      [
        "▁kina",
        -10.117351531982422
      ],
      [
        "▁zasu",
        -10.118467330932617
      ],
      [
        "▁Polisi",
        -10.118470191955566
      ],
      [
        "▁በተለያዩ",
        -10.119280815124512
      ],
      [
        "▁tarehe",
        -10.119503021240234
      ],
      [
        "▁igba",
        -10.119935989379883
      ],
      [
        "▁ciidanka",
        -10.12086009979248
      ],
      [
        "umu",
        -10.121089935302734
      ],
      [
        "▁Chama",
        -10.1211519241333
      ],
      [
        "▁Centrafrique",
        -10.12152099609375
      ],
      [
        "▁;",
        -10.122443199157715
      ],
      [
        "▁iyicwa",
        -10.122925758361816
      ],
      [
        "▁lee",
        -10.123001098632812
      ],
      [
        "▁siyasa",
        -10.123594284057617
      ],
      [
        "▁ጠ",
        -10.124282836914062
      ],
      [
        "▁anọ",
        -10.124320030212402
      ],
      [
        "uma",
        -10.124579429626465
      ],
      [
        "▁adag",
        -10.124764442443848
      ],
      [
        "▁online",
        -10.12537670135498
      ],
      [
        "▁Se",
        -10.125588417053223
      ],
      [
        "ጎ",
        -10.125985145568848
      ],
      [
        "fo",
        -10.126198768615723
      ],
      [
        "▁Dadka",
        -10.126218795776367
      ],
      [
        "▁ኢትዮጵያውያን",
        -10.127093315124512
      ],
      [
        "▁magana",
        -10.127573013305664
      ],
      [
        "▁ameze",
        -10.128130912780762
      ],
      [
        "▁lu",
        -10.128464698791504
      ],
      [
        "▁TPLF",
        -10.12872314453125
      ],
      [
        "▁ደ",
        -10.128860473632812
      ],
      [
        "▁afya",
        -10.128904342651367
      ],
      [
        "▁ihu",
        -10.128961563110352
      ],
      [
        "▁imbere",
        -10.128969192504883
      ],
      [
        "dhaa",
        -10.129300117492676
      ],
      [
        "▁tabi",
        -10.13040828704834
      ],
      [
        "▁imigumuko",
        -10.13058090209961
      ],
      [
        "ó",
        -10.13100528717041
      ],
      [
        "▁MA",
        -10.13136100769043
      ],
      [
        "▁dhinaca",
        -10.131433486938477
      ],
      [
        "ፀ",
        -10.13157844543457
      ],
      [
        "▁simu",
        -10.131949424743652
      ],
      [
        "ን።",
        -10.132336616516113
      ],
      [
        "▁ede",
        -10.132681846618652
      ],
      [
        "Ọ",
        -10.133037567138672
      ],
      [
        "Z",
        -10.13334846496582
      ],
      [
        "Umurundi",
        -10.133501052856445
      ],
      [
        "▁ነገሮች",
        -10.133835792541504
      ],
      [
        "▁Jihar",
        -10.134058952331543
      ],
      [
        "▁hannu",
        -10.134713172912598
      ],
      [
        "ekwu",
        -10.134978294372559
      ],
      [
        "suu",
        -10.13525104522705
      ],
      [
        "▁ajọ",
        -10.135415077209473
      ],
      [
        "▁Septemba",
        -10.135539054870605
      ],
      [
        "▁ትማሊ",
        -10.135650634765625
      ],
      [
        "ሎም",
        -10.136500358581543
      ],
      [
        "▁xarunta",
        -10.136877059936523
      ],
      [
        "▁taba",
        -10.137129783630371
      ],
      [
        "or",
        -10.137463569641113
      ],
      [
        "▁waayo",
        -10.137721061706543
      ],
      [
        "▁wale",
        -10.138039588928223
      ],
      [
        "ለን",
        -10.13806438446045
      ],
      [
        "▁hakuna",
        -10.138657569885254
      ],
      [
        "▁msingi",
        -10.138867378234863
      ],
      [
        "▁—",
        -10.13917350769043
      ],
      [
        "▁X",
        -10.13960075378418
      ],
      [
        "▁afaan",
        -10.139760971069336
      ],
      [
        "▁fitar",
        -10.139998435974121
      ],
      [
        "ሴ",
        -10.140402793884277
      ],
      [
        "▁wuce",
        -10.140633583068848
      ],
      [
        "▁ከአ",
        -10.14073657989502
      ],
      [
        "ራት",
        -10.141167640686035
      ],
      [
        "▁ይልቅ",
        -10.141987800598145
      ],
      [
        "ቸውን",
        -10.142199516296387
      ],
      [
        "▁yenye",
        -10.142704010009766
      ],
      [
        "▁wanafunzi",
        -10.14291763305664
      ],
      [
        "im",
        -10.142923355102539
      ],
      [
        "▁እንቅስቃሴ",
        -10.143143653869629
      ],
      [
        "▁hand",
        -10.143279075622559
      ],
      [
        "▁dhow",
        -10.1434965133667
      ],
      [
        "▁ኣቦ",
        -10.14374828338623
      ],
      [
        "▁ሆነው",
        -10.14395523071289
      ],
      [
        "▁ụdị",
        -10.144384384155273
      ],
      [
        "▁በዓል",
        -10.144476890563965
      ],
      [
        "▁baki",
        -10.144635200500488
      ],
      [
        "▁wurin",
        -10.144830703735352
      ],
      [
        "▁discover",
        -10.145930290222168
      ],
      [
        "▁soro",
        -10.145988464355469
      ],
      [
        "▁ሊሆን",
        -10.14684009552002
      ],
      [
        "▁የውጭ",
        -10.147527694702148
      ],
      [
        "▁Xigash",
        -10.147549629211426
      ],
      [
        "▁He",
        -10.149348258972168
      ],
      [
        "▁blast",
        -10.149691581726074
      ],
      [
        "anya",
        -10.149903297424316
      ],
      [
        "▁Isi",
        -10.150349617004395
      ],
      [
        "▁iyaga",
        -10.150604248046875
      ],
      [
        "▁ግዜ",
        -10.150686264038086
      ],
      [
        "▁minutes",
        -10.150936126708984
      ],
      [
        "▁ይችላል",
        -10.150976181030273
      ],
      [
        "pàá",
        -10.151871681213379
      ],
      [
        "wọn",
        -10.152556419372559
      ],
      [
        "▁ኢየሱስ",
        -10.153706550598145
      ],
      [
        "▁kii",
        -10.153780937194824
      ],
      [
        "▁Hu",
        -10.15402603149414
      ],
      [
        "ir",
        -10.15417194366455
      ],
      [
        "▁ድጋፍ",
        -10.154361724853516
      ],
      [
        "▁wakiwa",
        -10.154378890991211
      ],
      [
        "▁gabata",
        -10.154799461364746
      ],
      [
        "▁enta",
        -10.154808044433594
      ],
      [
        "▁miliyan",
        -10.155200004577637
      ],
      [
        "▁Hukumar",
        -10.155457496643066
      ],
      [
        "▁ለሚ",
        -10.155468940734863
      ],
      [
        "▁jirto",
        -10.15569019317627
      ],
      [
        "▁mimi",
        -10.155961036682129
      ],
      [
        "▁jiya",
        -10.157125473022461
      ],
      [
        "▁ho",
        -10.157261848449707
      ],
      [
        "mareta",
        -10.157350540161133
      ],
      [
        "▁harkokin",
        -10.157628059387207
      ],
      [
        "▁back",
        -10.157877922058105
      ],
      [
        "ቼ",
        -10.158203125
      ],
      [
        "▁saaray",
        -10.15826416015625
      ],
      [
        "▁ውጤት",
        -10.158534049987793
      ],
      [
        "▁Du",
        -10.158851623535156
      ],
      [
        "▁Idan",
        -10.159154891967773
      ],
      [
        "▁በየ",
        -10.159268379211426
      ],
      [
        "▁MINUSCA",
        -10.159531593322754
      ],
      [
        "▁lahayn",
        -10.159819602966309
      ],
      [
        "▁Sida",
        -10.160225868225098
      ],
      [
        "▁bubangamiwe",
        -10.161739349365234
      ],
      [
        "▁iriyamiriz",
        -10.161845207214355
      ],
      [
        "▁magabo",
        -10.162423133850098
      ],
      [
        "▁only",
        -10.162495613098145
      ],
      [
        "▁Muhammad",
        -10.16250991821289
      ],
      [
        "ṣe",
        -10.162520408630371
      ],
      [
        "▁jin",
        -10.162546157836914
      ],
      [
        "▁Kim",
        -10.162775993347168
      ],
      [
        "▁gaban",
        -10.16279125213623
      ],
      [
        "▁gari",
        -10.163044929504395
      ],
      [
        "▁ጽ",
        -10.16306209564209
      ],
      [
        "vo",
        -10.163844108581543
      ],
      [
        "▁ስን",
        -10.1639986038208
      ],
      [
        "ise",
        -10.164008140563965
      ],
      [
        "bwiye",
        -10.164069175720215
      ],
      [
        "ሣ",
        -10.164419174194336
      ],
      [
        "▁ያሉት",
        -10.16522216796875
      ],
      [
        "▁lazima",
        -10.165690422058105
      ],
      [
        "tse",
        -10.166144371032715
      ],
      [
        "daan",
        -10.166401863098145
      ],
      [
        "▁cancel",
        -10.166985511779785
      ],
      [
        "▁kuhakikisha",
        -10.168145179748535
      ],
      [
        "▁ụwa",
        -10.168310165405273
      ],
      [
        "nne",
        -10.16869831085205
      ],
      [
        "▁Lu",
        -10.168919563293457
      ],
      [
        "▁bira",
        -10.169034004211426
      ],
      [
        "▁career",
        -10.170368194580078
      ],
      [
        "▁አድርጎ",
        -10.171110153198242
      ],
      [
        "▁wiki",
        -10.1718111038208
      ],
      [
        "lli",
        -10.172243118286133
      ],
      [
        "▁መንበር",
        -10.172926902770996
      ],
      [
        "▁Premier",
        -10.173364639282227
      ],
      [
        "▁መጽሐፍ",
        -10.173419952392578
      ],
      [
        "▁hir",
        -10.173887252807617
      ],
      [
        "▁mtoto",
        -10.174050331115723
      ],
      [
        "▁‹",
        -10.174063682556152
      ],
      [
        "▁cad",
        -10.17408275604248
      ],
      [
        "▁yimid",
        -10.174239158630371
      ],
      [
        "ndi",
        -10.174552917480469
      ],
      [
        "▁V",
        -10.17492389678955
      ],
      [
        "new",
        -10.175003051757812
      ],
      [
        "▁ìjọba",
        -10.175453186035156
      ],
      [
        "▁rakkoo",
        -10.175551414489746
      ],
      [
        "▁Januari",
        -10.175596237182617
      ],
      [
        "▁kampuni",
        -10.175596237182617
      ],
      [
        "▁buga",
        -10.17652702331543
      ],
      [
        "▁Jizọs",
        -10.177552223205566
      ],
      [
        "▁ውሳኔ",
        -10.177905082702637
      ],
      [
        "▁ፖለቲካ",
        -10.17805290222168
      ],
      [
        "▁Turai",
        -10.17841911315918
      ],
      [
        "▁kuko",
        -10.178741455078125
      ],
      [
        "▁lẹyin",
        -10.179189682006836
      ],
      [
        "maan",
        -10.179224014282227
      ],
      [
        "eyso",
        -10.179343223571777
      ],
      [
        "▁Fi",
        -10.179534912109375
      ],
      [
        "▁DA",
        -10.179879188537598
      ],
      [
        "eera",
        -10.180137634277344
      ],
      [
        "▁እታ",
        -10.180176734924316
      ],
      [
        "▁gaaray",
        -10.180238723754883
      ],
      [
        "▁tilmaamay",
        -10.180468559265137
      ],
      [
        "▁player",
        -10.180593490600586
      ],
      [
        "▁Abule",
        -10.180928230285645
      ],
      [
        "▁ዝነበረ",
        -10.181158065795898
      ],
      [
        "▁ሊያ",
        -10.182310104370117
      ],
      [
        "▁ነፋሪት",
        -10.182881355285645
      ],
      [
        "ubu",
        -10.183411598205566
      ],
      [
        "acha",
        -10.183431625366211
      ],
      [
        "ስት",
        -10.184367179870605
      ],
      [
        "ወጣ",
        -10.184378623962402
      ],
      [
        "▁jirin",
        -10.185039520263672
      ],
      [
        "▁sadarkaa",
        -10.185417175292969
      ],
      [
        "▁fito",
        -10.1856107711792
      ],
      [
        "▁hizi",
        -10.185885429382324
      ],
      [
        "▁brother",
        -10.185992240905762
      ],
      [
        "▁bukatar",
        -10.187180519104004
      ],
      [
        "▁follow",
        -10.187262535095215
      ],
      [
        "▁ቤቶች",
        -10.187299728393555
      ],
      [
        "▁feem",
        -10.187520980834961
      ],
      [
        "▁mkoa",
        -10.187551498413086
      ],
      [
        "▁iba",
        -10.187797546386719
      ],
      [
        "lú",
        -10.188508987426758
      ],
      [
        "▁Amajjii",
        -10.188530921936035
      ],
      [
        "▁ofii",
        -10.189090728759766
      ],
      [
        "▁mkoani",
        -10.189796447753906
      ],
      [
        "▁ኣብያተ",
        -10.18993854522705
      ],
      [
        "▁ተቓውሞ",
        -10.190079689025879
      ],
      [
        "▁Zaria",
        -10.191573143005371
      ],
      [
        "ቂ",
        -10.191614151000977
      ],
      [
        "▁አምላክ",
        -10.19163990020752
      ],
      [
        "▁halkaas",
        -10.191690444946289
      ],
      [
        "kar",
        -10.191868782043457
      ],
      [
        "▁Waxay",
        -10.192181587219238
      ],
      [
        "▁mulki",
        -10.192476272583008
      ],
      [
        "▁bal",
        -10.192813873291016
      ],
      [
        "▁Ri",
        -10.192972183227539
      ],
      [
        "▁Mar",
        -10.19300651550293
      ],
      [
        "▁ህዝቢ",
        -10.194526672363281
      ],
      [
        "▁bad",
        -10.194616317749023
      ],
      [
        "▁Sin",
        -10.194962501525879
      ],
      [
        "▁shir",
        -10.195266723632812
      ],
      [
        "▁abo",
        -10.195403099060059
      ],
      [
        "land",
        -10.19719123840332
      ],
      [
        "tumia",
        -10.197371482849121
      ],
      [
        "▁government",
        -10.197510719299316
      ],
      [
        "▁ọbụla",
        -10.197962760925293
      ],
      [
        "▁milioni",
        -10.198188781738281
      ],
      [
        "▁kusema",
        -10.19838809967041
      ],
      [
        "ውም",
        -10.198421478271484
      ],
      [
        "▁zinazo",
        -10.198537826538086
      ],
      [
        "ም፣",
        -10.198740005493164
      ],
      [
        "▁ዶብ",
        -10.199545860290527
      ],
      [
        "▁karibu",
        -10.199552536010742
      ],
      [
        "ul",
        -10.199762344360352
      ],
      [
        "▁የዓለም",
        -10.200274467468262
      ],
      [
        "enwe",
        -10.200469970703125
      ],
      [
        "▁lime",
        -10.200477600097656
      ],
      [
        "ዋን",
        -10.200864791870117
      ],
      [
        "▁vizuri",
        -10.201340675354004
      ],
      [
        "▁dadkii",
        -10.201725959777832
      ],
      [
        "too",
        -10.202191352844238
      ],
      [
        "▁Obama",
        -10.203583717346191
      ],
      [
        "▁eji",
        -10.203937530517578
      ],
      [
        "▁ተግባር",
        -10.204944610595703
      ],
      [
        "ate",
        -10.205141067504883
      ],
      [
        "▁hannun",
        -10.205867767333984
      ],
      [
        "zwa",
        -10.205994606018066
      ],
      [
        "▁gaa",
        -10.206510543823242
      ],
      [
        "▁የሚያስ",
        -10.206618309020996
      ],
      [
        "▁gbara",
        -10.206697463989258
      ],
      [
        "▁kooban",
        -10.20678997039795
      ],
      [
        "▁muhiim",
        -10.206816673278809
      ],
      [
        "▁Ozo",
        -10.207221031188965
      ],
      [
        "tara",
        -10.207277297973633
      ],
      [
        "ኸ",
        -10.207594871520996
      ],
      [
        "▁kaliya",
        -10.208407402038574
      ],
      [
        "▁አይደለም።",
        -10.208475112915039
      ],
      [
        "ban",
        -10.209118843078613
      ],
      [
        "▁Zimbabwe",
        -10.209386825561523
      ],
      [
        "▁nipa",
        -10.209417343139648
      ],
      [
        "▁tangu",
        -10.2095947265625
      ],
      [
        "▁ọnwa",
        -10.209742546081543
      ],
      [
        "▁አመት",
        -10.210168838500977
      ],
      [
        "▁DW",
        -10.210437774658203
      ],
      [
        "▁this",
        -10.210443496704102
      ],
      [
        "▁wala",
        -10.211094856262207
      ],
      [
        "qaa",
        -10.211329460144043
      ],
      [
        "▁heli",
        -10.211603164672852
      ],
      [
        "▁Etu",
        -10.21184253692627
      ],
      [
        "▁Madda",
        -10.212101936340332
      ],
      [
        "▁mujibu",
        -10.212510108947754
      ],
      [
        "▁attack",
        -10.212553977966309
      ],
      [
        "▁dal",
        -10.212910652160645
      ],
      [
        "▁dunia",
        -10.213025093078613
      ],
      [
        "▁xilka",
        -10.213292121887207
      ],
      [
[...]
