{
  "version": "1.0",
  "truncation": {
    "direction": "Right",
    "max_length": 128,
    "strategy": "LongestFirst",
    "stride": 0
  },
  "padding": null,
  "added_tokens": [
    {
      "id": 0,
      "content": "<s>",
      "single_word": false,
      "lstrip": false,
      "rstrip": false,
      "normalized": false,
      "special": true
    },
    {
      "id": 1,
      "content": "<pad>",
      "single_word": false,
      "lstrip": false,
      "rstrip": false,
      "normalized": false,
      "special": true
    },
    {
      "id": 2,
      "content": "</s>",
      "single_word": false,
      "lstrip": false,
      "rstrip": false,
      "normalized": false,
      "special": true
    },
    {
      "id": 4,
      "content": "<unk>",
      "single_word": false,
      "lstrip": false,
      "rstrip": false,
      "normalized": false,
      "special": true
    },
    {
      "id": 250001,
      "content": "<mask>",
      "single_word": false,
      "lstrip": false,
      "rstrip": false,
      "normalized": false,
      "special": true
    }
  ],
  "normalizer": {
    "type": "Sequence",
    "normalizers": [
      {
        "type": "Strip",
        "strip_left": false,
        "strip_right": true
      },
      {
        "type": "Replace",
        "pattern": {
          "String": " {2,}"
        },
        "content": "▁"
      }
    ]
  },
  "pre_tokenizer": {
    "type": "Sequence",
    "pretokenizers": [
      {
        "type": "WhitespaceSplit"
      },
      {
        "type": "Metaspace",
        "replacement": "▁",
        "prepend_scheme": "always",
        "split": true
      }
    ]
  },
  "post_processor": {
    "type": "TemplateProcessing",
    "single": [
      {
        "SpecialToken": {
          "id": "<s>",
          "type_id": 0
        }
      },
      {
        "Sequence": {
          "id": "A",
          "type_id": 0
        }
      },
      {
        "SpecialToken": {
          "id": "</s>",
          "type_id": 0
        }
      }
    ],
    "pair": [
      {
        "SpecialToken": {
          "id": "<s>",
          "type_id": 0
        }
      },
      {
        "Sequence": {
          "id": "A",
          "type_id": 0
        }
      },
      {
        "SpecialToken": {
          "id": "</s>",
          "type_id": 0
        }
      },
      {
        "Sequence": {
          "id": "B",
          "type_id": 0
        }
      },
      {
        "SpecialToken": {
          "id": "</s>",
          "type_id": 0
        }
      }
    ],
    "special_tokens": {
      "</s>": {
        "id": "</s>",
        "ids": [
          2
        ],
        "tokens": [
          "</s>"
        ]
      },
      "<s>": {
        "id": "<s>",
        "ids": [
          0
        ],
        "tokens": [
          "<s>"
        ]
      }
    }
  },
  "decoder": {
    "type": "Metaspace",
    "replacement": "▁",
    "prepend_scheme": "always",
    "split": true
  },
  "model": {
    "type": "Unigram",
    "unk_id": 3,
    "vocab": [
      [
        "<s>",
        0.0
      ],
      [
        "<pad>",
        0.0
      ],
      [
        "</s>",
        0.0
      ],
      [
        "<unk>",
        0.0
      ],
      [
        "<unk>",
        0.0
      ],
      [
        "▁የ",
        -0.0
      ],
      [
        "▁በ",
        -1.0
      ],
      [
        "▁አ",
        -2.0
      ],
      [
        "▁እ",
        -3.0
      ],
      [
        "▁መ",
        -4.0
      ],
      [
        "an",
        -5.0
      ],
      [
        "ar",
        -6.0
      ],
      [
        "▁ከ",
        -7.0
      ],
      [
        "da",
        -8.0
      ],
      [
        "▁ነ",
        -9.0
      ],
      [
        "▁እን",
        -10.0
      ],
      [
        "in",
        -11.0
      ],
      [
        "▁ለ",
        -12.0
      ],
      [
        "▁ይ",
        -13.0
      ],
      [
        "▁ተ",
        -14.0
      ],
      [
        "▁da",
        -15.0
      ],
      [
        "▁k",
        -16.0
      ],
      [
        "ቸው",
        -17.0
      ],
      [
        "▁s",
        -18.0
      ],
      [
        "፡፡",
        -19.0
      ],
      [
        "▁ወ",
        -20.0
      ],
      [
        "▁የሚ",
        -21.0
      ],
      [
        "▁ያ",
        -22.0
      ],
      [
        "▁a",
        -23.0
      ],
      [
        "ya",
        -24.0
      ],
      [
        "▁ስ",
        -25.0
      ],
      [
        "ma",
        -26.0
      ],
      [
        "ta",
        -27.0
      ],
      [
        "▁ነው",
        -28.0
      ],
      [
        "▁ማ",
        -29.0
      ],
      [
        "wa",
        -30.0
      ],
      [
        "ላይ",
        -31.0
      ],
      [
        "▁ም",
        -32.0
      ],
      [
        "ዎች",
        -33.0
      ],
      [
        "▁ብ",
        -34.0
      ],
      [
        "ነት",
        -35.0
      ],
      [
        "▁የተ",
        -36.0
      ],
      [
        "▁ሰ",
        -37.0
      ],
      [
        "▁b",
        -38.0
      ],
      [
        "▁ግ",
        -39.0
      ],
      [
        "▁እንደ",
        -40.0
      ],
      [
        "▁ላይ",
        -41.0
      ],
      [
        "un",
        -42.0
      ],
      [
        "ል።",
        -43.0
      ],
      [
        "ka",
        -44.0
      ],
      [
        "▁ው",
        -45.0
      ],
      [
        "▁እና",
        -46.0
      ],
      [
        "▁n",
        -47.0
      ],
      [
        "ለው",
        -48.0
      ],
      [
        "▁ባ",
        -49.0
      ],
      [
        "▁ደ",
        -50.0
      ],
      [
        "▁ሲ",
        -51.0
      ],
      [
        "as",
        -52.0
      ],
      [
        "▁ya",
        -53.0
      ],
      [
        "▁ta",
        -54.0
      ],
      [
        "ችን",
        -55.0
      ],
      [
        "ንድ",
        -56.0
      ],
      [
        "▁ት",
        -57.0
      ],
      [
        "▁ጥ",
        -58.0
      ],
      [
        "በት",
        -59.0
      ],
      [
        "▁A",
        -60.0
      ],
      [
        "▁ክ",
        -61.0
      ],
      [
        "▁g",
        -62.0
      ],
      [
        "ኢት",
        -63.0
      ],
      [
        "▁በመ",
        -64.0
      ],
      [
        "ኢትዮ",
        -65.0
      ],
      [
        "▁c",
        -66.0
      ],
      [
        "▁ma",
        -67.0
      ],
      [
        "ጵያ",
        -68.0
      ],
      [
        "▁t",
        -69.0
      ],
      [
        "ኢትዮጵያ",
        -70.0
      ],
      [
        "ገር",
        -71.0
      ],
      [
        "ንግ",
        -72.0
      ],
      [
        "am",
        -73.0
      ],
      [
        "ል፡፡",
        -74.0
      ],
      [
        "ab",
        -75.0
      ],
      [
        "on",
        -76.0
      ],
      [
        "▁ሁ",
        -77.0
      ],
      [
        "ዚህ",
        -78.0
      ],
      [
        "▁h",
        -79.0
      ],
      [
        "▁ዓ",
        -80.0
      ],
      [
        "ውን",
        -81.0
      ],
      [
        "▁እንዲ",
        -82.0
      ],
      [
        "▁2",
        -83.0
      ],
      [
        "▁ድ",
        -84.0
      ],
      [
        "▁አስ",
        -85.0
      ],
      [
        "በር",
        -86.0
      ],
      [
        "ስት",
        -87.0
      ],
      [
        "▁ቀ",
        -88.0
      ],
      [
        "ሆነ",
        -89.0
      ],
      [
        "ሆን",
        -90.0
      ],
      [
        "▁ገ",
        -91.0
      ],
      [
        "▁የአ",
        -92.0
      ],
      [
        "▁በአ",
        -93.0
      ],
      [
        "en",
        -94.0
      ],
      [
        "▁የመ",
        -95.0
      ],
      [
        "▁ል",
        -96.0
      ],
      [
        "▁በተ",
        -97.0
      ],
      [
        "▁ba",
        -98.0
      ],
      [
        "ለም",
        -99.0
      ],
      [
        "▁ዘ",
        -100.0
      ],
      [
        "hi",
        -101.0
      ],
      [
        "▁(",
        -102.0
      ],
      [
        "▁z",
        -103.0
      ],
      [
        "ቶች",
        -104.0
      ],
      [
        "ስጥ",
        -105.0
      ],
      [
        "ለት",
        -106.0
      ],
      [
        "yan",
        -107.0
      ],
      [
        "▁S",
        -108.0
      ],
      [
        "▁ቤ",
        -109.0
      ],
      [
        "▁አይ",
        -110.0
      ],
      [
        "▁1",
        -111.0
      ],
      [
        "▁m",
        -112.0
      ],
      [
        "▁ወደ",
        -113.0
      ],
      [
        "sa",
        -114.0
      ],
      [
        "▁ጋ",
        -115.0
      ],
      [
        "▁ግን",
        -116.0
      ],
      [
        "▁wa",
        -117.0
      ],
      [
        "▁d",
        -118.0
      ],
      [
        "ሆኑ",
        -119.0
      ],
      [
        "▁ታ",
        -120.0
      ],
      [
        "▁“",
        -121.0
      ],
      [
        "▁ውስጥ",
        -122.0
      ],
      [
        "▁ለመ",
        -123.0
      ],
      [
        "er",
        -124.0
      ],
      [
        "ደረ",
        -125.0
      ],
      [
        "ai",
        -126.0
      ],
      [
        "▁M",
        -127.0
      ],
      [
        "▁ጉ",
        -128.0
      ],
      [
        "ደር",
        -129.0
      ],
      [
        "▁ሊ",
        -130.0
      ],
      [
        "▁na",
        -131.0
      ],
      [
        "▁ይህ",
        -132.0
      ],
      [
        "▁አን",
        -133.0
      ],
      [
        "ንም",
        -134.0
      ],
      [
        "ur",
        -135.0
      ],
      [
        "wan",
        -136.0
      ],
      [
        "▁ለማ",
        -137.0
      ],
      [
        "ሪያ",
        -138.0
      ],
      [
        "▁f",
        -139.0
      ],
      [
        "ቸውን",
        -140.0
      ],
      [
        "▁ህ",
        -141.0
      ],
      [
        "▁እየ",
        -142.0
      ],
      [
        "▁ሳ",
        -143.0
      ],
      [
        "ትን",
        -144.0
      ],
      [
        "▁ስለ",
        -145.0
      ],
      [
        "iya",
        -146.0
      ],
      [
        "▁r",
        -147.0
      ],
      [
        "ተኛ",
        -148.0
      ],
      [
        "ጊዜ",
        -149.0
      ],
      [
        "..",
        -150.0
      ],
      [
        "al",
        -151.0
      ],
      [
        "▁ቢ",
        -152.0
      ],
      [
        "▁በማ",
        -153.0
      ],
      [
        "▁ነው።",
        -154.0
      ],
      [
        "▁su",
        -155.0
      ],
      [
        "ያን",
        -156.0
      ],
      [
        "ik",
        -157.0
      ],
      [
        "▁ጋር",
        -158.0
      ],
      [
        "▁j",
        -159.0
      ],
      [
        "▁B",
        -160.0
      ],
      [
        "▁ሚ",
        -161.0
      ],
      [
        "▁ጠ",
        -162.0
      ],
      [
        "▁ካ",
        -163.0
      ],
      [
        "▁ሕ",
        -164.0
      ],
      [
        "iy",
        -165.0
      ],
      [
        "▁የሚያ",
        -166.0
      ],
      [
        "▁20",
        -167.0
      ],
      [
        "▁ፍ",
        -168.0
      ],
      [
        "በረ",
        -169.0
      ],
      [
        "▁ku",
        -170.0
      ],
      [
        "he",
        -171.0
      ],
      [
        "▁አለ",
        -172.0
      ],
      [
        "ራት",
        -173.0
      ],
      [
        "▁K",
        -174.0
      ],
      [
        "▁ነበር",
        -175.0
      ],
      [
        "▁ሥ",
        -176.0
      ],
      [
        "ረት",
        -177.0
      ],
      [
        "▁የም",
        -178.0
      ],
      [
        "▁ጊዜ",
        -179.0
      ],
      [
        "yi",
        -180.0
      ],
      [
        "la",
        -181.0
      ],
      [
        "ir",
        -182.0
      ],
      [
        "▁ቅ",
        -183.0
      ],
      [
        "▁፡",
        -184.0
      ],
      [
        "ርት",
        -185.0
      ],
      [
        "su",
        -186.0
      ],
      [
        "ድር",
        -187.0
      ],
      [
        "▁ባለ",
        -188.0
      ],
      [
        "▁የማ",
        -189.0
      ],
      [
        "ርስ",
        -190.0
      ],
      [
        "▁N",
        -191.0
      ],
      [
        "▁D",
        -192.0
      ],
      [
        "at",
        -193.0
      ],
      [
        "▁ከተ",
        -194.0
      ],
      [
        "▁አንድ",
        -195.0
      ],
      [
        "▁መንግ",
        -196.0
      ],
      [
        "ke",
        -197.0
      ],
      [
        "▁ነው፡፡",
        -198.0
      ],
      [
        "▁እንዳ",
        -199.0
      ],
      [
        "▁እስ",
        -200.0
      ],
      [
        "▁በሚ",
        -201.0
      ],
      [
        "ስተ",
        -202.0
      ],
      [
        "▁አል",
        -203.0
      ],
      [
        "▁kas",
        -204.0
      ],
      [
        "▁ና",
        -205.0
      ],
      [
        "▁ኢትዮጵያ",
        -206.0
      ],
      [
        "ዋል።",
        -207.0
      ],
      [
        "▁T",
        -208.0
      ],
      [
        "ገባ",
        -209.0
      ],
      [
        "is",
        -210.0
      ],
      [
        "ድረ",
        -211.0
      ],
      [
        "▁ኢ",
        -212.0
      ],
      [
        "▁wan",
        -213.0
      ],
      [
        "or",
        -214.0
      ],
      [
        "▁እንደሚ",
        -215.0
      ],
      [
        "ንት",
        -216.0
      ],
      [
        "ga",
        -217.0
      ],
      [
        "▁ce",
        -218.0
      ],
      [
        "▁ነገር",
        -219.0
      ],
      [
        "▁ጉዳ",
        -220.0
      ],
      [
        "ሁን",
        -221.0
      ],
      [
        "ዝብ",
        -222.0
      ],
      [
        "ce",
        -223.0
      ],
      [
        "ሎች",
        -224.0
      ],
      [
        "▁ka",
        -225.0
      ],
      [
        "ሪካ",
        -226.0
      ],
      [
        "uk",
        -227.0
      ],
      [
        "ara",
        -228.0
      ],
      [
        "▁ሀ",
        -229.0
      ],
      [
        "ዲስ",
        -230.0
      ],
      [
        "▁ወይ",
        -231.0
      ],
      [
        "▁ፈ",
        -232.0
      ],
      [
        "▁ዋ",
        -233.0
      ],
      [
        "▁mu",
        -234.0
      ],
      [
        "▁-",
        -235.0
      ],
      [
        "▁sa",
        -236.0
      ],
      [
        "ቱን",
        -237.0
      ],
      [
        "...",
        -238.0
      ],
      [
        "ንያ",
        -239.0
      ],
      [
        "ሰብ",
        -240.0
      ],
      [
        "ሮች",
        -241.0
      ],
      [
        "▁ምክ",
        -242.0
      ],
      [
        "▁ሃ",
        -243.0
      ],
      [
        "▁መን",
        -244.0
      ],
      [
        "▁ደግ",
        -245.0
      ],
      [
        "▁ne",
        -246.0
      ],
      [
        "ረጃ",
        -247.0
      ],
      [
        "▁ሁሉ",
        -248.0
      ],
      [
        "▁ሌ",
        -249.0
      ],
      [
        "it",
        -250.0
      ],
      [
        "▁አገ",
        -251.0
      ],
      [
        "መለ",
        -252.0
      ],
      [
        "▁ደግሞ",
        -253.0
      ],
      [
        "▁ቤት",
        -254.0
      ],
      [
        "▁ዓመ",
        -255.0
      ],
      [
        "▁ሆ",
        -256.0
      ],
      [
        "ራዊ",
        -257.0
      ],
      [
        "▁መል",
        -258.0
      ],
      [
        "ላቸው",
        -259.0
      ],
      [
        "ad",
        -260.0
      ],
      [
        "ጀመ",
        -261.0
      ],
      [
        "▁sh",
        -262.0
      ],
      [
        "ታት",
        -263.0
      ],
      [
        "▁ኮ",
        -264.0
      ],
      [
        "▁ያለ",
        -265.0
      ],
      [
        "▁አባ",
        -266.0
      ],
      [
        "▁ምን",
        -267.0
      ],
      [
        "▁በእ",
        -268.0
      ],
      [
        "▁yi",
        -269.0
      ],
      [
        "▁የነ",
        -270.0
      ],
      [
        "▁l",
        -271.0
      ],
      [
        "ትና",
        -272.0
      ],
      [
        "መን",
        -273.0
      ],
      [
        "▁ድር",
        -274.0
      ],
      [
        "▁የእ",
        -275.0
      ],
      [
        "▁እያ",
        -276.0
      ],
      [
        "▁H",
        -277.0
      ],
      [
        "▁ሰዎች",
        -278.0
      ],
      [
        "▁kuma",
        -279.0
      ],
      [
        "war",
        -280.0
      ],
      [
        "▁ፕ",
        -281.0
      ],
      [
        "ረው",
        -282.0
      ],
      [
        "tan",
        -283.0
      ],
      [
        "▁መስ",
        -284.0
      ],
      [
        "▁ሰው",
        -285.0
      ],
      [
        "▁ያለው",
        -286.0
      ],
      [
        "▁አስተ",
        -287.0
      ],
      [
        "▁አካ",
        -288.0
      ],
      [
        "ብር",
        -289.0
      ],
      [
        "om",
        -290.0
      ],
      [
        "ግባ",
        -291.0
      ],
      [
        "20",
        -292.0
      ],
      [
        "um",
        -293.0
      ],
      [
        "▁ብቻ",
        -294.0
      ],
      [
        "▁ዕ",
        -295.0
      ],
      [
        "▁ሙ",
        -296.0
      ],
      [
        "ቅር",
        -297.0
      ],
      [
        "▁ሳይ",
        -298.0
      ],
      [
        "▁ች",
        -299.0
      ],
      [
        "ለን",
        -300.0
      ],
      [
        "▁sun",
        -301.0
      ],
      [
        "ኞች",
        -302.0
      ],
      [
        "dan",
        -303.0
      ],
      [
        "ከል",
        -304.0
      ],
      [
        "▁I",
        -305.0
      ],
      [
        "ገድ",
        -306.0
      ],
      [
        "▁ቁ",
        -307.0
      ],
      [
        "ግር",
        -308.0
      ],
      [
        "▁የኢትዮጵያ",
        -309.0
      ],
      [
        "▁ናቸው",
        -310.0
      ],
      [
        "▁ኃ",
        -311.0
      ],
      [
        "il",
        -312.0
      ],
      [
        "ፈል",
        -313.0
      ],
      [
        "ላት",
        -314.0
      ],
      [
        "ም።",
        -315.0
      ],
      [
        "es",
        -316.0
      ],
      [
        "ልጣ",
        -317.0
      ],
      [
        "ታወ",
        -318.0
      ],
      [
        "ሉት",
        -319.0
      ],
      [
        "ችሁ",
        -320.0
      ],
      [
        "▁አመ",
        -321.0
      ],
      [
        "ላል",
        -322.0
      ],
      [
        "▁ዝ",
        -323.0
      ],
      [
        "ለሁ",
        -324.0
      ],
      [
        "ዋል፡፡",
        -325.0
      ],
      [
        "ናት",
        -326.0
      ],
      [
        "yar",
        -327.0
      ],
      [
        "▁የሰ",
        -328.0
      ],
      [
        "ታቸው",
        -329.0
      ],
      [
        "ci",
        -330.0
      ],
      [
        "▁shi",
        -331.0
      ],
      [
        "ኛው",
        -332.0
      ],
      [
        "በሩ",
        -333.0
      ],
      [
        "▁ከመ",
        -334.0
      ],
      [
        "▁ዜ",
        -335.0
      ],
      [
        "ተው",
        -336.0
      ],
      [
        "▁C",
        -337.0
      ],
      [
        "ኋላ",
        -338.0
      ],
      [
        "ማሪ",
        -339.0
      ],
      [
        "ፊት",
        -340.0
      ],
      [
        "nan",
        -341.0
      ],
      [
        "▁ክፍ",
        -342.0
      ],
      [
        "▁በዚህ",
        -343.0
      ],
      [
        "kin",
        -344.0
      ],
      [
        "ikin",
        -345.0
      ],
      [
        "▁አበ",
        -346.0
      ],
      [
        "▁እየተ",
        -347.0
      ],
      [
        "▁ን",
        -348.0
      ],
      [
        "▁ወይም",
        -349.0
      ],
      [
        "ዳን",
        -350.0
      ],
      [
        "▁G",
        -351.0
      ],
      [
        "ምህ",
        -352.0
      ],
      [
        "▁ብዙ",
        -353.0
      ],
      [
        "▁ከአ",
        -354.0
      ],
      [
        "ምን",
        -355.0
      ],
      [
        "ኔታ",
        -356.0
      ],
      [
        "ባቸው",
        -357.0
      ],
      [
        "▁W",
        -358.0
      ],
      [
        "ረስ",
        -359.0
      ],
      [
        "▁የወ",
        -360.0
      ],
      [
        "ari",
        -361.0
      ],
      [
        "ዋል",
        -362.0
      ],
      [
        "▁ko",
        -363.0
      ],
      [
        "ዛሬ",
        -364.0
      ],
      [
        "ana",
        -365.0
      ],
      [
        "▁in",
        -366.0
      ],
      [
        "▁አቶ",
        -367.0
      ],
      [
        "▁መሆኑ",
        -368.0
      ],
      [
        "▁3",
        -369.0
      ],
      [
        "▁አብ",
        -370.0
      ],
      [
        "▁እነ",
        -371.0
      ],
      [
        "▁አም",
        -372.0
      ],
      [
        "▁za",
        -373.0
      ],
      [
        "ለያ",
        -374.0
      ],
      [
        "ሚያ",
        -375.0
      ],
      [
        "▁ፓ",
        -376.0
      ],
      [
        "ከት",
        -377.0
      ],
      [
        "ug",
        -378.0
      ],
      [
        "kar",
        -379.0
      ],
      [
        "ማር",
        -380.0
      ],
      [
        "▁እር",
        -381.0
      ],
      [
        "▁Y",
        -382.0
      ],
      [
        "▁ሁኔታ",
        -383.0
      ],
      [
        "▁ከፍ",
        -384.0
      ],
      [
        "ንን",
        -385.0
      ],
      [
        "▁ሆነ",
        -386.0
      ],
      [
        "ለቲ",
        -387.0
      ],
      [
        "ed",
        -388.0
      ],
      [
        "ሥት",
        -389.0
      ],
      [
        "ባቢ",
        -390.0
      ],
      [
        "▁yan",
        -391.0
      ],
      [
        "ድረግ",
        -392.0
      ],
      [
        "uwa",
        -393.0
      ],
      [
        "▁ቦ",
        -394.0
      ],
      [
        "iyar",
        -395.0
      ],
      [
        "ግራ",
        -396.0
      ],
      [
        "▁ምክንያ",
        -397.0
      ],
      [
        "ከተ",
        -398.0
      ],
      [
        "ድን",
        -399.0
      ],
      [
        "▁አይደ",
        -400.0
      ],
      [
        "ፖለቲ",
        -401.0
      ],
      [
        "▁በኋላ",
        -402.0
      ],
      [
        "are",
        -403.0
      ],
      [
        "▁ምር",
        -404.0
      ],
      [
        "▁R",
        -405.0
      ],
      [
        "▁J",
        -406.0
      ],
      [
        "ደረገ",
        -407.0
      ],
      [
        "የት",
        -408.0
      ],
      [
        "▁201",
        -409.0
      ],
      [
        "ታዊ",
        -410.0
      ],
      [
        "ተር",
        -411.0
      ],
      [
        "▁ቀን",
        -412.0
      ],
      [
        "cin",
        -413.0
      ],
      [
        "us",
        -414.0
      ],
      [
        "▁L",
        -415.0
      ],
      [
        "▁ዶ",
        -416.0
      ],
      [
        "ባት",
        -417.0
      ],
      [
        "▁ቃ",
        -418.0
      ],
      [
        "ጥር",
        -419.0
      ],
      [
        "▁ጨ",
        -420.0
      ],
      [
        "▁ኤ",
        -421.0
      ],
      [
        "ዎችን",
        -422.0
      ],
      [
        "ቀር",
        -423.0
      ],
      [
        "▁በላይ",
        -424.0
      ],
      [
        "አብ",
        -425.0
      ],
      [
        "ይወ",
        -426.0
      ],
      [
        "ርስቲ",
        -427.0
      ],
      [
        "▁'",
        -428.0
      ],
      [
        "yin",
        -429.0
      ],
      [
        "▁suka",
        -430.0
      ],
      [
        "ግዚ",
        -431.0
      ],
      [
        "ሔር",
        -432.0
      ],
      [
        "▁E",
        -433.0
      ],
      [
        "▁ጉዳይ",
        -434.0
      ],
      [
        "▁ኣ",
        -435.0
      ],
      [
        "ሉ።",
        -436.0
      ],
      [
        "▁\"",
        -437.0
      ],
      [
        "ገኘ",
        -438.0
      ],
      [
        "▁P",
        -439.0
      ],
      [
        "መል",
        -440.0
      ],
      [
        "ናል",
        -441.0
      ],
      [
        "ገራ",
        -442.0
      ],
      [
        "ዚያ",
        -443.0
      ],
      [
        "▁አበባ",
        -444.0
      ],
      [
        "ኖር",
        -445.0
      ],
      [
        "ፖለቲካ",
        -446.0
      ],
      [
        "መስ",
        -447.0
      ],
      [
        "kan",
        -448.0
      ],
      [
        "ርቲ",
        -449.0
      ],
      [
        "ጣም",
        -450.0
      ],
      [
        "aba",
        -451.0
      ],
      [
        "▁kan",
        -452.0
      ],
      [
        "ማት",
        -453.0
      ],
      [
        "▁የት",
        -454.0
      ],
      [
        "▁ha",
        -455.0
      ],
      [
        "ገኙ",
        -456.0
      ],
      [
        "▁ga",
        -457.0
      ],
      [
        "▁ጀ",
        -458.0
      ],
      [
        "▁ሚኒ",
        -459.0
      ],
      [
        "ጠቀ",
        -460.0
      ],
      [
        "▁‹",
        -461.0
      ],
      [
        "ብት",
        -462.0
      ],
      [
        "ነው",
        -463.0
      ],
      [
        "ታው",
        -464.0
      ],
      [
        "ይት",
        -465.0
      ],
      [
        "▁ያስ",
        -466.0
      ],
      [
        "ቦች",
        -467.0
      ],
      [
        "▁ራ",
        -468.0
      ],
      [
        "▁ማለት",
        -469.0
      ],
      [
        "ያቄ",
        -470.0
      ],
      [
        "▁ቤተ",
        -471.0
      ],
      [
        "▁ድርጅ",
        -472.0
      ],
      [
        "▁F",
        -473.0
      ],
      [
        "▁ke",
        -474.0
      ],
      [
        "ብረ",
        -475.0
      ],
      [
        "ችል",
        -476.0
      ],
      [
        "ለች",
        -477.0
      ],
      [
        "ርድ",
        -478.0
      ],
      [
        "ግል",
        -479.0
      ],
      [
        "▁ኦ",
        -480.0
      ],
      [
        "▁ሥራ",
        -481.0
      ],
      [
        "▁ዳ",
        -482.0
      ],
      [
        "ልል",
        -483.0
      ],
      [
        "ቅም",
        -484.0
      ],
      [
        "ምሮ",
        -485.0
      ],
      [
        "ንስ",
        -486.0
      ],
      [
        "ገለ",
        -487.0
      ],
      [
        "ጠና",
        -488.0
      ],
      [
        "▁ሲሆን",
        -489.0
      ],
      [
        "▁እስከ",
        -490.0
      ],
      [
        "ጣት",
        -491.0
      ],
      [
        "ማራ",
        -492.0
      ],
      [
        "ግዚአብ",
        -493.0
      ],
      [
        "▁አዲስ",
        -494.0
      ],
      [
        "▁አድር",
        -495.0
      ],
      [
        "tar",
        -496.0
      ],
      [
        "▁ቡ",
        -497.0
      ],
      [
        "ba",
        -498.0
      ],
      [
        "▁an",
        -499.0
      ],
      [
        "ki",
        -500.0
      ],
      [
        "▁ጥያቄ",
        -501.0
      ],
      [
        "ጠር",
        -502.0
      ],
      [
        "ቢያ",
        -503.0
      ],
      [
        "ላማ",
        -504.0
      ],
      [
        "▁cikin",
        -505.0
      ],
      [
        "ዓት",
        -506.0
      ],
      [
        "ረዳ",
        -507.0
      ],
      [
        "ሰው",
        -508.0
      ],
      [
        "▁የሆነ",
        -509.0
      ],
      [
        "▁w",
        -510.0
      ],
      [
        "ዎቹ",
        -511.0
      ],
      [
        "▁መካ",
        -512.0
      ],
      [
        "ያስ",
        -513.0
      ],
      [
        "ም፡፡",
        -514.0
      ],
      [
        "▁kasar",
        -515.0
      ],
      [
        "▁daga",
        -516.0
      ],
      [
        "▁ጎ",
        -517.0
      ],
      [
        "▁በጣም",
        -518.0
      ],
      [
        "ገን",
        -519.0
      ],
      [
        "▁ከተማ",
        -520.0
      ],
      [
        "▁አይደለም",
        -521.0
      ],
      [
        "▁ዓመት",
        -522.0
      ],
      [
        "▁ማስ",
        -523.0
      ],
      [
        "aj",
        -524.0
      ],
      [
        "▁kar",
        -525.0
      ],
      [
        "▁ብሎ",
        -526.0
      ],
      [
        "▁4",
        -527.0
      ],
      [
        "ሜሪካ",
        -528.0
      ],
      [
        "▁ቆ",
        -529.0
      ],
      [
        "ምና",
        -530.0
      ],
      [
        "▁ሞ",
        -531.0
      ],
      [
        "▁cewa",
        -532.0
      ],
      [
        "aban",
        -533.0
      ],
      [
        "ረጋ",
        -534.0
      ],
      [
        "▁አሁን",
        -535.0
      ],
      [
        "▁ሆኖ",
        -536.0
      ],
      [
        "le",
        -537.0
      ],
      [
        "▁ነበር።",
        -538.0
      ],
      [
        "▁aka",
        -539.0
      ],
      [
        "▁_",
        -540.0
      ],
      [
        "ሳት",
        -541.0
      ],
      [
        "▁ይች",
        -542.0
      ],
      [
        "ይል",
        -543.0
      ],
      [
        "hin",
        -544.0
      ],
      [
        "ግለ",
        -545.0
      ],
      [
        "ye",
        -546.0
      ],
      [
        "ሪክ",
        -547.0
      ],
      [
        "ምር",
        -548.0
      ],
      [
        "una",
        -549.0
      ],
      [
        "መራ",
        -550.0
      ],
      [
        "wam",
        -551.0
      ],
      [
        "▁ለአ",
        -552.0
      ],
      [
        "▁የስ",
        -553.0
      ],
      [
        "ገል",
        -554.0
      ],
      [
        "ርያ",
        -555.0
      ],
      [
        "ani",
        -556.0
      ],
      [
        "▁የህ",
        -557.0
      ],
      [
        "▁mai",
        -558.0
      ],
      [
        "ot",
        -559.0
      ],
      [
        "▁ከፍተኛ",
        -560.0
      ],
      [
        "00",
        -561.0
      ],
      [
        "▁ሐ",
        -562.0
      ],
      [
        "▁the",
        -563.0
      ],
      [
        "ባል",
        -564.0
      ],
      [
        "▁ዛሬ",
        -565.0
      ],
      [
        "ሆና",
        -566.0
      ],
      [
        "ህል",
        -567.0
      ],
      [
        "▁መሰ",
        -568.0
      ],
      [
        "▁5",
        -569.0
      ],
      [
        "▁ሌላ",
        -570.0
      ],
      [
        "▁አው",
        -571.0
      ],
      [
        "▁sam",
        -572.0
      ],
      [
        "ግዚአብሔር",
        -573.0
      ],
      [
        "▁መንገድ",
        -574.0
      ],
      [
        "ቀረ",
        -575.0
      ],
      [
        "▁በር",
        -576.0
      ],
      [
        "ሰራ",
        -577.0
      ],
      [
        "▁መሆኑን",
        -578.0
      ],
      [
        "▁ላ",
        -579.0
      ],
      [
        "››",
        -580.0
      ],
      [
        "bu",
        -581.0
      ],
      [
        "ክት",
        -582.0
      ],
      [
        "▁ማን",
        -583.0
      ],
      [
        "ሳይ",
        -584.0
      ],
      [
        "ፈው",
        -585.0
      ],
      [
        "ምህርት",
        -586.0
      ],
      [
        "ለያዩ",
        -587.0
      ],
      [
        "▁ብር",
        -588.0
      ],
      [
        "ሪዎች",
        -589.0
      ],
      [
        "ዘጋ",
        -590.0
      ],
      [
        "ፍት",
        -591.0
      ],
      [
        "ቀው",
        -592.0
      ],
      [
        "▁ዋና",
        -593.0
      ],
      [
        "▁ወቅ",
        -594.0
      ],
      [
        "▁ከዚህ",
        -595.0
      ],
      [
        "ic",
        -596.0
      ],
      [
        "ሽን",
        -597.0
      ],
      [
        "man",
        -598.0
      ],
      [
        "▁ts",
        -599.0
      ],
      [
        "▁ደረጃ",
        -600.0
      ],
      [
        "ታችን",
        -601.0
      ],
      [
        "▁ያል",
        -602.0
      ],
      [
        "ውያን",
        -603.0
      ],
      [
        "ሩት",
        -604.0
      ],
      [
        "ገና",
        -605.0
      ],
      [
        "▁‹‹",
        -606.0
      ],
      [
        "▁በቀ",
        -607.0
      ],
      [
        "▁–",
        -608.0
      ],
      [
        "ኖች",
        -609.0
      ],
      [
        "▁ጽ",
        -610.0
      ],
      [
        "ደው",
        -611.0
      ],
      [
        "ክራ",
        -612.0
      ],
      [
        "ነሳ",
        -613.0
      ],
      [
        "▁ስም",
        -614.0
      ],
      [
        "▁ዜና",
        -615.0
      ],
      [
        "ዱስ",
        -616.0
      ],
      [
        "▁ር",
        -617.0
      ],
      [
        "▁እንዲሁ",
        -618.0
      ],
      [
        "ካሄ",
        -619.0
      ],
      [
        "▁እንጂ",
        -620.0
      ],
      [
        "ሎት",
        -621.0
      ],
      [
        "▁መካከል",
        -622.0
      ],
      [
        "ቤት",
        -623.0
      ],
      [
        "▁ምክንያት",
        -624.0
      ],
      [
        "▁እኔ",
        -625.0
      ],
      [
        "▁‘",
        -626.0
      ],
      [
        "ክል",
        -627.0
      ],
      [
        "▁መጠ",
        -628.0
      ],
      [
        "ko",
        -629.0
      ],
      [
        "ራል",
        -630.0
      ],
      [
        "ሰማ",
        -631.0
      ],
      [
        "▁በፊት",
        -632.0
      ],
      [
        "ዮን",
        -633.0
      ],
      [
        "▁ይህን",
        -634.0
      ],
      [
        "መር",
        -635.0
      ],
      [
        "id",
        -636.0
      ],
      [
        "▁ከእ",
        -637.0
      ],
      [
        "ልቅ",
        -638.0
      ],
      [
        "▁መንግሥት",
        -639.0
      ],
      [
        "▁o",
        -640.0
      ],
      [
        "ወሰ",
        -641.0
      ],
      [
        "▁am",
        -642.0
      ],
      [
        "ዓለም",
        -643.0
      ],
      [
        "▁ነገ",
        -644.0
      ],
      [
        "arin",
        -645.0
      ],
      [
        "▁አደ",
        -646.0
      ],
      [
        "ዮች",
        -647.0
      ],
      [
        "ፍሪካ",
        -648.0
      ],
      [
        "ገኝ",
        -649.0
      ],
      [
        "▁wannan",
        -650.0
      ],
      [
        "▁የው",
        -651.0
      ],
      [
        "ስፋ",
        -652.0
      ],
      [
        "▁ፓርቲ",
        -653.0
      ],
      [
        "▁መንግስት",
        -654.0
      ],
      [
        "ላፊ",
        -655.0
      ],
      [
        "ion",
        -656.0
      ],
      [
        "ያው",
        -657.0
      ],
      [
        "▁ጠቅ",
        -658.0
      ],
      [
        "ላም",
        -659.0
      ],
      [
        "▁ዲ",
        -660.0
      ],
      [
        "▁ሚኒስት",
        -661.0
      ],
      [
        "▁Am",
        -662.0
      ],
      [
        "▁አቀ",
        -663.0
      ],
      [
        "▁ስር",
        -664.0
      ],
      [
        "▁ተጠ",
        -665.0
      ],
      [
        "ጀመሪያ",
        -666.0
      ],
      [
        "▁san",
        -667.0
      ],
      [
        "iki",
        -668.0
      ],
      [
        "▁ሽ",
        -669.0
      ],
      [
        "ኩል",
        -670.0
      ],
      [
        "▁የነበረ",
        -671.0
      ],
      [
        "ልጣን",
        -672.0
      ],
      [
        "ወጣ",
        -673.0
      ],
      [
        "በል",
        -674.0
      ],
      [
        "▁ተወ",
        -675.0
      ],
      [
        "መድ",
        -676.0
      ],
      [
        "ሉ፡፡",
        -677.0
      ],
      [
        "▁wani",
        -678.0
      ],
      [
        "ugaban",
        -679.0
      ],
      [
        "▁al",
        -680.0
      ],
      [
        "▁ቦታ",
        -681.0
      ],
      [
        "har",
        -682.0
      ],
      [
        "ጠው",
        -683.0
      ],
      [
        "ዘብ",
        -684.0
      ],
      [
        "ግብ",
        -685.0
      ],
      [
        "▁እንደሆነ",
        -686.0
      ],
      [
        "ቱም",
        -687.0
      ],
      [
        "▁ስራ",
        -688.0
      ],
      [
        "ከላ",
        -689.0
      ],
      [
        "ፖሊ",
        -690.0
      ],
      [
        "▁በኢትዮጵያ",
        -691.0
      ],
      [
        "ኝነት",
        -692.0
      ],
      [
        "▁የኢ",
        -693.0
      ],
      [
        "መጣ",
        -694.0
      ],
      [
        "▁ዓለም",
        -695.0
      ],
      [
        "ታል",
        -696.0
      ],
      [
        "▁ሴ",
        -697.0
      ],
      [
        "▁የበ",
        -698.0
      ],
      [
        "▁እንዴ",
        -699.0
      ],
      [
        "ሱን",
        -700.0
      ],
      [
        "▁ወን",
        -701.0
      ],
      [
        "▁ክልል",
        -702.0
      ],
      [
        "af",
        -703.0
      ],
      [
        "▁ji",
        -704.0
      ],
      [
        "lla",
        -705.0
      ],
      [
        "ገሪ",
        -706.0
      ],
      [
        "▁አካባቢ",
        -707.0
      ],
      [
        "ለይ",
        -708.0
      ],
      [
        "ክር",
        -709.0
      ],
      [
        "መው",
        -710.0
      ],
      [
        "ሩን",
        -711.0
      ],
      [
        "li",
        -712.0
      ],
      [
        "▁ተቀ",
        -713.0
      ],
      [
        "▁በሰ",
        -714.0
      ],
      [
        "op",
        -715.0
      ],
      [
        "▁በየ",
        -716.0
      ],
      [
        "ጦር",
        -717.0
      ],
      [
        "ገው",
        -718.0
      ],
      [
        "ገኛ",
        -719.0
      ],
      [
        "ጠበ",
        -720.0
      ],
      [
        "▁አገል",
        -721.0
      ],
      [
        "▁እው",
        -722.0
      ],
      [
        "▁የታ",
        -723.0
      ],
      [
        "▁ህዝብ",
        -724.0
      ],
      [
        "▁እንዲሁም",
        -725.0
      ],
      [
        "▁ክርስቲ",
        -726.0
      ],
      [
        "▁አሳ",
        -727.0
      ],
      [
        "ኦሮ",
        -728.0
      ],
      [
        "▁መረጃ",
        -729.0
      ],
      [
        "▁«",
        -730.0
      ],
      [
        "▁ፕሬ",
        -731.0
      ],
      [
        "▁bayan",
        -732.0
      ],
      [
        "▁የሚል",
        -733.0
      ],
      [
        "▁።",
        -734.0
      ],
      [
        "ሠራ",
        -735.0
      ],
      [
        "▁han",
        -736.0
      ],
      [
        "አዴ",
        -737.0
      ],
      [
        "▁የማይ",
        -738.0
      ],
      [
        "▁ፕሮ",
        -739.0
      ],
      [
        "▁ሁለት",
        -740.0
      ],
      [
        "በው",
        -741.0
      ],
      [
        "ይነት",
        -742.0
      ],
      [
        "ይወት",
        -743.0
      ],
      [
        "ደም",
        -744.0
      ],
      [
        "ታቸውን",
        -745.0
      ],
      [
        "ut",
        -746.0
      ],
      [
        "▁ተቋ",
        -747.0
      ],
      [
        "▁i",
        -748.0
      ],
      [
        "▁ተብ",
        -749.0
      ],
      [
        "▁p",
        -750.0
      ],
      [
        "▁ቢሆን",
        -751.0
      ],
      [
        "▁ወቅት",
        -752.0
      ],
      [
        "የር",
        -753.0
      ],
      [
        "ጨማሪ",
        -754.0
      ],
      [
        "▁ችግር",
        -755.0
      ],
      [
        "▁ሳይሆን",
        -756.0
      ],
      [
        "▁ተና",
        -757.0
      ],
      [
        "ኤል",
        -758.0
      ],
      [
        "ያዊ",
        -759.0
      ],
      [
        "▁ተከ",
        -760.0
      ],
      [
        "▁ከሚ",
        -761.0
      ],
      [
        "ud",
        -762.0
      ],
      [
        "▁ሕዝብ",
        -763.0
      ],
      [
        "▁እንዲህ",
        -764.0
      ],
      [
        "ቶችን",
        -765.0
      ],
      [
        "▁በስ",
        -766.0
      ],
      [
        "ምነት",
        -767.0
      ],
      [
        "ህን",
        -768.0
      ],
      [
        "ጨረ",
        -769.0
      ],
      [
        "▁ci",
        -770.0
      ],
      [
        "▁በነ",
        -771.0
      ],
      [
        "ንዳ",
        -772.0
      ],
      [
        "ሰባ",
        -773.0
      ],
      [
        "▁የሚያስ",
        -774.0
      ],
      [
        "ጆች",
        -775.0
      ],
      [
        "▁ድረስ",
        -776.0
      ],
      [
        "▁Da",
        -777.0
      ],
      [
        "ንተ",
        -778.0
      ],
      [
        "ላለ",
        -779.0
      ],
      [
        "▁እጅ",
        -780.0
      ],
      [
        "ሞክራ",
        -781.0
      ],
      [
        "ሥራ",
        -782.0
      ],
      [
        "▁ጭ",
        -783.0
      ],
      [
        "▁በወ",
        -784.0
      ],
      [
        "▁7",
        -785.0
      ],
      [
        "▁ዩ",
        -786.0
      ],
      [
        "ia",
        -787.0
      ],
      [
        "▁ra",
        -788.0
      ],
      [
        "▁har",
        -789.0
      ],
      [
        "▁ሌሎች",
        -790.0
      ],
      [
        "ደረጉ",
        -791.0
      ],
      [
        "▁ምንም",
        -792.0
      ],
      [
        "ung",
        -793.0
      ],
      [
        "▁ልዩ",
        -794.0
      ],
      [
        "ቀት",
        -795.0
      ],
      [
        "re",
        -796.0
      ],
      [
        "▁፣",
        -797.0
      ],
      [
        "ውል",
        -798.0
      ],
      [
        "ባለ",
        -799.0
      ],
      [
        "▁ብለ",
        -800.0
      ],
      [
        "ሳብ",
        -801.0
      ],
      [
        "▁የሕ",
        -802.0
      ],
      [
        "ing",
        -803.0
      ],
      [
        "▁to",
        -804.0
      ],
      [
        "▁ቅዱስ",
        -805.0
      ],
      [
        "▁ነበር፡፡",
        -806.0
      ],
      [
        "▁O",
        -807.0
      ],
      [
        "ልክ",
        -808.0
      ],
      [
        "ንና",
        -809.0
      ],
      [
        "▁ቃል",
        -810.0
      ],
      [
        "▁በም",
        -811.0
      ],
      [
        "▁ስብ",
        -812.0
      ],
      [
        "▁እንዴት",
        -813.0
      ],
      [
        "መረ",
        -814.0
      ],
      [
        "▁ገል",
        -815.0
      ],
      [
        "eriya",
        -816.0
      ],
      [
        "bin",
        -817.0
      ],
      [
        "▁እንኳ",
        -818.0
      ],
      [
        "▁of",
        -819.0
      ],
      [
        "▁dai",
        -820.0
      ],
      [
        "san",
        -821.0
      ],
      [
        "▁ሶ",
        -822.0
      ],
      [
        "▁አገልግ",
        -823.0
      ],
      [
        "ያኔ",
        -824.0
      ],
      [
        "ወደ",
        -825.0
      ],
      [
        "▁አገር",
        -826.0
      ],
      [
        "ban",
        -827.0
      ],
      [
        "▁ሲያ",
        -828.0
      ],
      [
        "▁አላ",
        -829.0
      ],
      [
        "▁ያሉ",
        -830.0
      ],
      [
        "uka",
        -831.0
      ],
      [
        "ግራይ",
        -832.0
      ],
      [
        "wamn",
        -833.0
      ],
      [
        "ቃት",
        -834.0
      ],
      [
        "▁ሥር",
        -835.0
      ],
      [
        "▁በደ",
        -836.0
      ],
      [
        "▁6",
        -837.0
      ],
      [
        "ሉም",
        -838.0
      ],
      [
        "▁የቀ",
        -839.0
      ],
      [
        "omin",
        -840.0
      ],
      [
        "ዶች",
        -841.0
      ],
      [
        "ነጋ",
        -842.0
      ],
      [
        "▁ሺ",
        -843.0
      ],
      [
        "▁ይችላ",
        -844.0
      ],
      [
        "▁ቴ",
        -845.0
      ],
      [
        "ho",
        -846.0
      ],
      [
        "ደት",
        -847.0
      ],
      [
        "▁መግለ",
        -848.0
      ],
      [
        "ክስ",
        -849.0
      ],
      [
        "▁ወር",
        -850.0
      ],
      [
        "▁ምርጫ",
        -851.0
      ],
      [
        "▁masu",
        -852.0
      ],
      [
        "hir",
        -853.0
      ],
      [
        "ረብ",
        -854.0
      ],
      [
        "ዲያ",
        -855.0
      ],
      [
        "ነቱ",
        -856.0
      ],
      [
        "▁ዓመታት",
        -857.0
      ],
      [
        "▁mata",
        -858.0
      ],
      [
        "ፈለ",
        -859.0
      ],
      [
        "▁አንዱ",
        -860.0
      ],
      [
        "▁በት",
        -861.0
      ],
      [
        "▁Z",
        -862.0
      ],
      [
        "▁መር",
        -863.0
      ],
      [
        "dda",
        -864.0
      ],
      [
        "▁ዘንድ",
        -865.0
      ],
      [
        "▁...",
        -866.0
      ],
      [
        "ንቀ",
        -867.0
      ],
      [
        "▁ጣ",
        -868.0
      ],
      [
        "▁እነዚህ",
        -869.0
      ],
      [
        "▁ድርጅት",
        -870.0
      ],
      [
        "ዲዮ",
        -871.0
      ],
      [
        "▁በሌ",
        -872.0
      ],
      [
        "▁she",
        -873.0
      ],
      [
        "ብረት",
        -874.0
      ],
      [
        "ራቸው",
        -875.0
      ],
      [
        "ha",
        -876.0
      ],
      [
        "አዴግ",
        -877.0
      ],
      [
        "ኘት",
        -878.0
      ],
      [
        "19",
        -879.0
      ],
      [
        "▁ምስ",
        -880.0
      ],
      [
        "▁tsa",
        -881.0
      ],
      [
        "ent",
        -882.0
      ],
      [
        "▁Ne",
        -883.0
      ],
      [
        "▁አር",
        -884.0
      ],
      [
        "ዳደር",
        -885.0
      ],
      [
        "▁so",
        -886.0
      ],
      [
        "▁ተግባ",
        -887.0
      ],
      [
        "▁ኪ",
        -888.0
      ],
      [
        "▁ተቃ",
        -889.0
      ],
      [
        "▁ክፍል",
        -890.0
      ],
      [
        "▁ፋ",
        -891.0
      ],
      [
        "el",
        -892.0
      ],
      [
        "▁ልጅ",
        -893.0
      ],
      [
        "ገደ",
        -894.0
      ],
      [
        "ፈጠ",
        -895.0
      ],
      [
        "▁ረ",
        -896.0
      ],
      [
        "▁ድም",
        -897.0
      ],
      [
        "ፋት",
        -898.0
      ],
      [
        "▁ቁጥር",
        -899.0
      ],
      [
        "▁እኛ",
        -900.0
      ],
      [
        "ርትራ",
        -901.0
      ],
      [
        "ra",
        -902.0
      ],
      [
        "▁የፖለቲካ",
        -903.0
      ],
      [
        "▁የሚለው",
        -904.0
      ],
      [
        "ካታ",
        -905.0
      ],
      [
        "ሊዮን",
        -906.0
      ],
      [
        "▁ያህል",
        -907.0
      ],
      [
        "ሞች",
        -908.0
      ],
      [
        "ረን",
        -909.0
      ],
      [
        "▁Naj",
        -910.0
      ],
      [
        "▁Ya",
        -911.0
      ],
      [
        "▁መለ",
        -912.0
      ],
      [
        "▁በተለይ",
        -913.0
      ],
      [
        "▁ጠቅላይ",
        -914.0
      ],
      [
        "ig",
        -915.0
      ],
      [
        "ማርኛ",
        -916.0
      ],
      [
        "▁200",
        -917.0
      ],
      [
        "ገሪቱ",
        -918.0
      ],
      [
        "▁ለው",
        -919.0
      ],
      [
        "▁ጥር",
        -920.0
      ],
      [
        "መና",
        -921.0
      ],
      [
        "ሞክራሲ",
        -922.0
      ],
      [
        "fin",
        -923.0
      ],
      [
        "ፈር",
        -924.0
      ],
      [
        "▁በሚል",
        -925.0
      ],
      [
        "et",
        -926.0
      ],
      [
        "▁ኮሚ",
        -927.0
      ],
      [
        "▁wanda",
        -928.0
      ],
      [
        "ጡት",
        -929.0
      ],
      [
        "ታል።",
        -930.0
      ],
      [
        "▁የዘ",
        -931.0
      ],
      [
        "▁ትምህርት",
        -932.0
      ],
      [
        "▁ሚኒስትር",
        -933.0
      ],
      [
        "▁Najeriya",
        -934.0
      ],
      [
        "▁An",
        -935.0
      ],
      [
        "▁ሁለ",
        -936.0
      ],
      [
        "▁wasu",
        -937.0
      ],
      [
        "▁shugaban",
        -938.0
      ],
      [
        "oka",
        -939.0
      ],
      [
        "ም፣",
        -940.0
      ],
      [
        "ናገ",
        -941.0
      ],
      [
        "ቤተ",
        -942.0
      ],
      [
        "▁kai",
        -943.0
      ],
      [
        "▁zai",
        -944.0
      ],
      [
        "ሳቸው",
        -945.0
      ],
      [
        "▁ፖሊ",
        -946.0
      ],
      [
        "ቫይ",
        -947.0
      ],
      [
        "▁በማለት",
        -948.0
      ],
      [
        "ከር",
        -949.0
      ],
      [
        "ጠቃ",
        -950.0
      ],
      [
        "▁ዘመን",
        -951.0
      ],
      [
        "fi",
        -952.0
      ],
      [
        "▁አድ",
        -953.0
      ],
      [
        "ጨረሻ",
        -954.0
      ],
      [
        "▁መጽ",
        -955.0
      ],
      [
        "ዝቡ",
        -956.0
      ],
      [
        "▁ውጤ",
        -957.0
      ],
      [
        "hen",
        -958.0
      ],
      [
        "▁ጋዜ",
        -959.0
      ],
      [
        "▁ከሆነ",
        -960.0
      ],
      [
        "▁ንግ",
        -961.0
      ],
      [
        "▁/",
        -962.0
      ],
      [
        "▁ለእ",
        -963.0
      ],
      [
        "▁መግለጫ",
        -964.0
      ],
      [
        "▁እንደተ",
        -965.0
      ],
      [
        "ታይ",
        -966.0
      ],
      [
        "ከራ",
        -967.0
      ],
      [
        "▁እንዲያ",
        -968.0
      ],
      [
        "▁የለም",
        -969.0
      ],
      [
        "▁ገን",
        -970.0
      ],
      [
        "ይማ",
        -971.0
      ],
      [
        "ችው",
        -972.0
      ],
      [
        "▁የግ",
        -973.0
      ],
      [
        "uh",
        -974.0
      ],
      [
        "▁የተሰ",
        -975.0
      ],
      [
        "ሳሌ",
        -976.0
      ],
      [
        "nin",
        -977.0
      ],
      [
        "▁U",
        -978.0
      ],
      [
        "▁ከማ",
        -979.0
      ],
      [
        "ቻችን",
        -980.0
      ],
      [
        "▁iya",
        -981.0
      ],
      [
        "▁አያ",
        -982.0
      ],
      [
        "ልም",
        -983.0
      ],
      [
        "ዳንት",
        -984.0
      ],
      [
        "▁Ma",
        -985.0
      ],
      [
        "▁የምት",
        -986.0
      ],
      [
        "▁በኩል",
        -987.0
      ],
      [
        "ፉት",
        -988.0
      ],
      [
        "▁ሜ",
        -989.0
      ],
      [
        "▁ታሪክ",
        -990.0
      ],
      [
        "ድሞ",
        -991.0
      ],
      [
        "ተኞች",
        -992.0
      ],
      [
        "▁ማድረግ",
        -993.0
      ],
      [
        "▁ቪ",
        -994.0
      ],
      [
        "ቸዉ",
        -995.0
      ],
      [
        "▁ብለው",
        -996.0
      ],
      [
        "▁ጌ",
        -997.0
      ],
      [
        "▁ኩ",
        -998.0
      ],
      [
        "▁እንዳይ",
        -999.0
      ],
      [
        "▁jam",
        -1000.0
      ],
      [
        "▁kam",
        -1001.0
      ],
      [
        "ይማኖ",
        -1002.0
      ],
      [
        "▁ተፈ",
        -1003.0
      ],
      [
        "▁dan",
        -1004.0
      ],
      [
        "▁መብት",
        -1005.0
      ],
      [
        "ተን",
        -1006.0
      ],
      [
        "wamnat",
        -1007.0
      ],
      [
        "▁ሂ",
        -1008.0
      ],
      [
        "▁በጥ",
        -1009.0
      ],
      [
        "▁አንዳ",
        -1010.0
      ],
      [
        "▁የተባ",
        -1011.0
      ],
      [
        "ውም",
        -1012.0
      ],
      [
        "ni",
        -1013.0
      ],
      [
        "▁ኃይ",
        -1014.0
      ],
      [
        "ቻቸው",
        -1015.0
      ],
      [
        "thi",
        -1016.0
      ],
      [
        "ሱስ",
        -1017.0
      ],
      [
        "ያዘ",
        -1018.0
      ],
      [
        "▁በአንድ",
        -1019.0
      ],
      [
        "▁እግዚአብሔር",
        -1020.0
      ],
      [
        "ቡብ",
        -1021.0
      ],
      [
        "▁zuwa",
        -1022.0
      ],
      [
        "▁sai",
        -1023.0
      ],
      [
        "ዛት",
        -1024.0
      ],
      [
        "▁19",
        -1025.0
      ],
      [
        "anar",
        -1026.0
      ],
      [
        "lo",
        -1027.0
      ],
      [
        "ስና",
        -1028.0
      ],
      [
        "▁ሊያ",
        -1029.0
      ],
      [
        "▁በመሆኑ",
        -1030.0
      ],
      [
        "ልፍ",
        -1031.0
      ],
      [
        "ላክ",
        -1032.0
      ],
      [
        "ሬት",
        -1033.0
      ],
      [
        "▁ይሄ",
        -1034.0
      ],
      [
        "▁ተስፋ",
        -1035.0
      ],
      [
        "ልን",
        -1036.0
      ],
      [
        "▁መቀ",
        -1037.0
      ],
      [
        "ጋት",
        -1038.0
      ],
      [
        "▁የደ",
        -1039.0
      ],
      [
        "▁ይዘ",
        -1040.0
      ],
      [
        "ገኘው",
        -1041.0
      ],
      [
        "▁mutan",
        -1042.0
      ],
      [
        "▁2020",
        -1043.0
      ],
      [
        "lin",
        -1044.0
      ],
      [
        "▁mat",
        -1045.0
      ],
      [
        "▁የሆኑ",
        -1046.0
      ],
      [
        "በትን",
        -1047.0
      ],
      [
        "▁ጀምሮ",
        -1048.0
      ],
      [
        "ግረ",
        -1049.0
      ],
      [
        "▁.",
        -1050.0
      ],
      [
        "▁ስለዚህ",
        -1051.0
      ],
      [
        "▁መሠ",
        -1052.0
      ],
      [
        "▁ሙሉ",
        -1053.0
      ],
      [
        "▁ናቸው።",
        -1054.0
      ],
      [
        "▁አስፈ",
        -1055.0
      ],
      [
        "▁አት",
        -1056.0
      ],
      [
        "im",
        -1057.0
      ],
      [
        "ለኛ",
        -1058.0
      ],
      [
        "ገቡ",
        -1059.0
      ],
      [
        "▁ግንኙ",
        -1060.0
      ],
      [
        "የው",
        -1061.0
      ],
      [
        "ይና",
        -1062.0
      ],
      [
        "ርሱ",
        -1063.0
      ],
      [
        "ቅስ",
        -1064.0
      ],
      [
        "▁ለተ",
        -1065.0
      ],
      [
        "os",
        -1066.0
      ],
      [
        "▁ሪ",
        -1067.0
      ],
      [
        "ነበረ",
        -1068.0
      ],
      [
        "▁በሙ",
        -1069.0
      ],
      [
        "201",
        -1070.0
      ],
      [
        "▁ለሚ",
        -1071.0
      ],
      [
        "▁ጸ",
        -1072.0
      ],
      [
        "ጠራ",
        -1073.0
      ],
      [
        "▁ዘር",
        -1074.0
      ],
      [
        "ጠት",
        -1075.0
      ],
      [
        "▁ድን",
        -1076.0
      ],
      [
        "▁በዓ",
        -1077.0
      ],
      [
        "▁Sh",
        -1078.0
      ],
      [
        "ika",
        -1079.0
      ],
      [
        "ul",
        -1080.0
      ],
      [
        "▁domin",
        -1081.0
      ],
      [
        "▁ይላ",
        -1082.0
      ],
      [
        "ሉን",
        -1083.0
      ],
      [
        "▁የሚሰ",
        -1084.0
      ],
      [
        "▁ዙ",
        -1085.0
      ],
      [
        "▁ለም",
        -1086.0
      ],
      [
        "▁ኢን",
        -1087.0
      ],
      [
        "ኒቨ",
        -1088.0
      ],
      [
        "ነስ",
        -1089.0
      ],
      [
        "uniya",
        -1090.0
      ],
      [
        "ላው",
        -1091.0
      ],
      [
        "▁sab",
        -1092.0
      ],
      [
        "መት",
        -1093.0
      ],
      [
        "▁ማዕ",
        -1094.0
      ],
      [
        "ጤና",
        -1095.0
      ],
      [
        "ማይ",
        -1096.0
      ],
      [
        "ሳኔ",
        -1097.0
      ],
      [
        "▁Ba",
        -1098.0
      ],
      [
        "▁ዕድ",
        -1099.0
      ],
      [
        "ኑን",
        -1100.0
      ],
      [
        "▁ዐ",
        -1101.0
      ],
      [
        "ግኘት",
        -1102.0
      ],
      [
        "abar",
        -1103.0
      ],
      [
        "▁Ethi",
        -1104.0
      ],
      [
        "fa",
        -1105.0
      ],
      [
        "▁ማህ",
        -1106.0
      ],
      [
        "▁8",
        -1107.0
      ],
      [
        "asu",
        -1108.0
      ],
      [
        "jen",
        -1109.0
      ],
      [
        "መሰ",
        -1110.0
      ],
      [
        "▁ያለውን",
        -1111.0
      ],
      [
        "▁መብ",
        -1112.0
      ],
      [
        "ቦት",
        -1113.0
      ],
      [
        "ኖሩ",
        -1114.0
      ],
      [
        "▁ቡድን",
        -1115.0
      ],
      [
        "iyo",
        -1116.0
      ],
      [
        "ፈልጋ",
        -1117.0
      ],
      [
        "▁ሠ",
        -1118.0
      ],
      [
        "ካም",
        -1119.0
      ],
      [
        "▁ችግ",
        -1120.0
      ],
      [
        "በብ",
        -1121.0
      ],
      [
        "ምጃ",
        -1122.0
      ],
      [
        "▁ይህንን",
        -1123.0
      ],
      [
        "▁ወጣ",
        -1124.0
      ],
      [
        "▁ውድ",
        -1125.0
      ],
      [
        "▁ክርስቲያን",
        -1126.0
      ],
      [
        "▁አገልግሎት",
        -1127.0
      ],
      [
        "ፈጸ",
        -1128.0
      ],
      [
        "ስታ",
        -1129.0
      ],
      [
        "▁፤",
        -1130.0
      ],
      [
        "▁ይገባ",
        -1131.0
      ],
      [
        "▁far",
        -1132.0
      ],
      [
        "▁ምክር",
        -1133.0
      ],
      [
        "anin",
        -1134.0
      ],
      [
        "ከፍ",
        -1135.0
      ],
      [
        "ገረ",
        -1136.0
      ],
      [
        "▁የመንግ",
        -1137.0
      ],
      [
        "ባይ",
        -1138.0
      ],
      [
        "ሳስ",
        -1139.0
      ],
      [
        "▁loka",
        -1140.0
      ],
      [
        "ታደ",
        -1141.0
      ],
      [
        "▁አመራ",
        -1142.0
      ],
      [
        "BC",
        -1143.0
      ],
      [
        "▁መንግሥ",
        -1144.0
      ],
      [
        "▁እድ",
        -1145.0
      ],
      [
        "በቃ",
        -1146.0
      ],
      [
        "▁ሲል",
        -1147.0
      ],
      [
        "ደረግ",
        -1148.0
      ],
      [
        "▁አማ",
        -1149.0
      ],
      [
        "ርቶ",
        -1150.0
      ],
      [
        "ከሰ",
        -1151.0
      ],
      [
        "▁አሰ",
        -1152.0
      ],
      [
        "ጥታ",
        -1153.0
      ],
      [
        "ወቅ",
        -1154.0
      ],
      [
        "ደራ",
        -1155.0
      ],
      [
        "▁ake",
        -1156.0
      ],
      [
        "▁መሆን",
        -1157.0
      ],
      [
        "ራን",
        -1158.0
      ],
      [
        "በሩት",
        -1159.0
      ],
      [
        "▁duk",
        -1160.0
      ],
      [
        "▁ሲሉ",
        -1161.0
      ],
      [
        "▁ኃላፊ",
        -1162.0
      ],
      [
        "ws",
        -1163.0
      ],
      [
        "▁ጨዋ",
        -1164.0
      ],
      [
        "▁አዋ",
        -1165.0
      ],
      [
        "▁የኮ",
        -1166.0
      ],
      [
        "▁የብ",
        -1167.0
      ],
      [
        "▁ፊ",
        -1168.0
      ],
      [
        "ሰቡ",
        -1169.0
      ],
      [
        "▁ይሁን",
        -1170.0
      ],
      [
        "ፖርት",
        -1171.0
      ],
      [
        "ጠቅ",
        -1172.0
      ],
      [
        "▁yana",
        -1173.0
      ],
      [
        "▁አማርኛ",
        -1174.0
      ],
      [
        "▁ja",
        -1175.0
      ],
      [
        "din",
        -1176.0
      ],
      [
        "▁በው",
        -1177.0
      ],
      [
        "▁የምን",
        -1178.0
      ],
      [
        "ኮኖ",
        -1179.0
      ],
      [
        "uwar",
        -1180.0
      ],
      [
        "ሄድ",
        -1181.0
      ],
      [
        "▁ጦር",
        -1182.0
      ],
      [
        "የሱስ",
        -1183.0
      ],
      [
        "▁ሀገር",
        -1184.0
      ],
      [
        "▁ፍርድ",
        -1185.0
      ],
      [
        "▁kasa",
        -1186.0
      ],
      [
        "▁ጉባ",
        -1187.0
      ],
      [
        "▁አጋ",
        -1188.0
      ],
      [
        "ረም",
        -1189.0
      ],
      [
        "▁ፀ",
        -1190.0
      ],
      [
        "▁10",
        -1191.0
      ],
      [
        "ጀት",
        -1192.0
      ],
      [
        "▁በሁ",
        -1193.0
      ],
      [
        "ገነ",
        -1194.0
      ],
      [
        "▁la",
        -1195.0
      ],
      [
        "ጎች",
        -1196.0
      ],
      [
        "ለኝ",
        -1197.0
      ],
      [
        "▁በርካታ",
        -1198.0
      ],
      [
        "ሮና",
        -1199.0
      ],
      [
        "ብን",
        -1200.0
      ],
      [
        "ዲህ",
        -1201.0
      ],
      [
        "ላችሁ",
        -1202.0
      ],
      [
        "ሰር",
        -1203.0
      ],
      [
        "ደርግ",
        -1204.0
      ],
      [
        "▁እጅግ",
        -1205.0
      ],
      [
        "ችንን",
        -1206.0
      ],
      [
        "wo",
        -1207.0
      ],
      [
        "ሁኑ",
        -1208.0
      ],
      [
        "▁አቅ",
        -1209.0
      ],
      [
        "ህአዴግ",
        -1210.0
      ],
      [
        "ter",
        -1211.0
      ],
      [
        "▁በሕ",
        -1212.0
      ],
      [
        "▁በህ",
        -1213.0
      ],
      [
        "▁ነዉ",
        -1214.0
      ],
      [
        "▁ፕሬዚ",
        -1215.0
      ],
      [
        "ጠይ",
        -1216.0
      ],
      [
        "ደረገው",
        -1217.0
      ],
      [
        "ስን",
        -1218.0
      ],
      [
        "▁ነፃ",
        -1219.0
      ],
      [
        "▁jihar",
        -1220.0
      ],
      [
        "▁ለምን",
        -1221.0
      ],
      [
        "▁በታ",
        -1222.0
      ],
      [
        "ቅድ",
        -1223.0
      ],
      [
        "▁አባላት",
        -1224.0
      ],
      [
        "▁የሀ",
        -1225.0
      ],
      [
        "▁ቋ",
        -1226.0
      ],
      [
        "ሳተ",
        -1227.0
      ],
      [
        "ናው",
        -1228.0
      ],
      [
        "▁አለመ",
        -1229.0
      ],
      [
        "ungiyar",
        -1230.0
      ],
      [
        "ji",
        -1231.0
      ],
      [
        "ልና",
        -1232.0
      ],
      [
        "▁suna",
        -1233.0
      ],
      [
        "▁አቀፍ",
        -1234.0
      ],
      [
        "ነትን",
        -1235.0
      ],
      [
        "▁የተለያዩ",
        -1236.0
      ],
      [
        "bo",
        -1237.0
      ],
      [
        "▁gu",
        -1238.0
      ],
      [
        "ukum",
        -1239.0
      ],
      [
        "ቅና",
        -1240.0
      ],
      [
        "ክተር",
        -1241.0
      ],
      [
        "21",
        -1242.0
      ],
      [
        "ንቋ",
        -1243.0
      ],
      [
        "▁ኢትዮጵያዊ",
        -1244.0
      ],
      [
        "ይን",
        -1245.0
      ],
      [
        "200",
        -1246.0
      ],
      [
        "▁zab",
        -1247.0
      ],
      [
        "▁ገብ",
        -1248.0
      ],
      [
        "▁ለማስ",
        -1249.0
      ],
      [
        "▁የኦሮ",
        -1250.0
      ],
      [
        "ለማ",
        -1251.0
      ],
      [
        "▁በብ",
        -1252.0
      ],
      [
        "to",
        -1253.0
      ],
      [
        "ሐፍ",
        -1254.0
      ],
      [
        "ጋራ",
        -1255.0
      ],
      [
        "▁አማራ",
        -1256.0
      ],
      [
        "▁nan",
        -1257.0
      ],
      [
        "▁and",
        -1258.0
      ],
      [
        "ቫይረስ",
        -1259.0
      ],
      [
        "ge",
        -1260.0
      ],
      [
        "▁መሪ",
        -1261.0
      ],
      [
        "▁ግንኙነት",
        -1262.0
      ],
      [
        "ላዊ",
        -1263.0
      ],
      [
        "▁don",
        -1264.0
      ],
      [
        "▁fa",
        -1265.0
      ],
      [
        "ቀጥ",
        -1266.0
      ],
      [
        "ጠቀም",
        -1267.0
      ],
      [
        "ዳር",
        -1268.0
      ],
      [
        "▁ትን",
        -1269.0
      ],
      [
        "ro",
        -1270.0
      ],
      [
        "▁ገንዘብ",
        -1271.0
      ],
      [
        "kwa",
        -1272.0
      ],
      [
        "▁9",
        -1273.0
      ],
      [
        "▁wata",
        -1274.0
      ],
      [
        "▁የሌ",
        -1275.0
      ],
      [
        "▁ተሰ",
        -1276.0
      ],
      [
        "▁gaba",
        -1277.0
      ],
      [
        "▁gwamnat",
        -1278.0
      ],
      [
        "▁ፖለቲካ",
        -1279.0
      ],
      [
        "▁yadda",
        -1280.0
      ],
      [
        "▁ጥቅም",
        -1281.0
      ],
      [
        "jin",
        -1282.0
      ],
      [
        "ያዝ",
        -1283.0
      ],
      [
        "15",
        -1284.0
      ],
      [
        "ቃሴ",
        -1285.0
      ],
      [
        "ira",
        -1286.0
      ],
      [
        "▁የራ",
        -1287.0
      ],
      [
        "ላጊ",
        -1288.0
      ],
      [
        "ፌዴ",
        -1289.0
      ],
      [
        "ረጋገ",
        -1290.0
      ],
      [
        "▁bab",
        -1291.0
      ],
      [
        "ጥሮ",
        -1292.0
      ],
      [
        "▁ግድ",
        -1293.0
      ],
      [
        "▁የጥ",
        -1294.0
      ],
      [
        "▁ግለ",
        -1295.0
      ],
      [
        "ቻል",
        -1296.0
      ],
      [
        "▁Al",
        -1297.0
      ],
      [
        "▁Af",
        -1298.0
      ],
      [
        "▁ካል",
        -1299.0
      ],
      [
        "ቅስቃሴ",
        -1300.0
      ],
      [
        "ጭት",
        -1301.0
      ],
      [
        "▁አዳ",
        -1302.0
      ],
      [
        "▁ሚሊዮን",
        -1303.0
      ],
      [
        "▁ይመስ",
        -1304.0
      ],
      [
        "▁እንኳን",
        -1305.0
      ],
      [
        "▁ተብሎ",
        -1306.0
      ],
      [
        "ግጥ",
        -1307.0
      ],
      [
        "ም፤",
        -1308.0
      ],
      [
        "▁V",
        -1309.0
      ],
      [
        "▁ሁሉም",
        -1310.0
      ],
      [
        "▁matsa",
        -1311.0
      ],
      [
        "▁ውሳኔ",
        -1312.0
      ],
      [
        "ችሉ",
        -1313.0
      ],
      [
        "ቷል።",
        -1314.0
      ],
      [
        "▁ይገኛ",
        -1315.0
      ],
      [
        "▁ያላ",
        -1316.0
      ],
      [
        "▁እንዳለ",
        -1317.0
      ],
      [
        "▁sha",
        -1318.0
      ],
      [
        "▁Amur",
        -1319.0
      ],
      [
        "▁wadan",
        -1320.0
      ],
      [
        "▁Ethiop",
        -1321.0
      ],
      [
        "▁ሱ",
        -1322.0
      ],
      [
        "▁ተማሪ",
        -1323.0
      ],
      [
        "▁ዓይነት",
        -1324.0
      ],
      [
        "ላማዊ",
        -1325.0
      ],
      [
        "▁ግንባ",
        -1326.0
      ],
      [
        "ትር",
        -1327.0
      ],
      [
        "▁kwa",
        -1328.0
      ],
      [
        "▁ጉዳዮች",
        -1329.0
      ],
      [
        "ዋን",
        -1330.0
      ],
      [
        "▁ከዚያ",
        -1331.0
      ],
      [
        "▁ግብ",
        -1332.0
      ],
      [
        "▁መድረ",
        -1333.0
      ],
      [
        "▁gi",
        -1334.0
      ],
      [
        "ርሲ",
        -1335.0
      ],
      [
        "ቂያ",
        -1336.0
      ],
      [
        "ታል፡፡",
        -1337.0
      ],
      [
        "em",
        -1338.0
      ],
      [
        "zu",
        -1339.0
      ],
      [
        "ang",
        -1340.0
      ],
      [
        "▁እንድ",
        -1341.0
      ],
      [
        "ገብ",
        -1342.0
      ],
      [
        "▁ጨዋታ",
        -1343.0
      ],
      [
        "▁inda",
        -1344.0
      ],
      [
        "▁ቪዲዮ",
        -1345.0
      ],
      [
        "▁የል",
        -1346.0
      ],
      [
        "ቆጣ",
        -1347.0
      ],
      [
        "ተና",
        -1348.0
      ],
      [
        "ንደ",
        -1349.0
      ],
      [
        "ኛውም",
        -1350.0
      ],
      [
        "▁በግ",
        -1351.0
      ],
      [
        "ጋፍ",
        -1352.0
      ],
      [
        "▁አፍ",
        -1353.0
      ],
      [
        "▁መሆና",
        -1354.0
      ],
      [
        "▁ዴ",
        -1355.0
      ],
      [
        "▁በፍ",
        -1356.0
      ],
      [
        "▁ƙ",
        -1357.0
      ],
      [
        "▁abin",
        -1358.0
      ],
      [
        "▁መጥ",
        -1359.0
      ],
      [
        "▁አለበት",
        -1360.0
      ],
      [
        "መሳ",
        -1361.0
      ],
      [
        "▁ዝግ",
        -1362.0
      ],
      [
        "ዳጅ",
        -1363.0
      ],
      [
        "▁Amurka",
        -1364.0
      ],
      [
        "▁ለዚህ",
        -1365.0
      ],
      [
        "▁ሺህ",
        -1366.0
      ],
      [
        "▁አስተዳደር",
        -1367.0
      ],
      [
        "ደርጉ",
        -1368.0
      ],
      [
        "kon",
        -1369.0
      ],
      [
        "ሁንም",
        -1370.0
      ],
      [
        "▁ትር",
        -1371.0
      ],
      [
        "▁አሉ",
        -1372.0
      ],
      [
        "ደረሰ",
        -1373.0
      ],
      [
        "▁እንቅስቃሴ",
        -1374.0
      ],
      [
        "yyan",
        -1375.0
      ],
      [
        "ቀመ",
        -1376.0
      ],
      [
        "asar",
        -1377.0
      ],
      [
        "▁mutane",
        -1378.0
      ],
      [
        "iyu",
        -1379.0
      ],
      [
        "▁የመጀመሪያ",
        -1380.0
      ],
      [
        "▁ኃይል",
        -1381.0
      ],
      [
        "ናይት",
        -1382.0
      ],
      [
        "▁መሰረት",
        -1383.0
      ],
      [
        "▁የለ",
        -1384.0
      ],
      [
        "ተዋል።",
        -1385.0
      ],
      [
        "▁ባህ",
        -1386.0
      ],
      [
        "ስር",
        -1387.0
      ],
      [
        "ሻሻ",
        -1388.0
      ],
      [
        "▁በበ",
        -1389.0
      ],
      [
        "▁የባ",
        -1390.0
      ],
      [
        "▁በቅር",
        -1391.0
      ],
      [
        "ርስቶ",
        -1392.0
      ],
      [
        "yo",
        -1393.0
      ],
      [
        "ምንት",
        -1394.0
      ],
      [
        "▁ሸ",
        -1395.0
      ],
      [
        "▁የነበረው",
        -1396.0
      ],
      [
        "▁ስን",
        -1397.0
      ],
      [
        "ያም",
        -1398.0
      ],
      [
        "▁ስት",
        -1399.0
      ],
      [
        "▁Ha",
        -1400.0
      ],
      [
        "▁ጥሩ",
        -1401.0
      ],
      [
        "▁ነው፤",
        -1402.0
      ],
      [
        "▁man",
        -1403.0
      ],
      [
        "▁መንፈ",
        -1404.0
      ],
      [
        "ለች።",
        -1405.0
      ],
      [
        "ገራችን",
        -1406.0
      ],
      [
        "▁የውጭ",
        -1407.0
      ],
      [
        "▁ለውጥ",
        -1408.0
      ],
      [
        "▁In",
        -1409.0
      ],
      [
        "▁አደጋ",
        -1410.0
      ],
      [
        "ተኛው",
        -1411.0
      ],
      [
        "ነሱ",
        -1412.0
      ],
      [
        "ካባቢ",
        -1413.0
      ],
      [
        "....",
        -1414.0
      ],
      [
        "▁ዘመ",
        -1415.0
      ],
      [
        "ን፣",
        -1416.0
      ],
      [
        "ገት",
        -1417.0
      ],
      [
        "▁ዩኒቨ",
        -1418.0
      ],
      [
        "▁እንግ",
        -1419.0
      ],
      [
        "ሰቦች",
        -1420.0
      ],
      [
        "▁ሰብ",
        -1421.0
      ],
      [
        "▁አሜሪካ",
        -1422.0
      ],
      [
        "▁በተጨማሪ",
        -1423.0
      ],
      [
        "▁ነዋ",
        -1424.0
      ],
      [
        "▁ተናግረ",
        -1425.0
      ],
      [
        "▁ልጆች",
        -1426.0
      ],
      [
        "ቂት",
        -1427.0
      ],
      [
        "▁ያሳ",
        -1428.0
      ],
      [
        "▁በራ",
        -1429.0
      ],
      [
        "ርክ",
        -1430.0
      ],
      [
        "ነግ",
        -1431.0
      ],
      [
        "▁ሰዓት",
        -1432.0
      ],
      [
        "ዋሚ",
        -1433.0
      ],
      [
        "▁ናቸው፡፡",
        -1434.0
      ],
      [
        "ኮኖሚ",
        -1435.0
      ],
      [
        "mar",
        -1436.0
      ],
      [
        "▁ስቴ",
        -1437.0
      ],
      [
        "ውሞ",
        -1438.0
      ],
      [
        "▁አጥ",
        -1439.0
      ],
      [
        "▁samu",
        -1440.0
      ],
      [
        "▁ባይ",
        -1441.0
      ],
      [
        "▁do",
        -1442.0
      ],
      [
        "ሜን",
        -1443.0
      ],
      [
        "ማን",
        -1444.0
      ],
      [
        "▁ማኅ",
        -1445.0
      ],
      [
        "!!",
        -1446.0
      ],
      [
        "▁የሚገኙ",
        -1447.0
      ],
      [
        "▁mut",
        -1448.0
      ],
      [
        "di",
        -1449.0
      ],
      [
        "መለስ",
        -1450.0
      ],
      [
        "▁tare",
        -1451.0
      ],
      [
        "ለጠ",
        -1452.0
      ],
      [
        "ል፤",
        -1453.0
      ],
      [
        "ድም",
        -1454.0
      ],
      [
        "▁በኢ",
        -1455.0
      ],
      [
        "▁ቆይ",
        -1456.0
      ],
      [
        "ናይትድ",
        -1457.0
      ],
      [
        "መለከ",
        -1458.0
      ],
      [
        "yyana",
        -1459.0
      ],
      [
        "du",
        -1460.0
      ],
      [
        "ሙያ",
        -1461.0
      ],
      [
        "ሮፓ",
        -1462.0
      ],
      [
        "▁አይነት",
        -1463.0
      ],
      [
        "ሮናቫይረስ",
        -1464.0
      ],
      [
        "ሮችን",
        -1465.0
      ],
      [
        "▁ብሔ",
        -1466.0
      ],
      [
        "▁haka",
        -1467.0
      ],
      [
        "ብራ",
        -1468.0
      ],
      [
        "ዚሁ",
        -1469.0
      ],
      [
        "alis",
        -1470.0
      ],
      [
        "yen",
        -1471.0
      ],
      [
        "ሎጂ",
        -1472.0
      ],
      [
        "▁ለማድረግ",
        -1473.0
      ],
      [
        "ብኝ",
        -1474.0
      ],
      [
        "▁እርምጃ",
        -1475.0
      ],
      [
        "ol",
        -1476.0
      ],
      [
        "ርሲቲ",
        -1477.0
      ],
      [
        "▁ወንጀ",
        -1478.0
      ],
      [
        "▁አሁንም",
        -1479.0
      ],
      [
        "▁ይህም",
        -1480.0
      ],
      [
        "ለሁ።",
        -1481.0
      ],
      [
        "▁ያሉት",
        -1482.0
      ],
      [
        "▁የዓለም",
        -1483.0
      ],
      [
        "ፈት",
        -1484.0
      ],
      [
        "▁በሙሉ",
        -1485.0
      ],
      [
        "▁በአዲስ",
        -1486.0
      ],
      [
        "▁ሕግ",
        -1487.0
      ],
      [
        "adi",
        -1488.0
      ],
      [
        "ወሓ",
        -1489.0
      ],
      [
        "▁ዋጋ",
        -1490.0
      ],
      [
        "ጠሩ",
        -1491.0
      ],
      [
        "ስራ",
        -1492.0
      ],
      [
        "ባብ",
        -1493.0
      ],
      [
        "ስብ",
        -1494.0
      ],
      [
        "ጠብ",
        -1495.0
      ],
      [
        "▁ነጻ",
        -1496.0
      ],
      [
        "▁መሠረት",
        -1497.0
      ],
      [
        "▁ተከት",
        -1498.0
      ],
      [
        "ቹን",
        -1499.0
      ],
      [
        "▁shekar",
        -1500.0
      ],
      [
        "▁እዚህ",
        -1501.0
      ],
      [
        "ገሩ",
        -1502.0
      ],
      [
        "usa",
        -1503.0
      ],
      [
        "ይማኖት",
        -1504.0
      ],
      [
        "▁መልኩ",
        -1505.0
      ],
      [
        "▁ባን",
        -1506.0
      ],
      [
        "hirye",
        -1507.0
      ],
      [
        "ለመ",
        -1508.0
      ],
      [
        "▁የሞ",
        -1509.0
      ],
      [
        "▁ሰላም",
        -1510.0
      ],
      [
        "▁አለው",
        -1511.0
      ],
      [
        "▁ቤቱ",
        -1512.0
      ],
      [
        "ነበር",
        -1513.0
      ],
      [
        "▁News",
        -1514.0
      ],
      [
        "atar",
        -1515.0
      ],
      [
        "▁ሄ",
        -1516.0
      ],
      [
        "▁ስል",
        -1517.0
      ],
      [
        "ፈራ",
        -1518.0
      ],
      [
        "▁በሀ",
        -1519.0
      ],
      [
        "▁wajen",
        -1520.0
      ],
      [
        "▁አቋ",
        -1521.0
      ],
      [
        "asa",
        -1522.0
      ],
      [
        "ደን",
        -1523.0
      ],
      [
        "▁ቀደም",
        -1524.0
      ],
      [
        "ሦስት",
        -1525.0
      ],
      [
        "▁ባል",
        -1526.0
      ],
      [
        "▁ድጋፍ",
        -1527.0
      ],
      [
        "ዕራ",
        -1528.0
      ],
      [
        "ሳዊ",
        -1529.0
      ],
      [
        "▁ትልቅ",
        -1530.0
      ],
      [
        "▁Sa",
        -1531.0
      ],
      [
        "ts",
        -1532.0
      ],
      [
        "ባዊ",
        -1533.0
      ],
      [
        "▁ወንድ",
        -1534.0
      ],
      [
        "▁15",
        -1535.0
      ],
      [
        "ima",
        -1536.0
      ],
      [
        "▁የገ",
        -1537.0
      ],
      [
        "ሶች",
        -1538.0
      ],
      [
        "▁ዉ",
        -1539.0
      ],
      [
        "▁አፍሪካ",
        -1540.0
      ],
      [
        "▁በተለያዩ",
        -1541.0
      ],
      [
        "ስቴ",
        -1542.0
      ],
      [
        "ላን",
        -1543.0
      ],
      [
        "ec",
        -1544.0
      ],
      [
        "ቀል",
        -1545.0
      ],
      [
        "ትስ",
        -1546.0
      ],
      [
        "ቃሚ",
        -1547.0
      ],
      [
        "▁አልተ",
        -1548.0
      ],
      [
        "▁ያልተ",
        -1549.0
      ],
      [
        "▁ጥቃት",
        -1550.0
      ],
      [
        "▁መታ",
        -1551.0
      ],
      [
        "▁የኤ",
        -1552.0
      ],
      [
        "▁የቆ",
        -1553.0
      ],
      [
        "ላሽ",
        -1554.0
      ],
      [
        "ኩት",
        -1555.0
      ],
      [
        "▁ይችላል",
        -1556.0
      ],
      [
        "▁[",
        -1557.0
      ],
      [
        "ashin",
        -1558.0
      ],
      [
        "መለከተ",
        -1559.0
      ],
      [
        "▁አካል",
        -1560.0
      ],
      [
        "▁ተገ",
        -1561.0
      ],
      [
        "▁bayyana",
        -1562.0
      ],
      [
        "bi",
        -1563.0
      ],
      [
        "▁በዘ",
        -1564.0
      ],
      [
        "▁12",
        -1565.0
      ],
      [
        "▁በማድረግ",
        -1566.0
      ],
      [
        "▁የአሜሪካ",
        -1567.0
      ],
      [
        "▁መነ",
        -1568.0
      ],
      [
        "▁ዞ",
        -1569.0
      ],
      [
        "▁lokacin",
        -1570.0
      ],
      [
        "▁biyu",
        -1571.0
      ],
      [
        "ደጋ",
        -1572.0
      ],
      [
        "▁•",
        -1573.0
      ],
      [
        "▁ቋንቋ",
        -1574.0
      ],
      [
        "ወስ",
        -1575.0
      ],
      [
        "▁አንዳንድ",
        -1576.0
      ],
      [
        "▁ያላቸው",
        -1577.0
      ],
      [
        "ጠኛ",
        -1578.0
      ],
      [
        "▁ዘገባ",
        -1579.0
      ],
      [
        "ፍራ",
        -1580.0
      ],
      [
        "ይይት",
        -1581.0
      ],
      [
        "▁ትውል",
        -1582.0
      ],
      [
        "ian",
        -1583.0
      ],
      [
        "በራዊ",
        -1584.0
      ],
      [
        "ነዚህ",
        -1585.0
      ],
      [
        "za",
        -1586.0
      ],
      [
        "ura",
        -1587.0
      ],
      [
        "አት",
        -1588.0
      ],
      [
        "▁አድርጎ",
        -1589.0
      ],
      [
        "▁ኢየሱስ",
        -1590.0
      ],
      [
        "ርስቶስ",
        -1591.0
      ],
      [
        "▁BBC",
        -1592.0
      ],
      [
        "ላጎ",
        -1593.0
      ],
      [
        "▁ልብ",
        -1594.0
      ],
      [
        "ነትና",
        -1595.0
      ],
      [
        "▁ቅድ",
        -1596.0
      ],
      [
        "▁መመ",
        -1597.0
      ],
      [
        "▁ታላ",
        -1598.0
      ],
      [
        "irin",
        -1599.0
      ],
      [
        "▁ዮ",
        -1600.0
      ],
      [
        "ተት",
        -1601.0
      ],
      [
        "kara",
        -1602.0
      ],
      [
        "ashen",
        -1603.0
      ],
      [
        "ጠየ",
        -1604.0
      ],
      [
        "ረድ",
        -1605.0
      ],
      [
        "▁ማሳ",
        -1606.0
      ],
      [
        "▁ህዝ",
        -1607.0
      ],
      [
        "▁Ta",
        -1608.0
      ],
      [
        "▁አሸ",
        -1609.0
      ],
      [
        "llah",
        -1610.0
      ],
      [
        "▁አስተያ",
        -1611.0
      ],
      [
        "ሙት",
        -1612.0
      ],
      [
        "ጠል",
        -1613.0
      ],
      [
        "▁በሽ",
        -1614.0
      ],
      [
        "▁ሆነው",
        -1615.0
      ],
      [
        "▁dake",
        -1616.0
      ],
      [
        "▁shir",
        -1617.0
      ],
      [
        "▁ይሆና",
        -1618.0
      ],
      [
        "ሃት",
        -1619.0
      ],
      [
        "▁እስካ",
        -1620.0
      ],
      [
        "▁በረ",
        -1621.0
      ],
      [
        "▁እንደሚያ",
        -1622.0
      ],
      [
        "ዛዝ",
        -1623.0
      ],
      [
        "▁ተከትሎ",
        -1624.0
      ],
      [
        "ምት",
        -1625.0
      ],
      [
        "▁ሊቀ",
        -1626.0
      ],
      [
        "▁yin",
        -1627.0
      ],
      [
        "▁bin",
        -1628.0
      ],
      [
        "▁የሃ",
        -1629.0
      ],
      [
        "shi",
        -1630.0
      ],
      [
        "▁kungiyar",
        -1631.0
      ],
      [
        "መሳሳይ",
        -1632.0
      ],
      [
        "▁ደር",
        -1633.0
      ],
      [
        "▁ስሜ",
        -1634.0
      ],
      [
        "▁ግል",
        -1635.0
      ],
      [
        "ዝር",
        -1636.0
      ],
      [
        "ባንያ",
        -1637.0
      ],
      [
        "ናገር",
        -1638.0
      ],
      [
        "▁ሀገ",
        -1639.0
      ],
      [
        "ለቱ",
        -1640.0
      ],
      [
        "▁2021",
        -1641.0
      ],
      [
        "▁ነጥ",
        -1642.0
      ],
      [
        "▁ቀናት",
        -1643.0
      ],
      [
        "▁ስለሆነ",
        -1644.0
      ],
      [
        "▁የሰው",
        -1645.0
      ],
      [
        "▁በሌላ",
        -1646.0
      ],
      [
        "▁መው",
        -1647.0
      ],
      [
        "▁ተመል",
        -1648.0
      ],
      [
        "ሊያ",
        -1649.0
      ],
      [
        "▁ቤቶች",
        -1650.0
      ],
      [
        "▁መደ",
        -1651.0
      ],
      [
        "alisar",
        -1652.0
      ],
      [
        "▁daya",
        -1653.0
      ],
      [
        "ስቱ",
        -1654.0
      ],
      [
        "ጠቃላይ",
        -1655.0
      ],
      [
        "ናቸው",
        -1656.0
      ],
      [
        "▁ጨምሮ",
        -1657.0
      ],
      [
        "▁ርዕ",
        -1658.0
      ],
      [
        "▁መድ",
        -1659.0
      ],
      [
        "ፖር",
        -1660.0
      ],
      [
        "▁ሊሆን",
        -1661.0
      ],
      [
        "▁ውጤት",
        -1662.0
      ],
      [
        "▁ዙሪያ",
        -1663.0
      ],
      [
        "▁ranar",
        -1664.0
      ],
      [
        "iyyar",
        -1665.0
      ],
      [
        "▁ገበ",
        -1666.0
      ],
      [
        "▁ይሰ",
        -1667.0
      ],
      [
        "anta",
        -1668.0
      ],
      [
        "▁ኣብ",
        -1669.0
      ],
      [
        "▁ስብሰባ",
        -1670.0
      ],
      [
        "▁ኢትዮጵያውያን",
        -1671.0
      ],
      [
        "▁ጫ",
        -1672.0
      ],
      [
        "ናገራ",
        -1673.0
      ],
      [
        "fani",
        -1674.0
      ],
      [
        "ክኖ",
        -1675.0
      ],
      [
        "▁ይታወ",
        -1676.0
      ],
      [
        "▁አህ",
        -1677.0
      ],
      [
        "▁ባለፈው",
        -1678.0
      ],
      [
        "▁ነገሮች",
        -1679.0
      ],
      [
        "ደግ",
        -1680.0
      ],
      [
        "▁ኳ",
        -1681.0
      ],
      [
        "ሏል።",
        -1682.0
      ],
      [
        "▁አፈ",
        -1683.0
      ],
      [
        "ደርስ",
        -1684.0
      ],
      [
        "ukumar",
        -1685.0
      ],
      [
        "ሊዝ",
        -1686.0
      ],
      [
        "▁hal",
        -1687.0
      ],
      [
        "ንብ",
        -1688.0
      ],
      [
        "tta",
        -1689.0
      ],
      [
        "ክርስቲ",
        -1690.0
      ],
      [
        "ጠበቅ",
        -1691.0
      ],
      [
        "ጅት",
        -1692.0
      ],
      [
        "ከታ",
        -1693.0
      ],
      [
        "ጋቢ",
        -1694.0
      ],
      [
        "ለን።",
        -1695.0
      ],
      [
        "▁ወጥ",
        -1696.0
      ],
      [
        "▁ክት",
        -1697.0
      ],
      [
        "▁ጉባኤ",
        -1698.0
      ],
      [
        "ሃን",
        -1699.0
      ],
      [
        "bar",
        -1700.0
      ],
      [
        "▁2018",
        -1701.0
      ],
      [
        "▁መም",
        -1702.0
      ],
      [
        "▁ማስተ",
        -1703.0
      ],
      [
        "ወር",
        -1704.0
      ],
      [
        "ደርጋ",
        -1705.0
      ],
      [
        "uhari",
        -1706.0
      ],
      [
        "▁ፍላጎ",
        -1707.0
      ],
      [
        "ver",
        -1708.0
      ],
      [
        "ወሓት",
        -1709.0
      ],
      [
        "ቋቋ",
        -1710.0
      ],
      [
        "▁አስታው",
        -1711.0
      ],
      [
        "ክምና",
        -1712.0
      ],
      [
        "▁ከሌ",
        -1713.0
      ],
      [
        "▁tar",
        -1714.0
      ],
      [
        "ሄር",
        -1715.0
      ],
      [
        "▁go",
        -1716.0
      ],
      [
        "ij",
        -1717.0
      ],
      [
        "▁መፍት",
        -1718.0
      ],
      [
        "▁ወገ",
        -1719.0
      ],
      [
        "ቅረብ",
        -1720.0
      ],
      [
        "▁በመቶ",
        -1721.0
      ],
      [
        "ህሳስ",
        -1722.0
      ],
      [
        "▁ትኩ",
        -1723.0
      ],
      [
        "▁:",
        -1724.0
      ],
      [
        "▁ፖሊስ",
        -1725.0
      ],
      [
        "▁11",
        -1726.0
      ],
      [
        "▁ፈቃ",
        -1727.0
      ],
      [
        "▁ይልቅ",
        -1728.0
      ],
      [
        "oda",
        -1729.0
      ],
      [
        "ቆም",
        -1730.0
      ],
      [
        "▁አይደለም።",
        -1731.0
      ],
      [
        "▁ተደር",
        -1732.0
      ],
      [
        "▁መልካም",
        -1733.0
      ],
      [
        "▁Buhari",
        -1734.0
      ],
      [
        "ቀስ",
        -1735.0
      ],
      [
        "▁መዝ",
        -1736.0
      ],
      [
        "▁ኮሚቴ",
        -1737.0
      ],
      [
        "ታወቀ",
        -1738.0
      ],
      [
        "▁የፍ",
        -1739.0
      ],
      [
        "ከብ",
        -1740.0
      ],
      [
        "gin",
        -1741.0
      ],
      [
        "ፎቶ",
        -1742.0
      ],
      [
        "ለህ",
        -1743.0
      ],
      [
        "ንቀሳ",
        -1744.0
      ],
      [
        "▁ውጭ",
        -1745.0
      ],
      [
        "▁አባል",
        -1746.0
      ],
      [
        "▁ጳ",
        -1747.0
      ],
      [
        "ረተ",
        -1748.0
      ],
      [
        "▁yanzu",
        -1749.0
      ],
      [
        "ጠፋ",
        -1750.0
      ],
      [
        "▁እውነ",
        -1751.0
      ],
      [
        "gi",
        -1752.0
      ],
      [
        "ናወ",
        -1753.0
      ],
      [
        "ራም",
        -1754.0
      ],
      [
        "ባለው",
        -1755.0
      ],
      [
        "▁የካ",
        -1756.0
      ],
      [
        "▁ክፍሎች",
        -1757.0
      ],
      [
        "▁ፕሬዚዳንት",
        -1758.0
      ],
      [
        "▁ወያኔ",
        -1759.0
      ],
      [
        "▁ድርጅቶች",
        -1760.0
      ],
      [
        "ክኖሎጂ",
        -1761.0
      ],
      [
        "▁መሳ",
        -1762.0
      ],
      [
        "▁ከባ",
        -1763.0
      ],
      [
        "▁በል",
        -1764.0
      ],
      [
        "ገንዘብ",
        -1765.0
      ],
      [
        "▁bir",
        -1766.0
      ],
      [
        "▁suke",
        -1767.0
      ],
      [
        "▁ተጨማሪ",
        -1768.0
      ],
      [
        "ከፍተኛ",
        -1769.0
      ],
      [
        "▁yake",
        -1770.0
      ],
      [
        "▁በጎ",
        -1771.0
      ],
      [
        "▁ተዋ",
        -1772.0
      ],
      [
        "▁ባለመ",
        -1773.0
      ],
      [
        "ሱም",
        -1774.0
      ],
      [
        "oh",
        -1775.0
      ],
      [
        "▁ከም",
        -1776.0
      ],
      [
        "መንግ",
        -1777.0
      ],
      [
        "ላር",
        -1778.0
      ],
      [
        "▁kara",
        -1779.0
      ],
      [
        "▁ብለዋል።",
        -1780.0
      ],
      [
        "isa",
        -1781.0
      ],
      [
        "▁Allah",
        -1782.0
      ],
      [
        "ከላከ",
        -1783.0
      ],
      [
        "▁0",
        -1784.0
      ],
      [
        "▁ሰጥ",
        -1785.0
      ],
      [
        "ጀር",
        -1786.0
      ],
      [
        "▁እምነት",
        -1787.0
      ],
      [
        "ድሮ",
        -1788.0
      ],
      [
        "▁ነበረ",
        -1789.0
      ],
      [
        "ja",
        -1790.0
      ],
      [
        "ሙን",
        -1791.0
      ],
      [
        "ፈልግ",
        -1792.0
      ],
      [
        "▁ብዬ",
        -1793.0
      ],
      [
        "▁መቶ",
        -1794.0
      ],
      [
        "▁on",
        -1795.0
      ],
      [
        "▁ኩባንያ",
        -1796.0
      ],
      [
        "▁wasan",
        -1797.0
      ],
      [
        "ምህር",
        -1798.0
      ],
      [
        "▁ከሁ",
        -1799.0
      ],
      [
        "ፈፀ",
        -1800.0
      ],
      [
        "▁ስለሚ",
        -1801.0
      ],
      [
        "▁ከሰ",
        -1802.0
      ],
      [
        "▁zam",
        -1803.0
      ],
      [
        "ሻለ",
        -1804.0
      ],
      [
        "tion",
        -1805.0
      ],
      [
        "▁ከወ",
        -1806.0
      ],
      [
        "ቾች",
        -1807.0
      ],
      [
        "ቁት",
        -1808.0
      ],
      [
        "▁ቻ",
        -1809.0
      ],
      [
        "ብረተ",
        -1810.0
      ],
      [
        "▁ይቻ",
        -1811.0
      ],
      [
        "▁አስፈላጊ",
        -1812.0
      ],
      [
        "▁tun",
        -1813.0
      ],
      [
        "▁የለው",
        -1814.0
      ],
      [
        "▁በአሁኑ",
        -1815.0
      ],
      [
        "ኞቹ",
        -1816.0
      ],
      [
        "ina",
        -1817.0
      ],
      [
        "▁watan",
        -1818.0
      ],
      [
        "▁ታህሳስ",
        -1819.0
      ],
      [
        "▁አመት",
        -1820.0
      ],
      [
        "ዓዊ",
        -1821.0
      ],
      [
        "ውና",
        -1822.0
      ],
      [
        "▁አቅር",
        -1823.0
      ],
      [
        "ቷል፡፡",
        -1824.0
      ],
      [
        "ve",
        -1825.0
      ],
      [
        "▁መጽሐፍ",
        -1826.0
      ],
      [
        "ማቸው",
        -1827.0
      ],
      [
        "ላል።",
        -1828.0
      ],
      [
        "ሰን",
        -1829.0
      ],
      [
        "▁አክ",
        -1830.0
      ],
      [
        "▁የነበሩ",
        -1831.0
      ],
      [
        "ደኛ",
        -1832.0
      ],
      [
        "▁ኖ",
        -1833.0
      ],
      [
        "ንካ",
        -1834.0
      ],
      [
        "ትል",
        -1835.0
      ],
      [
        "jo",
        -1836.0
      ],
      [
        "▁ይዞ",
        -1837.0
      ],
      [
        "▁ስቴትስ",
        -1838.0
      ],
      [
        "▁ጥረት",
        -1839.0
      ],
      [
        "▁mag",
        -1840.0
      ],
      [
        "ዳታ",
        -1841.0
      ],
      [
        "▁እንዳል",
        -1842.0
      ],
      [
        "urin",
        -1843.0
      ],
      [
        "▁የሁ",
        -1844.0
      ],
      [
        "▁በሆነ",
        -1845.0
      ],
      [
        "de",
        -1846.0
      ],
      [
        "▁ሕዝ",
        -1847.0
      ],
      [
        "▁ባለሙያ",
        -1848.0
      ],
      [
        "▁ፕሮግራ",
        -1849.0
      ],
      [
        "ፈን",
        -1850.0
      ],
      [
        "▁ገለ",
        -1851.0
      ],
      [
        "▁መተ",
        -1852.0
      ],
      [
        "ናል።",
        -1853.0
      ],
      [
        "▁ዜጎች",
        -1854.0
      ],
      [
        "ጀመረ",
        -1855.0
      ],
      [
        "▁ክል",
        -1856.0
      ],
      [
        "ስቴር",
        -1857.0
      ],
      [
        "▁በመስ",
        -1858.0
      ],
      [
        "ከለ",
        -1859.0
      ],
      [
        "▁nuna",
        -1860.0
      ],
      [
        "▁ወረ",
        -1861.0
      ],
      [
        "ku",
        -1862.0
      ],
      [
        "▁መጠን",
        -1863.0
      ],
      [
        "▁የጎ",
        -1864.0
      ],
      [
        "ukan",
        -1865.0
      ],
      [
        "▁amfani",
        -1866.0
      ],
      [
        "▁kama",
        -1867.0
      ],
      [
        "ትም",
        -1868.0
      ],
      [
        "▁ሕይወት",
        -1869.0
      ],
      [
        "▁የምር",
        -1870.0
      ],
      [
        "▁amma",
        -1871.0
      ],
      [
        "ሰሩ",
        -1872.0
      ],
      [
        "▁ከነ",
        -1873.0
      ],
      [
        "▁ይሆን",
        -1874.0
      ],
      [
        "▁ነኝ",
        -1875.0
      ],
      [
        "ርስዎ",
        -1876.0
      ],
      [
        "▁ነጋ",
        -1877.0
      ],
      [
        "▁abu",
        -1878.0
      ],
      [
        "▁የክ",
        -1879.0
      ],
      [
        "ኬንያ",
        -1880.0
      ],
      [
        "ከተማ",
        -1881.0
      ],
      [
        "je",
        -1882.0
      ],
      [
        "▁አንተ",
        -1883.0
      ],
      [
        "▁ፅ",
        -1884.0
      ],
      [
        "▁Ra",
        -1885.0
      ],
      [
        "▁ወታደ",
        -1886.0
      ],
      [
        "ከፋ",
        -1887.0
      ],
      [
        "ለየ",
        -1888.0
      ],
      [
        "mi",
        -1889.0
      ],
      [
        "▁ምላሽ",
        -1890.0
      ],
      [
        "ጠናቀ",
        -1891.0
      ],
      [
        "▁Jam",
        -1892.0
      ],
      [
        "▁ቀጥ",
        -1893.0
      ],
      [
        "▁ሥርዓት",
        -1894.0
      ],
      [
        "▁ፍቅር",
        -1895.0
      ],
      [
        "▁በዓለም",
        -1896.0
      ],
      [
        "▁ስላ",
        -1897.0
      ],
      [
        "▁ኤርትራ",
        -1898.0
      ],
      [
        "ሳቸውን",
        -1899.0
      ],
      [
        "▁ነበሩ",
        -1900.0
      ],
      [
        "ub",
        -1901.0
      ],
      [
        "▁መልስ",
        -1902.0
      ],
      [
        "▁ቀር",
        -1903.0
      ],
      [
        "▁ልማት",
        -1904.0
      ],
      [
        "ቢሲ",
        -1905.0
      ],
      [
        "ረጥ",
        -1906.0
      ],
      [
        "▁ቢሆንም",
        -1907.0
      ],
      [
        "ጣሪ",
        -1908.0
      ],
      [
        "ሰጥ",
        -1909.0
      ],
      [
        "▁ሳምንት",
        -1910.0
      ],
      [
        "▁በዋ",
        -1911.0
      ],
      [
        "amman",
        -1912.0
      ],
      [
        "ዘጋጀ",
        -1913.0
      ],
      [
        "uwan",
        -1914.0
      ],
      [
        "ወጥ",
        -1915.0
      ],
      [
        "▁ንጉ",
        -1916.0
      ],
      [
        "▁ካለ",
        -1917.0
      ],
      [
        "▁ትግል",
        -1918.0
      ],
      [
        "ቸዋል።",
        -1919.0
      ],
      [
        "▁ትውልድ",
        -1920.0
      ],
      [
        "▁የተወደ",
        -1921.0
      ],
      [
        "ለውን",
        -1922.0
      ],
      [
        "ቀረበ",
        -1923.0
      ],
      [
        "▁ተቋማት",
        -1924.0
      ],
      [
        "ቀበ",
        -1925.0
      ],
      [
        "▁የሆነው",
        -1926.0
      ],
      [
        "▁አምላክ",
        -1927.0
      ],
      [
        "ጫወ",
        -1928.0
      ],
      [
        "▁ክርስቲያ",
        -1929.0
      ],
      [
        "▁በግል",
        -1930.0
      ],
      [
        "ጋሚ",
        -1931.0
      ],
      [
        "▁fi",
        -1932.0
      ],
      [
        "ዱት",
        -1933.0
      ],
      [
        "him",
        -1934.0
      ],
      [
        "ሪቃ",
        -1935.0
      ],
      [
        "▁ተግባር",
        -1936.0
      ],
      [
        "▁wadanda",
        -1937.0
      ],
      [
        "▁ቅር",
        -1938.0
      ],
      [
        "▁for",
        -1939.0
      ],
      [
        "▁Har",
        -1940.0
      ],
      [
        "ፍን",
        -1941.0
      ],
      [
        "▁ኳስ",
        -1942.0
      ],
      [
        "▁በማስ",
        -1943.0
      ],
      [
        "▁መለስ",
        -1944.0
      ],
      [
        "ib",
        -1945.0
      ],
      [
        "uri",
        -1946.0
      ],
      [
        "▁ዩኒቨርሲቲ",
        -1947.0
      ],
      [
        "▁ቡድ",
        -1948.0
      ],
      [
        "ugaba",
        -1949.0
      ],
      [
        "ጥጥር",
        -1950.0
      ],
      [
        "ቡነ",
        -1951.0
      ],
      [
        "▁የአዲስ",
        -1952.0
      ],
      [
        "▁ዓላማ",
        -1953.0
      ],
      [
        "ሳን",
        -1954.0
      ],
      [
        "ቶቹ",
        -1955.0
      ],
      [
        "ግና",
        -1956.0
      ],
      [
        "ል፣",
        -1957.0
      ],
      [
        "▁ወጣቶች",
        -1958.0
      ],
      [
        "ስማ",
        -1959.0
      ],
      [
        "▁ግጭት",
        -1960.0
      ],
      [
        "▁ዶላር",
        -1961.0
      ],
      [
        "ገናኛ",
        -1962.0
      ],
      [
        "ation",
        -1963.0
      ],
      [
        "▁የአፍሪካ",
        -1964.0
      ],
      [
        "ነቱን",
        -1965.0
      ],
      [
        "▁duniya",
        -1966.0
      ],
      [
        "tun",
        -1967.0
      ],
      [
        "▁maj",
        -1968.0
      ],
      [
        "▁አማካ",
        -1969.0
      ],
      [
        "▁አራት",
        -1970.0
      ],
      [
        "kun",
        -1971.0
      ],
      [
        "all",
        -1972.0
      ],
      [
        "▁ጉዳት",
        -1973.0
      ],
      [
        "ስትና",
        -1974.0
      ],
      [
        "ኖረው",
        -1975.0
      ],
      [
        "ተዋል፡፡",
        -1976.0
      ],
      [
        "ያዙ",
        -1977.0
      ],
      [
        "▁በተመለከተ",
        -1978.0
      ],
      [
        "000",
        -1979.0
      ],
      [
        "▁ሚኒስቴር",
        -1980.0
      ],
      [
        "▁መሪዎች",
        -1981.0
      ],
      [
        "ሰት",
        -1982.0
      ],
      [
        "▁Kan",
        -1983.0
      ],
      [
        "▁ዋናው",
        -1984.0
      ],
      [
        "▁ኦሮ",
        -1985.0
      ],
      [
        "ንግድ",
        -1986.0
      ],
      [
        "▁መሬት",
        -1987.0
      ],
      [
        "ፈረ",
        -1988.0
      ],
      [
        "kanin",
        -1989.0
      ],
      [
        "▁ማለ",
        -1990.0
      ],
      [
        "ክልሉ",
        -1991.0
      ],
      [
        "የን",
        -1992.0
      ],
      [
        "ባሪ",
        -1993.0
      ],
      [
        "ሞት",
        -1994.0
      ],
      [
        "▁ትክ",
        -1995.0
      ],
      [
        "▁የትግራይ",
        -1996.0
      ],
      [
        "▁bai",
        -1997.0
      ],
      [
        "▁14",
        -1998.0
      ],
      [
        "▁የሙ",
        -1999.0
      ],
      [
        "▁የተወደዱ",
        -2000.0
      ],
      [
        "▁kamar",
        -2001.0
      ],
      [
        "ዘን",
        -2002.0
      ],
      [
        "ከናወ",
        -2003.0
      ],
      [
        "ለሁ፡፡",
        -2004.0
      ],
      [
        "utar",
        -2005.0
      ],
      [
        "▁ገልጸ",
        -2006.0
      ],
      [
        "ance",
        -2007.0
      ],
      [
        "▁is",
        -2008.0
      ],
      [
        "ንደር",
        -2009.0
      ],
      [
        "ያቸው",
        -2010.0
      ],
      [
        "ዲሱ",
        -2011.0
      ],
      [
        "▁የሰብ",
        -2012.0
      ],
      [
        "60",
        -2013.0
      ],
      [
        "▁”",
        -2014.0
      ],
      [
        "▁አብይ",
        -2015.0
      ],
      [
        "ንጫ",
        -2016.0
      ],
      [
        "ላችን",
        -2017.0
      ],
      [
        "▁shaf",
        -2018.0
      ],
      [
        "ካሄድ",
        -2019.0
      ],
      [
        "▁ዝር",
        -2020.0
      ],
      [
        "kwai",
        -2021.0
      ],
      [
        "ጣሚ",
        -2022.0
      ],
      [
        "▁ውይይት",
        -2023.0
      ],
      [
        "▁13",
        -2024.0
      ],
      [
        "▁የዩ",
        -2025.0
      ],
      [
        "▁የሥራ",
        -2026.0
      ],
      [
        "ረዳት",
        -2027.0
      ],
      [
        "▁ገና",
        -2028.0
      ],
      [
        "▁as",
        -2029.0
      ],
      [
        "▁tsar",
        -2030.0
      ],
      [
        "▁በቁ",
        -2031.0
      ],
      [
        "ጠን",
        -2032.0
      ],
      [
        "▁gwamnatin",
        -2033.0
      ],
      [
        "ለቀ",
        -2034.0
      ],
      [
        "ከላከያ",
        -2035.0
      ],
      [
        "ዘር",
        -2036.0
      ],
      [
        "annan",
        -2037.0
      ],
      [
        "▁የአማራ",
        -2038.0
      ],
      [
        "ፈልጉ",
        -2039.0
      ],
      [
        "yya",
        -2040.0
      ],
      [
        "ውሮፓ",
        -2041.0
      ],
      [
        "▁birnin",
        -2042.0
      ],
      [
        "▁ይናገራ",
        -2043.0
      ],
      [
        "ጣቸው",
        -2044.0
      ],
      [
        "▁በእር",
        -2045.0
      ],
      [
        "ያት",
        -2046.0
      ],
      [
        "▁fara",
        -2047.0
      ],
      [
        "▁በቅርቡ",
        -2048.0
      ],
      [
        "▁ሴቶች",
        -2049.0
      ],
      [
        "ers",
        -2050.0
      ],
      [
        "ጠኞች",
        -2051.0
      ],
      [
        "▁ይፋ",
        -2052.0
      ],
      [
        "▁መንገ",
        -2053.0
      ],
      [
        "ቤቱ",
        -2054.0
      ],
      [
        "▁hot",
        -2055.0
      ],
      [
        "ቀም",
        -2056.0
      ],
      [
        "▁Ab",
        -2057.0
      ],
      [
        "▁የሚቆ",
        -2058.0
      ],
      [
        "▁ሩ",
        -2059.0
      ],
      [
        "▁So",
        -2060.0
      ],
      [
        "▁jami",
        -2061.0
      ],
      [
        "ት።",
        -2062.0
      ],
      [
        "▁ይሆ",
        -2063.0
      ],
      [
        "▁የኦሮሞ",
        -2064.0
      ],
      [
        "ጠረ",
        -2065.0
      ],
      [
        "ጣው",
        -2066.0
      ],
      [
        "ዉን",
        -2067.0
      ],
      [
        "ነታቸው",
        -2068.0
      ],
      [
        "ch",
        -2069.0
      ],
      [
        "ስሊ",
        -2070.0
      ],
      [
        "ፎች",
        -2071.0
      ],
      [
        "ሞክራሲያዊ",
        -2072.0
      ],
      [
        "▁የቅ",
        -2073.0
      ],
      [
        "▁ፊት",
        -2074.0
      ],
      [
        "▁ምክንያቱም",
        -2075.0
      ],
      [
        "▁ሂደት",
        -2076.0
      ],
      [
        "▁18",
        -2077.0
      ],
      [
        "▁irin",
        -2078.0
      ],
      [
        "▁aiki",
        -2079.0
      ],
      [
        "በረሰብ",
        -2080.0
      ],
      [
        "▁ጥሪ",
        -2081.0
      ],
      [
        "ti",
        -2082.0
      ],
      [
        "ምባ",
        -2083.0
      ],
      [
        "▁ወል",
        -2084.0
      ],
      [
        "ike",
        -2085.0
      ],
      [
        "▁idan",
        -2086.0
      ],
      [
        "ቋል።",
        -2087.0
      ],
      [
        "▁በቅ",
        -2088.0
      ],
      [
        "▁መሆናቸውን",
        -2089.0
      ],
      [
        "▁በድ",
        -2090.0
      ],
      [
        "go",
        -2091.0
      ],
      [
        "kama",
        -2092.0
      ],
      [
        "▁din",
        -2093.0
      ],
      [
        "▁re",
        -2094.0
      ],
      [
        "ኳይ",
        -2095.0
      ],
      [
        "▁ጦርነት",
        -2096.0
      ],
      [
        "▁የቴ",
        -2097.0
      ],
      [
        "▁የቀድሞ",
        -2098.0
      ],
      [
        "▁ይሆናል",
        -2099.0
      ],
      [
        "ወጡ",
        -2100.0
      ],
      [
        "▁ድርጊ",
        -2101.0
      ],
      [
        "▁zaben",
        -2102.0
      ],
      [
        "▁zar",
        -2103.0
      ],
      [
        "ደብ",
        -2104.0
      ],
      [
        "▁ግንቦት",
        -2105.0
      ],
      [
        "ክቶ",
        -2106.0
      ],
      [
        "ዚቃ",
        -2107.0
      ],
      [
        "▁ሻ",
        -2108.0
      ],
      [
        "▁ተቃውሞ",
        -2109.0
      ],
      [
        "▁saboda",
        -2110.0
      ],
      [
        "▁በኮ",
        -2111.0
      ],
      [
        "▁tab",
        -2112.0
      ],
      [
        "▁ደስ",
        -2113.0
      ],
      [
        "▁ዶክተር",
        -2114.0
      ],
      [
        "ካል",
        -2115.0
      ],
      [
        "▁ቢሮ",
        -2116.0
      ],
      [
        "ደረጉት",
        -2117.0
      ],
      [
        "▁በዚያ",
        -2118.0
      ],
      [
        "▁አምባ",
        -2119.0
      ],
      [
        "ዎችና",
        -2120.0
      ],
      [
        "▁ሴት",
        -2121.0
      ],
      [
        "▁ciki",
        -2122.0
      ],
      [
        "▁ጌታ",
        -2123.0
      ],
      [
        "▁gudan",
        -2124.0
      ],
      [
        "▁Shugaban",
        -2125.0
      ],
      [
        "▁አምስት",
        -2126.0
      ],
      [
        "▁ሆኖም",
        -2127.0
      ],
      [
        "▁ለመስ",
        -2128.0
      ],
      [
        "ጀመር",
        -2129.0
      ],
      [
        "▁ar",
        -2130.0
      ],
      [
        "ግን",
        -2131.0
      ],
      [
        "ቸኳይ",
        -2132.0
      ],
      [
        "ቀረቡ",
        -2133.0
      ],
      [
        "uran",
        -2134.0
      ],
      [
        "▁16",
        -2135.0
      ],
      [
        "▁ብሔራዊ",
        -2136.0
      ],
      [
        "▁ጓ",
        -2137.0
      ],
      [
        "ለን፡፡",
        -2138.0
      ],
      [
        "▁yar",
        -2139.0
      ],
      [
        "ምፒ",
        -2140.0
      ],
      [
        "ዝና",
        -2141.0
      ],
      [
        "ala",
        -2142.0
      ],
      [
        "▁ስርዓት",
        -2143.0
      ],
      [
        "▁የአንድ",
        -2144.0
      ],
      [
        "▁እስካሁን",
        -2145.0
      ],
      [
        "▁እንደማይ",
        -2146.0
      ],
      [
        "▁ለምሳሌ",
        -2147.0
      ],
      [
        "▁ንግግር",
        -2148.0
      ],
      [
        "▁አንድነት",
        -2149.0
      ],
      [
        "▁#",
        -2150.0
      ],
      [
        "ጅም",
        -2151.0
      ],
      [
        "▁ጣቢያ",
        -2152.0
      ],
      [
        "▁ወንጀል",
        -2153.0
      ],
      [
        "▁እንደነበር",
        -2154.0
      ],
      [
        "ከፈ",
        -2155.0
      ],
      [
        "ያንዳን",
        -2156.0
      ],
      [
        "▁መዋ",
        -2157.0
      ],
      [
        "ጣል",
        -2158.0
      ],
      [
        "ንፈ",
        -2159.0
      ],
      [
        "▁th",
        -2160.0
      ],
      [
        "▁Re",
        -2161.0
      ],
      [
        "kokin",
        -2162.0
      ],
      [
        "▁ሌላው",
        -2163.0
      ],
      [
        "▁አግ",
        -2164.0
      ],
      [
        "▁akan",
        -2165.0
      ],
      [
        "▁zama",
        -2166.0
      ],
      [
        "uma",
        -2167.0
      ],
      [
        "ያያዘ",
        -2168.0
      ],
      [
        "▁በሃ",
        -2169.0
      ],
      [
        "ክሮ",
        -2170.0
      ],
      [
        "ill",
        -2171.0
      ],
      [
        "▁የቤተ",
        -2172.0
      ],
      [
        "ኪና",
        -2173.0
      ],
      [
        "ሰበ",
        -2174.0
      ],
      [
        "▁እም",
        -2175.0
      ],
      [
        "▁ባለስ",
        -2176.0
      ],
      [
        "ጋዜ",
        -2177.0
      ],
      [
        "▁baya",
        -2178.0
      ],
      [
        "▁መሥ",
        -2179.0
      ],
      [
        "ካሄደ",
        -2180.0
      ],
      [
        "▁መንግስ",
        -2181.0
      ],
      [
        "▁kasashen",
        -2182.0
      ],
      [
        "▁ስደ",
        -2183.0
      ],
      [
        "ገበ",
        -2184.0
      ],
      [
        "▁አይደለም፡፡",
        -2185.0
      ],
      [
        "ላሉ",
        -2186.0
      ],
      [
        "▁ተማሪዎች",
        -2187.0
      ],
      [
        "▁fit",
        -2188.0
      ],
      [
        "▁Shirye",
        -2189.0
      ],
      [
        "▁ጆ",
        -2190.0
      ],
      [
        "አዊ",
        -2191.0
      ],
      [
        "ili",
        -2192.0
      ],
      [
        "▁ትኩረት",
        -2193.0
      ],
      [
        "▁ፍት",
        -2194.0
      ],
      [
        "▁የተወሰ",
        -2195.0
      ],
      [
        "▁Mu",
        -2196.0
      ],
      [
        "ጉም",
        -2197.0
      ],
      [
        "▁በባ",
        -2198.0
      ],
      [
        "▁ሕገ",
        -2199.0
      ],
      [
        "▁kya",
        -2200.0
      ],
      [
        "te",
        -2201.0
      ],
      [
        "▁በዚህም",
        -2202.0
      ],
      [
        "ራሽ",
        -2203.0
      ],
      [
        "ከረ",
        -2204.0
      ],
      [
        "ወዳ",
        -2205.0
      ],
      [
        "▁ያው",
        -2206.0
      ],
      [
        "ore",
        -2207.0
      ],
      [
        "▁e",
        -2208.0
      ],
      [
        "▁ወጣት",
        -2209.0
      ],
      [
        "▁የተቃ",
        -2210.0
      ],
      [
        "▁ደብ",
        -2211.0
      ],
      [
        "▁ለማግኘት",
        -2212.0
      ],
      [
        "▁የሚታ",
        -2213.0
      ],
      [
        "▁የፀ",
        -2214.0
      ],
      [
        "ገዛ",
        -2215.0
      ],
      [
        "▁ኑ",
        -2216.0
      ],
      [
        "ኪያ",
        -2217.0
      ],
      [
        "▁ተጫ",
        -2218.0
      ],
      [
        "▁ዕለት",
        -2219.0
      ],
      [
        "▁25",
        -2220.0
      ],
      [
        "▁ክርስቶስ",
        -2221.0
      ],
      [
        "ጮች",
        -2222.0
      ],
      [
        "▁አብዛ",
        -2223.0
      ],
      [
        "▁የፕ",
        -2224.0
      ],
      [
        "ቃል",
        -2225.0
      ],
      [
        "fiya",
        -2226.0
      ],
      [
        "ቸዋል",
        -2227.0
      ],
      [
        "ame",
        -2228.0
      ],
      [
        "▁የሚመ",
        -2229.0
      ],
      [
        "▁አገሮች",
        -2230.0
      ],
      [
        "ck",
        -2231.0
      ],
      [
        "▁ደጋ",
        -2232.0
      ],
      [
        "ካባቢው",
        -2233.0
      ],
      [
        "ጠቅላይ",
        -2234.0
      ],
      [
        "ri",
        -2235.0
      ],
      [
        "▁Duniya",
        -2236.0
      ],
      [
        "▁መፍ",
        -2237.0
      ],
      [
        "und",
        -2238.0
      ],
      [
        "res",
        -2239.0
      ],
      [
        "▁ተናግረዋል።",
        -2240.0
      ],
      [
        "ያይ",
        -2241.0
      ],
      [
        "ባሉ",
        -2242.0
      ],
      [
        "▁አመራር",
        -2243.0
      ],
      [
        "ሱት",
        -2244.0
      ],
      [
        "ደገ",
        -2245.0
      ],
      [
        "▁እስር",
        -2246.0
      ],
      [
        "▁ኅ",
        -2247.0
      ],
      [
        "ኞችን",
        -2248.0
      ],
      [
        "▁በጉ",
        -2249.0
      ],
      [
        "▁የሚለውን",
        -2250.0
      ],
      [
        "ዱን",
        -2251.0
      ],
      [
        "ግባር",
        -2252.0
      ],
      [
        "▁የኦ",
        -2253.0
      ],
      [
        "▁አስተያየት",
        -2254.0
      ],
      [
        "▁ስድ",
        -2255.0
      ],
      [
        "ከበር",
        -2256.0
      ],
      [
        "▁ባለው",
        -2257.0
      ],
      [
        "▁ፈር",
        -2258.0
      ],
      [
        "▁እውነት",
        -2259.0
      ],
      [
        "ታማ",
        -2260.0
      ],
      [
        "▁are",
        -2261.0
      ],
      [
        "▁ወራት",
        -2262.0
      ],
      [
        "▁ልክ",
        -2263.0
      ],
      [
        "▁30",
        -2264.0
      ],
      [
        "▁የተቀ",
        -2265.0
      ],
      [
        "▁»",
        -2266.0
      ],
      [
        "▁ስሜት",
        -2267.0
      ],
      [
        "▁አገራት",
        -2268.0
      ],
      [
        "▁ተጠቃሚ",
        -2269.0
      ],
      [
        "በኛ",
        -2270.0
      ],
      [
        "ነበ",
        -2271.0
      ],
      [
        "▁ሦስት",
        -2272.0
      ],
      [
        "የሁ",
        -2273.0
      ],
      [
        "ልቁ",
        -2274.0
      ],
      [
        "dar",
        -2275.0
      ],
      [
        "AN",
        -2276.0
      ],
      [
        "▁cin",
        -2277.0
      ],
      [
        "▁መልዕ",
        -2278.0
      ],
      [
        "▁የተነሳ",
        -2279.0
      ],
      [
        "ll",
        -2280.0
      ],
      [
        "ደል",
        -2281.0
      ],
      [
        "ኔት",
        -2282.0
      ],
      [
        "▁እያለ",
        -2283.0
      ],
      [
        "በላ",
        -2284.0
      ],
      [
        "▁ምንድ",
        -2285.0
      ],
      [
        "▁ለኢትዮጵያ",
        -2286.0
      ],
      [
        "▁የዚህ",
        -2287.0
      ],
      [
        "▁17",
        -2288.0
      ],
      [
        "▁በክ",
        -2289.0
      ],
      [
        "▁kashe",
        -2290.0
      ],
      [
        "▁እራ",
        -2291.0
      ],
      [
        "▁ገጽ",
        -2292.0
      ],
      [
        "▁ይለ",
        -2293.0
      ],
      [
        "▁ስምምነት",
        -2294.0
      ],
      [
        "▁ተቃዋሚ",
        -2295.0
      ],
      [
        "ዳም",
        -2296.0
      ],
      [
        "ጋሪ",
        -2297.0
      ],
      [
        "ቁር",
        -2298.0
      ],
      [
        "ሸነ",
        -2299.0
      ],
      [
        "▁ተቋም",
        -2300.0
      ],
      [
        "ላል፡፡",
        -2301.0
      ],
      [
        "ዳማ",
        -2302.0
      ],
      [
        "inis",
        -2303.0
      ],
      [
        "▁ነዋሪዎች",
        -2304.0
      ],
      [
        "ካሄደው",
        -2305.0
      ],
      [
        "▁እግር",
        -2306.0
      ],
      [
        "▁ሮ",
        -2307.0
      ],
      [
        "▁kwan",
        -2308.0
      ],
      [
        "▁tsakanin",
        -2309.0
      ],
      [
        "▁ተራ",
        -2310.0
      ],
      [
        "ልጣናት",
        -2311.0
      ],
      [
        "▁አቡነ",
        -2312.0
      ],
      [
        "fe",
        -2313.0
      ],
      [
        "ክርስቲያን",
        -2314.0
      ],
      [
        "ገባው",
        -2315.0
      ],
      [
        "ካት",
        -2316.0
      ],
      [
        "▁Bo",
        -2317.0
      ],
      [
        "ሎችን",
        -2318.0
      ],
      [
        "▁የዋ",
        -2319.0
      ],
      [
        "ንጀ",
        -2320.0
      ],
      [
        "▁በተለይም",
        -2321.0
      ],
      [
        "▁ብለን",
        -2322.0
      ],
      [
        "ለጋ",
        -2323.0
      ],
      [
        "ቅረ",
        -2324.0
      ],
      [
        "ቡር",
        -2325.0
      ],
      [
        "ቱት",
        -2326.0
      ],
      [
        "ፌደ",
        -2327.0
      ],
      [
        "ከላከል",
        -2328.0
      ],
      [
        "12",
        -2329.0
      ],
      [
        "▁የፓ",
        -2330.0
      ],
      [
        "▁ጉዞ",
        -2331.0
      ],
      [
        "ዳዳ",
        -2332.0
      ],
      [
        "▁gudanar",
        -2333.0
      ],
      [
        "▁ዞን",
        -2334.0
      ],
      [
        "uta",
        -2335.0
      ],
      [
        "▁shiga",
        -2336.0
      ],
      [
        "ኮች",
        -2337.0
      ],
      [
        "ashe",
        -2338.0
      ],
      [
        "▁የትምህርት",
        -2339.0
      ],
      [
        "ቷል",
        -2340.0
      ],
      [
        "▁ታው",
        -2341.0
      ],
      [
        "▁ad",
        -2342.0
      ],
      [
        "ውስ",
        -2343.0
      ],
      [
        "▁ተገቢ",
        -2344.0
      ],
      [
        "ያቂ",
        -2345.0
      ],
      [
        "▁በከፍተኛ",
        -2346.0
      ],
      [
        "▁ሥልጣን",
        -2347.0
      ],
      [
        "▁samun",
        -2348.0
      ],
      [
        "ቻቸውን",
        -2349.0
      ],
      [
        "▁shekara",
        -2350.0
      ],
      [
        "ርማ",
        -2351.0
      ],
      [
        "▁Ka",
        -2352.0
      ],
      [
        "▁ጥናት",
        -2353.0
      ],
      [
        "ፍና",
        -2354.0
      ],
      [
        "10",
        -2355.0
      ],
      [
        "▁hukumar",
        -2356.0
      ],
      [
        "ጋዊ",
        -2357.0
      ],
      [
        "▁ሓ",
        -2358.0
      ],
      [
        "▁በይ",
        -2359.0
      ],
      [
        "▁ግንባታ",
        -2360.0
      ],
      [
        "▁ተነ",
        -2361.0
      ],
      [
        "▁ፍላጎት",
        -2362.0
      ],
      [
        "ላቸውን",
        -2363.0
      ],
      [
        "▁ክስ",
        -2364.0
      ],
      [
        "የም",
        -2365.0
      ],
      [
        "ዘጋጅ",
        -2366.0
      ],
      [
        "የአ",
        -2367.0
      ],
      [
        "▁ፕሬዝ",
        -2368.0
      ],
      [
        "▁ሰዎችን",
        -2369.0
      ],
      [
        "ሥር",
        -2370.0
      ],
      [
        "ቀርብ",
        -2371.0
      ],
      [
        "so",
        -2372.0
      ],
      [
        "ዎን",
        -2373.0
      ],
      [
        "mu",
        -2374.0
      ],
      [
        "na",
        -2375.0
      ],
      [
        "▁ችግሮች",
        -2376.0
      ],
      [
        "▁በሚያ",
        -2377.0
      ],
      [
        "▁ህግ",
        -2378.0
      ],
      [
        "▁ድምፅ",
        -2379.0
      ],
      [
        "▁አካላት",
        -2380.0
      ],
      [
        "▁ይዘት",
        -2381.0
      ],
      [
        "ፈጠረ",
        -2382.0
      ],
      [
        "▁መኖ",
        -2383.0
      ],
      [
        "ጥረት",
        -2384.0
      ],
      [
        "▁አቅም",
        -2385.0
      ],
      [
        "ubu",
        -2386.0
      ],
      [
        "▁ሱዳን",
        -2387.0
      ],
      [
        "▁ጤና",
        -2388.0
      ],
      [
        "▁አንቀ",
        -2389.0
      ],
      [
        "▁ወረዳ",
        -2390.0
      ],
      [
        "▁ትና",
        -2391.0
      ],
      [
        "▁ሃገ",
        -2392.0
      ],
      [
        "ዩን",
        -2393.0
      ],
      [
        "AR",
        -2394.0
      ],
      [
        "▁ለሁ",
        -2395.0
      ],
      [
        "ግሬ",
        -2396.0
      ],
      [
        "▁ganin",
        -2397.0
      ],
      [
        "▁ወዳ",
        -2398.0
      ],
      [
        "▁buka",
        -2399.0
      ],
      [
        "▁ሰማ",
        -2400.0
      ],
      [
        "▁መድረክ",
        -2401.0
      ],
      [
        "መቱ",
        -2402.0
      ],
      [
        "▁ከባድ",
        -2403.0
      ],
      [
        "▁ከስ",
        -2404.0
      ],
      [
        "ቃወ",
        -2405.0
      ],
      [
        "▁ይታ",
        -2406.0
      ],
      [
        "17",
        -2407.0
      ],
      [
        "ነገ",
        -2408.0
      ],
      [
        "ዘው",
        -2409.0
      ],
      [
        "ine",
        -2410.0
      ],
      [
        "▁had",
        -2411.0
      ],
      [
        "ሰድ",
        -2412.0
      ],
      [
        "▁Ethiopian",
        -2413.0
      ],
      [
        "▁የምና",
        -2414.0
      ],
      [
        "ሶማ",
        -2415.0
      ],
      [
        "ment",
        -2416.0
      ],
      [
        "▁ክብር",
        -2417.0
      ],
      [
        "▁አየር",
        -2418.0
      ],
      [
        "▁በወቅ",
        -2419.0
      ],
      [
        "ጣን",
        -2420.0
      ],
      [
        "▁Na",
        -2421.0
      ],
      [
        "▁የስራ",
        -2422.0
      ],
      [
        "ፊያ",
        -2423.0
      ],
      [
        "ንታ",
        -2424.0
      ],
      [
        "ዳሚ",
        -2425.0
      ],
      [
        "▁ለህ",
        -2426.0
      ],
      [
        "ንነት",
        -2427.0
      ],
      [
        "▁ብሄ",
        -2428.0
      ],
      [
        "iyya",
        -2429.0
      ],
      [
        "▁አህመድ",
        -2430.0
      ],
      [
        "▁የጤና",
        -2431.0
      ],
      [
        "uku",
        -2432.0
      ],
      [
        "▁ማግኘት",
        -2433.0
      ],
      [
        "▁yankin",
        -2434.0
      ],
      [
        "ላሴ",
        -2435.0
      ],
      [
        "ባቸውን",
        -2436.0
      ],
      [
        "▁aikin",
        -2437.0
      ],
      [
        "▁የመንግስት",
        -2438.0
      ],
      [
        "ህና",
        -2439.0
      ],
      [
        "▁የሚችል",
        -2440.0
      ],
      [
        "▁Wa",
        -2441.0
      ],
      [
        "ዳት",
        -2442.0
      ],
      [
        "ችላ",
        -2443.0
      ],
      [
        "ጋይ",
        -2444.0
      ],
      [
        "▁ቶ",
        -2445.0
      ],
      [
        "▁ኃይለ",
        -2446.0
      ],
      [
        "▁ይኖር",
        -2447.0
      ],
      [
        "▁ተመ",
        -2448.0
      ],
      [
        "▁ጀር",
        -2449.0
      ],
      [
        "▁የጋራ",
        -2450.0
      ],
      [
        "▁ሠራ",
        -2451.0
      ],
      [
        "▁የሚሉ",
        -2452.0
      ],
      [
        "በራ",
        -2453.0
      ],
      [
        "▁ውድድር",
        -2454.0
      ],
      [
        "ሳቢ",
        -2455.0
      ],
      [
        "▁ንብረት",
        -2456.0
      ],
      [
        "▁የግል",
        -2457.0
      ],
      [
        "▁እኮ",
        -2458.0
      ],
      [
        "ቆጣጠር",
        -2459.0
      ],
      [
        "▁ተከታ",
        -2460.0
      ],
      [
        "ከታተ",
        -2461.0
      ],
      [
        "▁ሰለ",
        -2462.0
      ],
      [
        "hadi",
        -2463.0
      ],
      [
        "▁ባለሥ",
        -2464.0
      ],
      [
        "▁tatta",
        -2465.0
      ],
      [
        "tu",
        -2466.0
      ],
      [
        "▁Abu",
        -2467.0
      ],
      [
        "▁ita",
        -2468.0
      ],
      [
        "ቸዋል፡፡",
        -2469.0
      ],
      [
        "▁ይቅር",
        -2470.0
      ],
      [
        "▁በዓል",
        -2471.0
      ],
      [
        "▁ምድር",
        -2472.0
      ],
      [
        "▁ህይወት",
        -2473.0
      ],
      [
        "▁ትግራይ",
        -2474.0
      ],
      [
        "ሯል።",
        -2475.0
      ],
      [
        "ማርያም",
        -2476.0
      ],
      [
        "ጠኝ",
        -2477.0
      ],
      [
        "ane",
        -2478.0
      ],
      [
        "▁የህዝብ",
        -2479.0
      ],
      [
        "▁ስልጣን",
        -2480.0
      ],
      [
        "ታን",
        -2481.0
      ],
      [
        "vi",
        -2482.0
      ],
      [
        "▁Hausa",
        -2483.0
      ],
      [
        "ምድ",
        -2484.0
      ],
      [
        "ity",
        -2485.0
      ],
      [
        "ራዊት",
        -2486.0
      ],
      [
        "▁አረ",
        -2487.0
      ],
      [
        "udu",
        -2488.0
      ],
      [
        "በልጥ",
        -2489.0
      ],
      [
        "▁በቂ",
        -2490.0
      ],
      [
        "se",
        -2491.0
      ],
      [
        "ንቲ",
        -2492.0
      ],
      [
        "▁ይችላሉ",
        -2493.0
      ],
      [
        "▁ፓርቲዎች",
        -2494.0
      ],
      [
        "▁ሰነ",
        -2495.0
      ],
      [
        "ሳሰ",
        -2496.0
      ],
      [
        "▁መሳሪያ",
        -2497.0
      ],
      [
        "▁Afr",
        -2498.0
      ],
      [
        "▁ሰላማዊ",
        -2499.0
      ],
      [
        "▁Ethiopia",
        -2500.0
      ],
      [
        "ሳሰብ",
        -2501.0
      ],
      [
        "she",
        -2502.0
      ],
      [
        "ጀም",
        -2503.0
      ],
      [
        "▁ኢትዮጵያን",
        -2504.0
      ],
      [
        "▁ምዕራ",
        -2505.0
      ],
      [
        "ነኛ",
        -2506.0
      ],
      [
        "ወሃት",
        -2507.0
      ],
      [
        "▁መጣ",
        -2508.0
      ],
      [
        "▁የንግድ",
        -2509.0
      ],
      [
        "ወለ",
        -2510.0
      ],
      [
        "▁አዋጅ",
        -2511.0
      ],
      [
        "ልድ",
        -2512.0
      ],
      [
        "ንቃ",
        -2513.0
      ],
      [
        "ህንነት",
        -2514.0
      ],
      [
        "▁yace",
        -2515.0
      ],
      [
        "shin",
        -2516.0
      ],
      [
        "ከቱ",
        -2517.0
      ],
      [
        "▁ከጥ",
        -2518.0
      ],
      [
        "/201",
        -2519.0
      ],
      [
        "▁mul",
        -2520.0
      ],
      [
        "▁babban",
        -2521.0
      ],
      [
        "ናል፡፡",
        -2522.0
      ],
      [
        "ሮፕ",
        -2523.0
      ],
      [
        "▁የመጨረሻ",
        -2524.0
      ],
      [
        "?”",
        -2525.0
      ],
      [
        "ላቀ",
        -2526.0
      ],
      [
        "▁ልጆ",
        -2527.0
      ],
      [
        "▁አልነበረ",
        -2528.0
      ],
      [
        "▁መግ",
        -2529.0
      ],
      [
        "▁yayin",
        -2530.0
      ],
      [
        "amma",
        -2531.0
      ],
      [
        "ቡን",
        -2532.0
      ],
      [
        "ኒት",
        -2533.0
      ],
      [
        "ረታዊ",
        -2534.0
      ],
      [
        "do",
        -2535.0
      ],
      [
        "ላላ",
        -2536.0
      ],
      [
        "▁በኦሮ",
        -2537.0
      ],
      [
        "ናዊ",
        -2538.0
      ],
      [
        "▁ኢህአዴግ",
        -2539.0
      ],
      [
        "ran",
        -2540.0
      ],
      [
        "▁አራ",
        -2541.0
      ],
      [
        "ርቶዶ",
        -2542.0
      ],
      [
        "▁ጽሑ",
        -2543.0
      ],
      [
        "▁hann",
        -2544.0
      ],
      [
        "▁ጥቂት",
        -2545.0
      ],
      [
        "ome",
        -2546.0
      ],
      [
        "ከረም",
        -2547.0
      ],
      [
        "ነጋገር",
        -2548.0
      ],
      [
        "▁ውጪ",
        -2549.0
      ],
      [
        "ቂቃ",
        -2550.0
      ],
      [
        "▁መንፈስ",
        -2551.0
      ],
      [
        "ስቶ",
        -2552.0
      ],
      [
        "ልኝ",
        -2553.0
      ],
      [
        "▁ባንክ",
        -2554.0
      ],
      [
        "▁ማርያ",
        -2555.0
      ],
      [
        "ጭር",
        -2556.0
      ],
      [
        "▁የተሻለ",
        -2557.0
      ],
      [
        "▁ትዕ",
        -2558.0
      ],
      [
        "▁cewar",
        -2559.0
      ],
      [
        "▁mutum",
        -2560.0
      ],
      [
        "Yan",
        -2561.0
      ],
      [
        "ere",
        -2562.0
      ],
      [
        "▁መቼ",
        -2563.0
      ],
      [
        "▁ታላቅ",
        -2564.0
      ],
      [
        "▁የዕ",
        -2565.0
      ],
      [
        "ንካራ",
        -2566.0
      ],
      [
        "▁ሚኒስትሩ",
        -2567.0
      ],
      [
        "▁ሬ",
        -2568.0
      ],
      [
        "▁የመንግሥት",
        -2569.0
      ],
      [
        "ት፣",
        -2570.0
      ],
      [
        "▁የሽ",
        -2571.0
      ],
      [
        "▁ከኢትዮጵያ",
        -2572.0
      ],
      [
        "ነገር",
        -2573.0
      ],
      [
        "▁ሶማ",
        -2574.0
      ],
      [
        "ሊን",
        -2575.0
      ],
      [
        "▁ነጥብ",
        -2576.0
      ],
      [
        "hotan",
        -2577.0
      ],
      [
        "▁ዳይ",
        -2578.0
      ],
      [
        "▁ሚዲያ",
        -2579.0
      ],
      [
        "▁ነዉ።",
        -2580.0
      ],
      [
        "ረጋገጥ",
        -2581.0
      ],
      [
        "ለች፡፡",
        -2582.0
      ],
      [
        "▁ደም",
        -2583.0
      ],
      [
        "▁መግባ",
        -2584.0
      ],
      [
        "ንስት",
        -2585.0
      ],
      [
        "aren",
        -2586.0
      ],
      [
        "▁ጊ",
        -2587.0
      ],
      [
        "▁ክር",
        -2588.0
      ],
      [
        "▁ማስረጃ",
        -2589.0
      ],
      [
        "ጋቸው",
        -2590.0
      ],
      [
        "ችሁን",
        -2591.0
      ],
      [
        "▁አስተዋ",
        -2592.0
      ],
      [
        "▁ገቢ",
        -2593.0
      ],
      [
        "ዳቤ",
        -2594.0
      ],
      [
        "▁የበላይ",
        -2595.0
      ],
      [
        "ችለው",
        -2596.0
      ],
      [
        "▁ዘርፍ",
        -2597.0
      ],
      [
        "▁የሚፈ",
        -2598.0
      ],
      [
        "OA",
        -2599.0
      ],
      [
        "▁ተወካ",
        -2600.0
      ],
      [
        "▁ክፍለ",
        -2601.0
      ],
      [
        "▁አንዳን",
        -2602.0
      ],
      [
        "▁እርሱ",
        -2603.0
      ],
      [
        "▁ባለቤት",
        -2604.0
      ],
      [
        "▁ጅ",
        -2605.0
      ],
      [
        "▁ለብ",
        -2606.0
      ],
      [
        "መለከት",
        -2607.0
      ],
      [
        "▁ጭምር",
        -2608.0
      ],
      [
        "ሏል፡፡",
        -2609.0
      ],
      [
        "▁ki",
        -2610.0
      ],
      [
        "ap",
        -2611.0
      ],
      [
        "▁ሃይ",
        -2612.0
      ],
      [
        "ደባ",
        -2613.0
      ],
      [
        "▁ያስተ",
        -2614.0
      ],
      [
        "▁ዳር",
        -2615.0
      ],
      [
        "▁ያስፈልጋ",
        -2616.0
      ],
      [
        "▁dama",
        -2617.0
      ],
      [
        "▁ሃሳብ",
        -2618.0
      ],
      [
        "▁የቻ",
        -2619.0
      ],
      [
        "▁ቃለ",
        -2620.0
      ],
      [
        "ነቶች",
        -2621.0
      ],
      [
        "▁50",
        -2622.0
      ],
      [
        "▁አድርገው",
        -2623.0
      ],
      [
        "ናገሩት",
        -2624.0
      ],
      [
        "ቦችን",
        -2625.0
      ],
      [
        "▁ጥበቃ",
        -2626.0
      ],
      [
        "▁matsayin",
        -2627.0
      ],
      [
        "▁ሰልፍ",
        -2628.0
      ],
      [
        "▁ሆኗ",
        -2629.0
      ],
      [
        "ስተኛ",
        -2630.0
      ],
      [
        "መለካ",
        -2631.0
      ],
      [
        "▁yau",
        -2632.0
      ],
      [
        "ቀርቡ",
        -2633.0
      ],
      [
        "▁የተመ",
        -2634.0
      ],
      [
        "▁ነፍ",
        -2635.0
      ],
      [
        "▁ማንም",
        -2636.0
      ],
      [
        "ጣጫ",
        -2637.0
      ],
      [
        "▁y",
        -2638.0
      ],
      [
        "▁ይኖ",
        -2639.0
      ],
      [
        "ቀሳ",
        -2640.0
      ],
      [
        "▁ለማሳ",
        -2641.0
      ],
      [
        "▁dauk",
        -2642.0
      ],
      [
        "▁ትናንት",
        -2643.0
      ],
      [
        "ልቃ",
        -2644.0
      ],
      [
        "▁ada",
        -2645.0
      ],
      [
        "▁ትንሽ",
        -2646.0
      ],
      [
        "▁የሕዝብ",
        -2647.0
      ],
      [
        "ዲት",
        -2648.0
      ],
      [
        "▁ሰባት",
        -2649.0
      ],
      [
        "ዋቂ",
        -2650.0
      ],
      [
        "ነር",
        -2651.0
      ],
      [
        "▁ገብረ",
        -2652.0
      ],
      [
        "th",
        -2653.0
      ],
      [
        "ፊዎች",
        -2654.0
      ],
      [
        "▁ወዲህ",
        -2655.0
      ],
      [
        "▁ፈቃድ",
        -2656.0
      ],
      [
        "▁ፕሮግራም",
        -2657.0
      ],
      [
        "▁ጋዜጣ",
        -2658.0
      ],
      [
        "aika",
        -2659.0
      ],
      [
        "▁የጦር",
        -2660.0
      ],
      [
        "▁Su",
        -2661.0
      ],
      [
        "▁ምክትል",
        -2662.0
      ],
      [
        "▁የተፈ",
        -2663.0
      ],
      [
        "▁ዝግጅት",
        -2664.0
      ],
      [
        "irka",
        -2665.0
      ],
      [
        "ለፍ",
        -2666.0
      ],
      [
        "▁yayi",
        -2667.0
      ],
      [
        "▁እያሉ",
        -2668.0
      ],
      [
        "▁መልክ",
        -2669.0
      ],
      [
        "▁አለም",
        -2670.0
      ],
      [
        "▁ጃ",
        -2671.0
      ],
      [
        "▁የፈ",
        -2672.0
      ],
      [
        "16",
        -2673.0
      ],
      [
        "▁ተመሳሳይ",
        -2674.0
      ],
      [
        "መጡ",
        -2675.0
      ],
      [
        "▁tabb",
        -2676.0
      ],
      [
        "ንቅ",
        -2677.0
      ],
      [
        "▁musu",
        -2678.0
      ],
      [
        "▁እንዲሆን",
        -2679.0
      ],
      [
        "▁አላቸው",
        -2680.0
      ],
      [
        "amar",
        -2681.0
      ],
      [
        "▁ፈተና",
        -2682.0
      ],
      [
        "▁ፕሮጀ",
        -2683.0
      ],
      [
        "itin",
        -2684.0
      ],
      [
        "ሴቶች",
        -2685.0
      ],
      [
        "▁ሰር",
        -2686.0
      ],
      [
        "!”",
        -2687.0
      ],
      [
        "ኛል",
        -2688.0
      ],
      [
        "▁አጋጣሚ",
        -2689.0
      ],
      [
        "▁Maj",
        -2690.0
      ],
      [
        "▁መላ",
        -2691.0
      ],
      [
        "▁ግብር",
        -2692.0
      ],
      [
        "ደርገው",
        -2693.0
      ],
      [
        "ተዋል",
        -2694.0
      ],
      [
        "ቲት",
        -2695.0
      ],
      [
        "ንጉ",
        -2696.0
      ],
      [
        "▁በስተ",
        -2697.0
      ],
      [
        "▁አልፎ",
        -2698.0
      ],
      [
        "ዳቸው",
        -2699.0
      ],
      [
        "far",
        -2700.0
      ],
      [
        "ሎስ",
        -2701.0
      ],
      [
        "ቃቸው",
        -2702.0
      ],
      [
        "▁ነን",
        -2703.0
      ],
      [
        "▁አይችል",
        -2704.0
      ],
      [
        "ጊዜው",
        -2705.0
      ],
      [
        "▁አመራሮች",
        -2706.0
      ],
      [
        "▁ይባ",
        -2707.0
      ],
      [
        "▁ቀላል",
        -2708.0
      ],
      [
        "▁ከአንድ",
        -2709.0
      ],
      [
        "ቀፍ",
        -2710.0
      ],
      [
        "▁ቱ",
        -2711.0
      ],
      [
        "▁መኖር",
        -2712.0
      ],
      [
        "▁ሜትር",
        -2713.0
      ],
      [
        "ፌደራል",
        -2714.0
      ],
      [
        "▁በመንግ",
        -2715.0
      ],
      [
        "ቃል።",
        -2716.0
      ],
      [
        "▁ገልፀ",
        -2717.0
      ],
      [
        "▁የሥ",
        -2718.0
      ],
      [
        "ዊት",
        -2719.0
      ],
      [
        "ረር",
        -2720.0
      ],
      [
        "▁24",
        -2721.0
      ],
      [
        "▁ይችላል።",
        -2722.0
      ],
      [
        "▁ተሳ",
        -2723.0
      ],
      [
        "ረኞች",
        -2724.0
      ],
      [
        "▁የወያኔ",
        -2725.0
      ],
      [
        "ሬሽን",
        -2726.0
      ],
      [
        "▁ምል",
        -2727.0
      ],
      [
        "▁ያደርጋ",
        -2728.0
      ],
      [
        "▁መልእ",
        -2729.0
      ],
      [
        "▁ግልጽ",
        -2730.0
      ],
      [
        "▁እንዳያ",
        -2731.0
      ],
      [
        "▁ከበ",
        -2732.0
      ],
      [
        "▁jin",
        -2733.0
      ],
      [
        "▁Mus",
        -2734.0
      ],
      [
        "▁binc",
        -2735.0
      ],
      [
        "መም",
        -2736.0
      ],
      [
        "▁Le",
        -2737.0
      ],
      [
        "ሱዳን",
        -2738.0
      ],
      [
        "▁ጠይ",
        -2739.0
      ],
      [
        "▁ግለሰብ",
        -2740.0
      ],
      [
        "ቀበል",
        -2741.0
      ],
      [
        "▁እናም",
        -2742.0
      ],
      [
        "▁ከዚያም",
        -2743.0
      ],
      [
        "ስቸኳይ",
        -2744.0
      ],
      [
        "▁ስታ",
        -2745.0
      ],
      [
        "ጥነት",
        -2746.0
      ],
      [
        "▁በታች",
        -2747.0
      ],
      [
        "ዘተ",
        -2748.0
      ],
      [
        "ፕሎ",
        -2749.0
      ],
      [
        "▁ከላይ",
        -2750.0
      ],
      [
        "▁ቢያ",
        -2751.0
      ],
      [
        "▁የመስ",
        -2752.0
      ],
      [
        "▁የሚሆኑ",
        -2753.0
      ],
      [
        "ዥን",
        -2754.0
      ],
      [
        "ጋንዳ",
        -2755.0
      ],
      [
        "ስትሪ",
        -2756.0
      ],
      [
        "▁ሰሞ",
        -2757.0
      ],
      [
        "▁እናንተ",
        -2758.0
      ],
      [
        "gar",
        -2759.0
      ],
      [
        "▁VOA",
        -2760.0
      ],
      [
        "▁ምግብ",
        -2761.0
      ],
      [
        "▁ሹ",
        -2762.0
      ],
      [
        "▁መንግሥታት",
        -2763.0
      ],
      [
        "▁ህገ",
        -2764.0
      ],
      [
        "▁ከታ",
        -2765.0
      ],
      [
        "▁lam",
        -2766.0
      ],
      [
        "ure",
        -2767.0
      ],
      [
        "ውጣት",
        -2768.0
      ],
      [
        "▁ምርመራ",
        -2769.0
      ],
      [
        "ዩት",
        -2770.0
      ],
      [
        "ኤርትራ",
        -2771.0
      ],
      [
        "▁አካባቢዎች",
        -2772.0
      ],
      [
        "▁ድምጽ",
        -2773.0
      ],
      [
        "▁ተግባራዊ",
        -2774.0
      ],
      [
        "▁እስኪ",
        -2775.0
      ],
      [
        "▁farko",
        -2776.0
      ],
      [
        "ለብ",
        -2777.0
      ],
      [
        "▁ሰፊ",
        -2778.0
      ],
      [
        "ሁፍ",
        -2779.0
      ],
      [
        "ዳሴ",
        -2780.0
      ],
      [
        "▁በበኩ",
        -2781.0
      ],
      [
        "ደጋጋሚ",
        -2782.0
      ],
      [
        "st",
        -2783.0
      ],
      [
        "ለያየ",
        -2784.0
      ],
      [
        "▁ጥያቄዎች",
        -2785.0
      ],
      [
        "▁ተጋ",
        -2786.0
      ],
      [
        "▁ባሕ",
        -2787.0
      ],
      [
        "▁ይላል",
        -2788.0
      ],
      [
        "▁zaman",
        -2789.0
      ],
      [
        "ፌስ",
        -2790.0
      ],
      [
        "▁የነበሩት",
        -2791.0
      ],
      [
        "▁ሚና",
        -2792.0
      ],
      [
        "ማማ",
        -2793.0
      ],
      [
        "ያንስ",
        -2794.0
      ],
      [
        "▁ቅዱ",
        -2795.0
      ],
      [
        "▁ደቡብ",
        -2796.0
      ],
      [
        "ንዱ",
        -2797.0
      ],
      [
        "▁ብል",
        -2798.0
      ],
      [
        "▁ውሃ",
        -2799.0
      ],
      [
        "▁መስጠት",
        -2800.0
      ],
      [
        "▁ወገኖች",
        -2801.0
      ],
      [
        "ዳደ",
        -2802.0
      ],
      [
        "▁ሃገር",
        -2803.0
      ],
      [
        "▁ባለፉት",
        -2804.0
      ],
      [
        "▁kira",
        -2805.0
      ],
      [
        "ናይ",
        -2806.0
      ],
      [
        "▁majalisar",
        -2807.0
      ],
      [
        "▁ሥነ",
        -2808.0
      ],
      [
        "▁የበለጠ",
        -2809.0
      ],
      [
        "ራይ",
        -2810.0
      ],
      [
        "▁Tr",
        -2811.0
      ],
      [
        "be",
        -2812.0
      ],
      [
        "▁መሣ",
        -2813.0
      ],
      [
        "kiya",
        -2814.0
      ],
      [
        "ሄዱ",
        -2815.0
      ],
      [
        "ወጣው",
        -2816.0
      ],
      [
        "▁ሶስት",
        -2817.0
      ],
      [
        "▁አንደ",
        -2818.0
      ],
      [
        "▁Mai",
        -2819.0
      ],
      [
        "ናገሩ",
        -2820.0
      ],
      [
        "▁ሁለተኛ",
        -2821.0
      ],
      [
        "▁labar",
        -2822.0
      ],
      [
        "▁ያለበት",
        -2823.0
      ],
      [
        "ናልባት",
        -2824.0
      ],
      [
        "anga",
        -2825.0
      ],
      [
        "ችኋ",
        -2826.0
      ],
      [
        "ካን",
        -2827.0
      ],
      [
        "▁ዳይሬ",
        -2828.0
      ],
      [
        "ተኝነት",
        -2829.0
      ],
      [
        "▁አግኝ",
        -2830.0
      ],
      [
        "▁2010",
        -2831.0
      ],
      [
        "መጥ",
        -2832.0
      ],
      [
        "▁ዝም",
        -2833.0
      ],
      [
        "▁tana",
        -2834.0
      ],
      [
        "▁ጠንካራ",
        -2835.0
      ],
      [
        "▁ለመፍ",
        -2836.0
      ],
      [
        "ገራቸው",
        -2837.0
      ],
      [
        "14",
        -2838.0
      ],
      [
        "▁መክ",
        -2839.0
      ],
      [
        "▁kal",
        -2840.0
      ],
      [
        "▁የድር",
        -2841.0
      ],
      [
        "▁2017",
        -2842.0
      ],
      [
        "▁የዓ",
        -2843.0
      ],
      [
        "▁ወገን",
        -2844.0
      ],
      [
        "ቀን",
        -2845.0
      ],
      [
        "▁The",
        -2846.0
      ],
      [
        "▁በሽታ",
        -2847.0
      ],
      [
        "won",
        -2848.0
      ],
      [
        "▁ጥላ",
        -2849.0
      ],
      [
        "kil",
        -2850.0
      ],
      [
        "▁masa",
        -2851.0
      ],
      [
        "▁ማስታወ",
        -2852.0
      ],
      [
        "▁ቴክኖሎጂ",
        -2853.0
      ],
      [
        "▁የሚባል",
        -2854.0
      ],
      [
        "▁በወቅቱ",
        -2855.0
      ],
      [
        "▁ታዲያ",
        -2856.0
      ],
      [
        "ታችንን",
        -2857.0
      ],
      [
        "▁taima",
        -2858.0
      ],
      [
        "▁ወስ",
        -2859.0
      ],
      [
        "▁neman",
        -2860.0
      ],
      [
        "▁ተገል",
        -2861.0
      ],
      [
        "▁የሆኑት",
        -2862.0
      ],
      [
        "▁በመሆን",
        -2863.0
      ],
      [
        "▁AP",
        -2864.0
      ],
      [
        "▁be",
        -2865.0
      ],
      [
        "ናንተ",
        -2866.0
      ],
      [
        "dai",
        -2867.0
      ],
      [
        "ለበት",
        -2868.0
      ],
      [
        "▁በተጨማሪም",
        -2869.0
      ],
      [
        "▁shekaru",
        -2870.0
      ],
      [
        "▁Za",
        -2871.0
      ],
      [
        "ሉበት",
        -2872.0
      ],
      [
        "▁የለም።",
        -2873.0
      ],
      [
        "ትርያ",
        -2874.0
      ],
      [
        ",000",
        -2875.0
      ],
      [
        "▁ከው",
        -2876.0
      ],
      [
        "▁taron",
        -2877.0
      ],
      [
        "hotanni",
        -2878.0
      ],
      [
        "ሊክ",
        -2879.0
      ],
      [
        "ረቱ",
        -2880.0
      ],
      [
        "pp",
        -2881.0
      ],
      [
        "ሌት",
        -2882.0
      ],
      [
        "ጥፋት",
        -2883.0
      ],
      [
        "ስተር",
        -2884.0
      ],
      [
        "▁kafa",
        -2885.0
      ],
      [
        "ፉን",
        -2886.0
      ],
      [
        "▁የኮሮናቫይረስ",
        -2887.0
      ],
      [
        "▁ana",
        -2888.0
      ],
      [
        "▁lafiya",
        -2889.0
      ],
      [
        "▁መፍትሄ",
        -2890.0
      ],
      [
        "▁hakan",
        -2891.0
      ],
      [
        "ኝ።",
        -2892.0
      ],
      [
        "▁በዚሁ",
        -2893.0
      ],
      [
        "hu",
        -2894.0
      ],
      [
        "በቅ",
        -2895.0
      ],
      [
        "▁?",
        -2896.0
      ],
      [
        "ጋና",
        -2897.0
      ],
      [
        "ረጋግ",
        -2898.0
      ],
      [
        "▁መፈ",
        -2899.0
      ],
      [
        "asan",
        -2900.0
      ],
      [
        "ገለጸ",
        -2901.0
      ],
      [
        "▁akwai",
        -2902.0
      ],
      [
        "▁tabbatar",
        -2903.0
      ],
      [
        "▁እንድት",
        -2904.0
      ],
      [
        "▁koma",
        -2905.0
      ],
      [
        "ኖዶ",
        -2906.0
      ],
      [
        "▁ይፈ",
        -2907.0
      ],
      [
        "▁ማርያም",
        -2908.0
      ],
      [
        "▁ምሁ",
        -2909.0
      ],
      [
        "▁ስለተ",
        -2910.0
      ],
      [
        "ow",
        -2911.0
      ],
      [
        "ቷን",
        -2912.0
      ],
      [
        "▁ሕዝቡ",
        -2913.0
      ],
      [
        "ራምፕ",
        -2914.0
      ],
      [
        "ዛሬው",
        -2915.0
      ],
      [
        "▁ንግድ",
        -2916.0
      ],
      [
        "▁Bayan",
        -2917.0
      ],
      [
        "ባር",
        -2918.0
      ],
      [
        "▁gida",
        -2919.0
      ],
      [
        "▁ለሕ",
        -2920.0
      ],
      [
        "ሰጡ",
        -2921.0
      ],
      [
        "▁23",
        -2922.0
      ],
      [
        "▁የተባለው",
        -2923.0
      ],
      [
        "▁game",
        -2924.0
      ],
      [
        "▁ሰራ",
        -2925.0
      ],
      [
        "▁21",
        -2926.0
      ],
      [
        "▁የጨ",
        -2927.0
      ],
      [
        "ኛውን",
        -2928.0
      ],
      [
        "▁Is",
        -2929.0
      ],
      [
        "ልማት",
        -2930.0
      ],
      [
        "ታወቅ",
        -2931.0
      ],
      [
        "ከላዊ",
        -2932.0
      ],
      [
        "▁ያን",
        -2933.0
      ],
      [
        "▁2019",
        -2934.0
      ],
      [
        "▁ሆይ",
        -2935.0
      ],
      [
        "▁Labar",
        -2936.0
      ],
      [
        "▁አቅጣጫ",
        -2937.0
      ],
      [
        "ንበት",
        -2938.0
      ],
      [
        "▁ray",
        -2939.0
      ],
      [
        "ሕአዴግ",
        -2940.0
      ],
      [
        "▁የእግዚአብሔር",
        -2941.0
      ],
      [
        "▁ዘመቻ",
        -2942.0
      ],
      [
        "ስፒ",
        -2943.0
      ],
      [
        "han",
        -2944.0
      ],
      [
        "ከባ",
        -2945.0
      ],
      [
        "ኒያ",
        -2946.0
      ],
      [
        "▁አመለካ",
        -2947.0
      ],
      [
        "ብዛ",
        -2948.0
      ],
      [
        "▁ትክክ",
        -2949.0
      ],
      [
        "ጋቢት",
        -2950.0
      ],
      [
        "▁ጄ",
        -2951.0
      ],
      [
        "መናዊ",
        -2952.0
      ],
      [
        "▁ራሱን",
        -2953.0
      ],
      [
        "▁mus",
        -2954.0
      ],
      [
        "od",
        -2955.0
      ],
      [
        "▁ቢቢሲ",
        -2956.0
      ],
      [
        "▁ደብዳቤ",
        -2957.0
      ],
      [
        "ሆነው",
        -2958.0
      ],
      [
        "ልስ",
        -2959.0
      ],
      [
        "▁መጨረሻ",
        -2960.0
      ],
      [
        "▁ዝርዝር",
        -2961.0
      ],
      [
        "▁የነበረውን",
        -2962.0
      ],
      [
        "▁ደን",
        -2963.0
      ],
      [
        "▁የድ",
        -2964.0
      ],
      [
        "▁ዛ",
        -2965.0
      ],
      [
        "ፌሰር",
        -2966.0
      ],
      [
        "▁ባህል",
        -2967.0
      ],
      [
        "unar",
        -2968.0
      ],
      [
        "▁Bid",
        -2969.0
      ],
      [
        "est",
        -2970.0
      ],
      [
        "ራው",
        -2971.0
      ],
      [
        "▁አገልግሎ",
        -2972.0
      ],
      [
        "▁እንደሚችል",
        -2973.0
      ],
      [
        "ዝም",
        -2974.0
      ],
      [
        "▁hada",
        -2975.0
      ],
      [
        "▁መነሻ",
        -2976.0
      ],
      [
        "ጠበቀ",
        -2977.0
      ],
      [
        "iger",
        -2978.0
      ],
      [
        "▁እርዳታ",
        -2979.0
      ],
      [
        "▁ጳጳ",
        -2980.0
      ],
      [
        "▁በጋራ",
        -2981.0
      ],
      [
        "ቴን",
        -2982.0
      ],
      [
        "ጀርመን",
        -2983.0
      ],
      [
        "▁Ima",
        -2984.0
      ],
      [
        "▁ዉስጥ",
        -2985.0
      ],
      [
        "ርቶዶክስ",
        -2986.0
      ],
      [
        "▁hanyar",
        -2987.0
      ],
      [
        "▁ብለዋል፡፡",
        -2988.0
      ],
      [
        "▁ወይስ",
        -2989.0
      ],
      [
        "▁jama",
        -2990.0
      ],
      [
        "▁ትርጉም",
        -2991.0
      ],
      [
        "ምሌ",
        -2992.0
      ],
      [
        "መነ",
        -2993.0
      ],
      [
        "ፕሎማ",
        -2994.0
      ],
      [
        "▁Wannan",
        -2995.0
      ],
      [
        "መልከት",
        -2996.0
      ],
      [
        "▁Haram",
        -2997.0
      ],
      [
        "▁ምናልባት",
        -2998.0
      ],
      [
        "ዋት",
        -2999.0
      ],
      [
        "ሁት",
        -3000.0
      ],
      [
        "▁የሚያሳ",
        -3001.0
      ],
      [
        "▁የደረ",
        -3002.0
      ],
      [
        "▁ማድረ",
        -3003.0
      ],
      [
        "ያንዳንዱ",
        -3004.0
      ],
      [
        "▁ምርጥ",
        -3005.0
      ],
      [
        "▁የሚገኘው",
        -3006.0
      ],
      [
        "ጣይ",
        -3007.0
      ],
      [
        "▁ህዝቡ",
        -3008.0
      ],
      [
        "▁አመታት",
        -3009.0
      ],
      [
        "ከው",
        -3010.0
      ],
      [
        "ሃል",
        -3011.0
      ],
      [
        "▁ስህ",
        -3012.0
      ],
      [
        "ቅርብ",
        -3013.0
      ],
      [
        "▁ያደረገ",
        -3014.0
      ],
      [
        "▁በመሆኑም",
        -3015.0
      ],
      [
        "ርላማ",
        -3016.0
      ],
      [
        "▁gwamnati",
        -3017.0
      ],
      [
        "ፌዴራል",
        -3018.0
      ],
      [
        "▁በነበረ",
        -3019.0
      ],
      [
        "▁ገበያ",
        -3020.0
      ],
      [
        "▁tsaro",
        -3021.0
      ],
      [
        "▁ታሪካ",
        -3022.0
      ],
      [
        "▁እነዚህን",
        -3023.0
      ],
      [
        "ሩም",
        -3024.0
      ],
      [
        "▁gab",
        -3025.0
      ],
      [
        "▁Boko",
        -3026.0
      ],
      [
        "▁ናት",
        -3027.0
      ],
      [
        "በኞች",
        -3028.0
      ],
      [
        "ዳሜ",
        -3029.0
      ],
      [
        "unan",
        -3030.0
      ],
      [
        "ohon",
        -3031.0
      ],
      [
        "▁አዲሱ",
        -3032.0
      ],
      [
        "▁ጋዜጠኛ",
        -3033.0
      ],
      [
        "ጠቀሙ",
        -3034.0
      ],
      [
        "▁Man",
        -3035.0
      ],
      [
        "▁በእርግጥ",
        -3036.0
      ],
      [
        "ህነት",
        -3037.0
      ],
      [
        "▁take",
        -3038.0
      ],
      [
        "▁kawo",
        -3039.0
      ],
      [
        "▁መሣሪያ",
        -3040.0
      ],
      [
        "▁27",
        -3041.0
      ],
      [
        "ወድ",
        -3042.0
      ],
      [
        "▁sauran",
        -3043.0
      ],
      [
        "▁ናይ",
        -3044.0
      ],
      [
        "▁Tur",
        -3045.0
      ],
      [
        "▁ወዘተ",
        -3046.0
      ],
      [
        "▁በሌሎች",
        -3047.0
      ],
      [
        "▁ተሸ",
        -3048.0
      ],
      [
        "▁የተደረገ",
        -3049.0
      ],
      [
        "▁ከተሞች",
        -3050.0
      ],
      [
        "ማሽ",
        -3051.0
      ],
      [
        "ቀድ",
        -3052.0
      ],
      [
        "▁ፖሊሲ",
        -3053.0
      ],
      [
        "uni",
        -3054.0
      ],
      [
        "▁ደረ",
        -3055.0
      ],
      [
        "▁የተለየ",
        -3056.0
      ],
      [
        "▁yawan",
        -3057.0
      ],
      [
        "▁ዋንጫ",
        -3058.0
      ],
      [
        "ali",
        -3059.0
      ],
      [
        "30",
        -3060.0
      ],
      [
        "▁22",
        -3061.0
      ],
      [
        "▁ልማ",
        -3062.0
      ],
      [
        "▁የኦሮሚያ",
        -3063.0
      ],
      [
        "▁መጀመሪያ",
        -3064.0
      ],
      [
        "ly",
        -3065.0
      ],
      [
        "▁ዕድል",
        -3066.0
      ],
      [
        "▁መመሪያ",
        -3067.0
      ],
      [
        "▁የወጣ",
        -3068.0
      ],
      [
        "▁Muh",
        -3069.0
      ],
      [
        "▁100",
        -3070.0
      ],
      [
        "መንበር",
        -3071.0
      ],
      [
        "▁የምርጫ",
        -3072.0
      ],
      [
        "▁ከቀ",
        -3073.0
      ],
      [
        "▁አባት",
        -3074.0
      ],
      [
        "ica",
        -3075.0
      ],
      [
        "▁bar",
        -3076.0
      ],
      [
        "ጠቁ",
        -3077.0
      ],
      [
        "▁sojo",
        -3078.0
      ],
      [
        "▁ኬ",
        -3079.0
      ],
      [
        "▁ግንባር",
        -3080.0
      ],
      [
        "▁ሉ",
        -3081.0
      ],
      [
        "ይህ",
        -3082.0
      ],
      [
        "ሳው",
        -3083.0
      ],
      [
        "▁ሪፖርት",
        -3084.0
      ],
      [
        "▁ተወላ",
        -3085.0
      ],
      [
        "▁ተጫዋ",
        -3086.0
      ],
      [
        "▁ሰላ",
        -3087.0
      ],
      [
        "▁ከህ",
        -3088.0
      ],
      [
        "ምገ",
        -3089.0
      ],
      [
        "▁አሻ",
        -3090.0
      ],
      [
        "▁ሲሆን፣",
        -3091.0
      ],
      [
        "የተ",
        -3092.0
      ],
      [
        "▁የምታ",
        -3093.0
      ],
      [
        "▁Nij",
        -3094.0
      ],
      [
        "▁፡፡",
        -3095.0
      ],
      [
        "▁ፖለቲካዊ",
        -3096.0
      ],
      [
        "▁በአጠቃላይ",
        -3097.0
      ],
      [
        "▁ጥቅ",
        -3098.0
      ],
      [
        "ካሪ",
        -3099.0
      ],
      [
        "ደሰ",
        -3100.0
      ],
      [
        "▁የገንዘብ",
        -3101.0
      ],
      [
        "▁ግለሰቦች",
        -3102.0
      ],
      [
        "ፈጸም",
        -3103.0
      ],
      [
        "▁ኖሮ",
        -3104.0
      ],
      [
        "▁ዓይ",
        -3105.0
      ],
      [
        "▁መጻ",
        -3106.0
      ],
      [
        "ንግሊዝ",
        -3107.0
      ],
      [
        "▁የሰብዓዊ",
        -3108.0
      ],
      [
        "ሌክት",
        -3109.0
      ],
      [
        "▁ምንጭ",
        -3110.0
      ],
      [
        "▁La",
        -3111.0
      ],
      [
        "▁የኤርትራ",
        -3112.0
      ],
      [
        "▁ይኸ",
        -3113.0
      ],
      [
        "▁እኩል",
        -3114.0
      ],
      [
        "ራንስ",
        -3115.0
      ],
      [
        "▁የዩናይትድ",
        -3116.0
      ],
      [
        "ህር",
        -3117.0
      ],
      [
        "ለል",
        -3118.0
      ],
      [
        "▁አቋም",
        -3119.0
      ],
      [
        "ashi",
        -3120.0
      ],
      [
        "▁ሙስሊ",
        -3121.0
      ],
      [
        "▁ይሆናል።",
        -3122.0
      ],
      [
        "▁ለወ",
        -3123.0
      ],
      [
        "▁ድል",
        -3124.0
      ],
      [
        "▁ለዘ",
        -3125.0
      ],
      [
        "▁እንደሌ",
        -3126.0
      ],
      [
        "▁እሱ",
        -3127.0
      ],
      [
        "▁ማዕከል",
        -3128.0
      ],
      [
        "▁sama",
        -3129.0
      ],
      [
        "▁አለ።",
        -3130.0
      ],
      [
        "▁wu",
        -3131.0
      ],
      [
        "ሸት",
        -3132.0
      ],
      [
        "▁gidan",
        -3133.0
      ],
      [
        "▁ታስ",
        -3134.0
      ],
      [
        "▁አለባቸው",
        -3135.0
      ],
      [
        "▁ነውና",
        -3136.0
      ],
      [
        "ሳኝ",
        -3137.0
      ],
      [
        "▁ደቂቃ",
        -3138.0
      ],
      [
        "▁ሲባል",
        -3139.0
      ],
      [
        "▁የሚገባ",
        -3140.0
      ],
      [
        "ኘው",
        -3141.0
      ],
      [
        "▁ነፃነት",
        -3142.0
      ],
      [
        "▁አስመል",
        -3143.0
      ],
      [
        "ru",
        -3144.0
      ],
      [
        "▁ስፍራ",
        -3145.0
      ],
      [
        "ሾች",
        -3146.0
      ],
      [
        "▁Niger",
        -3147.0
      ],
      [
        "ች።",
        -3148.0
      ],
      [
        "▁Ko",
        -3149.0
      ],
      [
        "ይታ",
        -3150.0
      ],
      [
        "▁ጉድ",
        -3151.0
      ],
      [
        "▁uku",
        -3152.0
      ],
      [
        "▁ከት",
        -3153.0
      ],
      [
        "▁She",
        -3154.0
      ],
      [
        "▁ልዩነት",
        -3155.0
      ],
      [
        "▁አማራጭ",
        -3156.0
      ],
      [
        "ዕኖ",
        -3157.0
      ],
      [
        "▁can",
        -3158.0
      ],
      [
        "ሁድ",
        -3159.0
      ],
      [
        "▁የጠ",
        -3160.0
      ],
      [
        "▁ያላቸውን",
        -3161.0
      ],
      [
        "▁አሉ።",
        -3162.0
      ],
      [
        "lar",
        -3163.0
      ],
      [
        "ፈልገው",
        -3164.0
      ],
      [
        "ላንድ",
        -3165.0
      ],
      [
        "50",
        -3166.0
      ],
      [
        "▁takar",
        -3167.0
      ],
      [
        "▁ማየት",
        -3168.0
      ],
      [
        "▁ደስታ",
        -3169.0
      ],
      [
        "▁ዕድሜ",
        -3170.0
      ],
      [
        "▁shekarar",
        -3171.0
      ],
      [
        "ሰጠው",
        -3172.0
      ],
      [
        "እን",
        -3173.0
      ],
      [
        "▁ሪፖር",
        -3174.0
      ],
      [
        "▁ሁሉንም",
        -3175.0
      ],
      [
        "በታል።",
        -3176.0
      ],
      [
        "▁ሞት",
        -3177.0
      ],
      [
        "▁በገ",
        -3178.0
      ],
      [
        "▁በራሱ",
        -3179.0
      ],
      [
        "ደንት",
        -3180.0
      ],
      [
        "▁hanka",
        -3181.0
      ],
      [
        "adda",
        -3182.0
      ],
      [
        "▁እንደገና",
        -3183.0
      ],
      [
        "ኒው",
        -3184.0
      ],
      [
        "▁ለሌ",
        -3185.0
      ],
      [
        "▁የአውሮፓ",
        -3186.0
      ],
      [
        "ሏል",
        -3187.0
      ],
      [
        "▁ከብ",
        -3188.0
      ],
      [
        "ምርጫ",
        -3189.0
      ],
      [
        "▁ጥና",
        -3190.0
      ],
      [
        "▁መልዕክት",
        -3191.0
      ],
      [
        "▁Sai",
        -3192.0
      ],
      [
        "▁guda",
        -3193.0
      ],
      [
        "▁ኦሮሞ",
        -3194.0
      ],
      [
        "▁በደቡብ",
        -3195.0
      ],
      [
        "▁Ar",
        -3196.0
      ],
      [
        "▁ብት",
        -3197.0
      ],
      [
        "▁አለማ",
        -3198.0
      ],
      [
        "ግዚአብሄር",
        -3199.0
      ],
      [
        "ናፊ",
        -3200.0
      ],
      [
        "▁ራሱ",
        -3201.0
      ],
      [
        "ince",
        -3202.0
      ],
      [
        "▁babu",
        -3203.0
      ],
      [
        "anda",
        -3204.0
      ],
      [
        "ብሪካ",
        -3205.0
      ],
      [
        "▁የእር",
        -3206.0
      ],
      [
        "▁ኃይሎች",
        -3207.0
      ],
      [
        "▁ጉባዔ",
        -3208.0
      ],
      [
        "▁Ji",
        -3209.0
      ],
      [
        "iliyan",
        -3210.0
      ],
      [
        "▁መብቶች",
        -3211.0
      ],
      [
        "ቃቤ",
        -3212.0
      ],
      [
        "ፎር",
        -3213.0
      ],
      [
        "▁ዘዴ",
        -3214.0
      ],
      [
        "▁ሙከራ",
        -3215.0
      ],
      [
        "▁kasance",
        -3216.0
      ],
      [
        "ሎቹ",
        -3217.0
      ],
      [
        "ሐንስ",
        -3218.0
      ],
      [
        "▁በተያያዘ",
        -3219.0
      ],
      [
        "▁እንግዲህ",
        -3220.0
      ],
      [
        "ስቲ",
        -3221.0
      ],
      [
        "▁ግራ",
        -3222.0
      ],
      [
        "▁ሁለቱ",
        -3223.0
      ],
      [
        "▁ቢያንስ",
        -3224.0
      ],
      [
        "▁ዕው",
        -3225.0
      ],
      [
        "iye",
        -3226.0
      ],
      [
        "▁የምግብ",
        -3227.0
      ],
      [
        "▁ማረ",
        -3228.0
      ],
      [
        "eb",
        -3229.0
      ],
      [
        "ዎች፣",
        -3230.0
      ],
      [
        "▁Kano",
        -3231.0
      ],
      [
        "▁that",
        -3232.0
      ],
      [
        "▁sau",
        -3233.0
      ],
      [
        "▁በማን",
        -3234.0
      ],
      [
        "gen",
        -3235.0
      ],
      [
        "▁ሚሊ",
        -3236.0
      ],
      [
        "ump",
        -3237.0
      ],
      [
        "ጠንቀ",
        -3238.0
      ],
      [
        "በረታ",
        -3239.0
      ],
      [
        "▁ከሌሎች",
        -3240.0
      ],
      [
        "▁አወ",
        -3241.0
      ],
      [
        "ዮር",
        -3242.0
      ],
      [
        "ግባብ",
        -3243.0
      ],
      [
        "▁በአፍሪካ",
        -3244.0
      ],
      [
        "▁እንደማ",
        -3245.0
      ],
      [
        "▁ሀገራት",
        -3246.0
      ],
      [
        "▁ራስ",
        -3247.0
      ],
      [
        "▁የፎቶ",
        -3248.0
      ],
      [
        "▁ከሚያ",
        -3249.0
      ],
      [
        "▁በኃ",
        -3250.0
      ],
      [
        "▁ሥርዓ",
        -3251.0
      ],
      [
        "ቀሰ",
        -3252.0
      ],
      [
        "shen",
        -3253.0
      ],
      [
        "▁Rahotanni",
        -3254.0
      ],
      [
        "ግም",
        -3255.0
      ],
      [
        "▁የመጀመሪያው",
        -3256.0
      ],
      [
        "መንት",
        -3257.0
      ],
      [
        "ሳል።",
        -3258.0
      ],
      [
        "▁በቃ",
        -3259.0
      ],
      [
        "▁shirin",
        -3260.0
      ],
      [
        "ጻሚ",
        -3261.0
      ],
      [
        "▁ግዛ",
        -3262.0
      ],
      [
        "▁ወደፊት",
        -3263.0
      ],
      [
        "kamakon",
        -3264.0
      ],
      [
        "▁ማር",
        -3265.0
      ],
      [
        "▁የአየር",
        -3266.0
      ],
      [
        "▁cutar",
        -3267.0
      ],
      [
        "▁sake",
        -3268.0
      ],
      [
        "▁መስመር",
        -3269.0
      ],
      [
        "ፍሪቃ",
        -3270.0
      ],
      [
        "ብረተሰብ",
        -3271.0
      ],
      [
        "▁አብሮ",
        -3272.0
      ],
      [
        "ne",
        -3273.0
      ],
      [
        "▁As",
        -3274.0
      ],
      [
        "▁ቆይታ",
        -3275.0
      ],
      [
        "ፈለገ",
        -3276.0
      ],
      [
        "ረጠ",
        -3277.0
      ],
      [
        "ጥረ",
        -3278.0
      ],
      [
        "ቶቻችን",
        -3279.0
      ],
      [
        "ዳና",
        -3280.0
      ],
      [
        "ምጣት",
        -3281.0
      ],
      [
        "ጀመሩ",
        -3282.0
      ],
      [
        "▁ምርት",
        -3283.0
      ],
      [
        "▁ብላ",
        -3284.0
      ],
      [
        "▁ስጋት",
        -3285.0
      ],
      [
        "▁ሀብት",
        -3286.0
      ],
      [
        "▁በዕ",
        -3287.0
      ],
      [
        "▁የዜ",
        -3288.0
      ],
      [
        "▁መስከረም",
        -3289.0
      ],
      [
        "▁ተገኝ",
        -3290.0
      ],
      [
        "▁መኮ",
        -3291.0
      ],
      [
        "▁መኪና",
        -3292.0
      ],
      [
        "መኑ",
        -3293.0
      ],
      [
        "እኔ",
        -3294.0
      ],
      [
        "መለሱ",
        -3295.0
      ],
      [
        "▁መከራ",
        -3296.0
      ],
      [
        "▁አድራ",
        -3297.0
      ],
      [
        "▁ብርሃ",
        -3298.0
      ],
      [
        "▁Majalisar",
        -3299.0
      ],
      [
        "ሻሻል",
        -3300.0
      ],
      [
        "ጹም",
        -3301.0
      ],
      [
        "ወያ",
        -3302.0
      ],
      [
        "▁ቲ",
        -3303.0
      ],
      [
        "▁ተጠያቂ",
        -3304.0
      ],
      [
        "▁የመጣ",
        -3305.0
      ],
      [
        "ith",
        -3306.0
      ],
      [
        "ukun",
        -3307.0
      ],
      [
        "ጀመረው",
        -3308.0
      ],
      [
        "ዎቹን",
        -3309.0
      ],
      [
        "▁ትራምፕ",
        -3310.0
      ],
      [
        "wai",
        -3311.0
      ],
      [
        "▁አስተሳሰብ",
        -3312.0
      ],
      [
        "▁ኮሚሽን",
        -3313.0
      ],
      [
        "ዋርያ",
        -3314.0
      ],
      [
        "▁ዝቅ",
        -3315.0
      ],
      [
        "adin",
        -3316.0
      ],
      [
        "▁fus",
        -3317.0
      ],
      [
        "▁ሃላፊ",
        -3318.0
      ],
      [
        "ሊት",
        -3319.0
      ],
      [
        "▁አድርገ",
        -3320.0
      ],
      [
        "18",
        -3321.0
      ],
      [
        "▁ግዙ",
        -3322.0
      ],
      [
        "▁የሚሉት",
        -3323.0
      ],
      [
        "ted",
        -3324.0
      ],
      [
        "ff",
        -3325.0
      ],
      [
        "▁ተጨ",
        -3326.0
      ],
      [
        "▁ግዴ",
        -3327.0
      ],
      [
        "▁ቦታዎች",
        -3328.0
      ],
      [
        "▁gar",
        -3329.0
      ],
      [
        "▁አድርጓ",
        -3330.0
      ],
      [
        "ፁዕ",
        -3331.0
      ],
      [
        "▁bu",
        -3332.0
      ],
      [
        "▁Muhamma",
        -3333.0
      ],
      [
        "▁በመቀ",
        -3334.0
      ],
      [
        "▁በአሜሪካ",
        -3335.0
      ],
      [
        "▁ወጪ",
        -3336.0
      ],
      [
        "▁ባለሙያዎች",
        -3337.0
      ],
      [
        "▁የኢትዮጵያን",
        -3338.0
      ],
      [
        "ld",
        -3339.0
      ],
      [
        "▁ሕይወ",
        -3340.0
      ],
      [
        "ጿል።",
        -3341.0
      ],
      [
        "ንባ",
        -3342.0
      ],
      [
        "wamnan",
        -3343.0
      ],
      [
        "ዘጋጀት",
        -3344.0
      ],
      [
        "▁APC",
        -3345.0
      ],
      [
        "▁ኢትዮ",
        -3346.0
      ],
      [
        "yy",
        -3347.0
      ],
      [
        "ሠሩ",
        -3348.0
      ],
      [
        "ረዱ",
        -3349.0
      ],
      [
        "▁ዛሬም",
        -3350.0
      ],
      [
        "ረሱ",
        -3351.0
      ],
      [
        "ፈጠረው",
        -3352.0
      ],
      [
        "ራክ",
        -3353.0
      ],
      [
        "ቀደ",
        -3354.0
      ],
      [
        "▁በቀላሉ",
        -3355.0
      ],
      [
        "▁ላለ",
        -3356.0
      ],
      [
        "▁ሐሳብ",
        -3357.0
      ],
      [
        "▁ግዜ",
        -3358.0
      ],
      [
        "▁ፖ",
        -3359.0
      ],
      [
        "ካሂ",
        -3360.0
      ],
      [
        "መዘ",
        -3361.0
      ],
      [
        "▁እዩ",
        -3362.0
      ],
      [
        "▁Ad",
        -3363.0
      ],
      [
        "ቢይ",
        -3364.0
      ],
      [
        "▁የማስ",
        -3365.0
      ],
      [
        "▁ትክክለኛ",
        -3366.0
      ],
      [
        "ዝግ",
        -3367.0
      ],
      [
        "uba",
        -3368.0
      ],
      [
        "▁lokaci",
        -3369.0
      ],
      [
        "ty",
        -3370.0
      ],
      [
        "በሌ",
        -3371.0
      ],
      [
        "▁ከየ",
        -3372.0
      ],
      [
        "ወቁ",
        -3373.0
      ],
      [
        "ስል",
        -3374.0
      ],
      [
        "▁የጉ",
        -3375.0
      ],
      [
        "▁ይመስለኛ",
        -3376.0
      ],
      [
        "▁ruwa",
        -3377.0
      ],
      [
        "▁አይመስ",
        -3378.0
      ],
      [
        "▁Mar",
        -3379.0
      ],
      [
        "▁ቴሌ",
        -3380.0
      ],
      [
        "ዎት",
        -3381.0
      ],
      [
        "▁rashin",
        -3382.0
      ],
      [
        "ጅቱ",
        -3383.0
      ],
      [
        "ቋቋም",
        -3384.0
      ],
      [
        "▁Trump",
        -3385.0
      ],
      [
        "▁በተደጋጋሚ",
        -3386.0
      ],
      [
        "▁ስድስት",
        -3387.0
      ],
      [
        "▁መቆ",
        -3388.0
      ],
      [
        "ንተር",
        -3389.0
      ],
      [
        "▁mar",
        -3390.0
      ],
      [
        "▁የደቡብ",
        -3391.0
      ],
      [
        "ሰል",
        -3392.0
      ],
      [
        "ሴት",
        -3393.0
      ],
      [
        "▁ትምህር",
        -3394.0
      ],
      [
        "▁ተክ",
        -3395.0
      ],
      [
        "▁ማንኛውም",
        -3396.0
      ],
      [
        "▁የደረሰ",
        -3397.0
      ],
      [
        "▁ኮን",
        -3398.0
      ],
      [
        "በተ",
        -3399.0
      ],
      [
        "በአ",
        -3400.0
      ],
      [
        "ገኙት",
        -3401.0
      ],
      [
        "▁ችሎ",
        -3402.0
      ],
      [
        "ber",
        -3403.0
      ],
      [
        "▁has",
        -3404.0
      ],
      [
        "ጡን",
        -3405.0
      ],
      [
        "ጊያ",
        -3406.0
      ],
      [
        "DP",
        -3407.0
      ],
      [
        "▁ህይወ",
        -3408.0
      ],
      [
        "ብርሃ",
        -3409.0
      ],
      [
        "ፖሊስ",
        -3410.0
      ],
      [
        "ansa",
        -3411.0
      ],
      [
        "▁ኢኮኖሚ",
        -3412.0
      ],
      [
        "▁ቁር",
        -3413.0
      ],
      [
        "▁በመጨረሻ",
        -3414.0
      ],
      [
        "▁አድማ",
        -3415.0
      ],
      [
        "▁28",
        -3416.0
      ],
      [
        "▁ደሳ",
        -3417.0
      ],
      [
        "ልማ",
        -3418.0
      ],
      [
        "▁ቀጠ",
        -3419.0
      ],
      [
        "ቋል፡፡",
        -3420.0
      ],
      [
        "▁መፅ",
        -3421.0
      ],
      [
        "▁የጸ",
        -3422.0
      ],
      [
        "▁ፍሬ",
        -3423.0
      ],
      [
        "ቪድ",
        -3424.0
      ],
      [
        "ነሣ",
        -3425.0
      ],
      [
        "buwan",
        -3426.0
      ],
      [
        "▁ክትባት",
        -3427.0
      ],
      [
        "▁ተደርጎ",
        -3428.0
      ],
      [
        "▁ጠብ",
        -3429.0
      ],
      [
        "▁ግዛት",
        -3430.0
      ],
      [
        "ንፃ",
        -3431.0
      ],
      [
        "▁በብዙ",
        -3432.0
      ],
      [
        "ምረ",
        -3433.0
      ],
      [
        "▁ሊግ",
        -3434.0
      ],
      [
        "▁26",
        -3435.0
      ],
      [
        "ማዊ",
        -3436.0
      ],
      [
        "▁መንፈሳዊ",
        -3437.0
      ],
      [
        "▁v",
        -3438.0
      ],
      [
        "▁የኢኮኖሚ",
        -3439.0
      ],
      [
        "▁Far",
        -3440.0
      ],
      [
        "ሞላ",
        -3441.0
      ],
      [
        "▁የሚከተ",
        -3442.0
      ],
      [
        "▁ምሳሌ",
        -3443.0
      ],
      [
        "▁የሚኖሩ",
        -3444.0
      ],
      [
        "ረታ",
        -3445.0
      ],
      [
        "min",
        -3446.0
      ],
      [
        "▁እኔም",
        -3447.0
      ],
      [
        "ማል",
        -3448.0
      ],
      [
        "▁ለነ",
        -3449.0
      ],
      [
        "▁ሲኖዶ",
        -3450.0
      ],
      [
        "ሳካ",
        -3451.0
      ],
      [
        "▁Ada",
        -3452.0
      ],
      [
        "ጥም",
        -3453.0
      ],
      [
        "ጦች",
        -3454.0
      ],
      [
        "▁Afirka",
        -3455.0
      ],
      [
        "▁እንድን",
        -3456.0
      ],
      [
        "▁ድረ",
        -3457.0
      ],
      [
        "▁tara",
        -3458.0
      ],
      [
        "▁አስታወቀ",
        -3459.0
      ],
      [
        "በስ",
        -3460.0
      ],
      [
        "▁sanar",
        -3461.0
      ],
      [
        "▁ብሔር",
        -3462.0
      ],
      [
        "▁ፍለጋ",
        -3463.0
      ],
      [
        "▁በምን",
        -3464.0
      ],
      [
        "▁ደሳለኝ",
        -3465.0
      ],
      [
        "▁ተጠር",
        -3466.0
      ],
      [
        "▁ቻይና",
        -3467.0
      ],
      [
        "▁ወይንም",
        -3468.0
      ],
      [
        "▁ይፈልጋ",
        -3469.0
      ],
      [
        "▁garin",
        -3470.0
      ],
      [
        "ok",
        -3471.0
      ],
      [
        "sar",
        -3472.0
      ],
      [
        "▁ተሳት",
        -3473.0
      ],
      [
        "ona",
        -3474.0
      ],
      [
        "▁ስንት",
        -3475.0
      ],
      [
        "▁የሚቆጠሩ",
        -3476.0
      ],
      [
        "▁አጀ",
        -3477.0
      ],
      [
        "ጠነ",
        -3478.0
      ],
      [
        "▁ቡና",
        -3479.0
      ],
      [
        "▁ዴሞክራሲያዊ",
        -3480.0
      ],
      [
        "▁ፌዴ",
        -3481.0
      ],
      [
        "ያል",
        -3482.0
      ],
      [
        "iti",
        -3483.0
      ],
      [
        "▁''",
        -3484.0
      ],
      [
        "▁ኡ",
        -3485.0
      ],
      [
        "▁ተጽ",
        -3486.0
      ],
      [
        "▁የቁ",
        -3487.0
      ],
      [
        "rom",
        -3488.0
      ],
      [
        "31",
        -3489.0
      ],
      [
        "▁የከተማ",
        -3490.0
      ],
      [
        "mma",
        -3491.0
      ],
      [
        "▁ማለትም",
        -3492.0
      ],
      [
        "ልበት",
        -3493.0
      ],
      [
        "▁የሲ",
        -3494.0
      ],
      [
        "▁የሚገኝ",
        -3495.0
      ],
      [
        "▁የሐ",
        -3496.0
      ],
      [
        "▁የተባበሩት",
        -3497.0
      ],
      [
        "gor",
        -3498.0
      ],
      [
        "cc",
        -3499.0
      ],
      [
        "ጠይቅ",
        -3500.0
      ],
      [
        "shir",
        -3501.0
      ],
      [
        "▁የመሰ",
        -3502.0
      ],
      [
        "199",
        -3503.0
      ],
      [
        "▁kun",
        -3504.0
      ],
      [
        "▁በመጀመሪያ",
        -3505.0
      ],
      [
        "▁የሚችሉ",
        -3506.0
      ],
      [
        "▁,",
        -3507.0
      ],
      [
        "ous",
        -3508.0
      ],
      [
        "ሉ፤",
        -3509.0
      ],
      [
        "▁መስተ",
        -3510.0
      ],
      [
        "▁samar",
        -3511.0
      ],
      [
        "▁ሜዳ",
        -3512.0
      ],
      [
        "▁ban",
        -3513.0
      ],
      [
        "▁መጋቢት",
        -3514.0
      ],
      [
        "▁ይበልጥ",
        -3515.0
      ],
      [
        "▁ህብረት",
        -3516.0
      ],
      [
        "ሻገር",
        -3517.0
      ],
      [
        "▁ሙዚቃ",
        -3518.0
      ],
      [
        "▁mafi",
        -3519.0
      ],
      [
        "▁bi",
        -3520.0
      ],
      [
        "▁Sun",
        -3521.0
      ],
      [
        "ኒስት",
        -3522.0
      ],
      [
        "▁የሚተ",
        -3523.0
      ],
      [
        "▁musamman",
        -3524.0
      ],
      [
        "▁መገናኛ",
        -3525.0
      ],
      [
        "ያኑ",
        -3526.0
      ],
      [
        "▁Shugaba",
        -3527.0
      ],
      [
        "▁እንዲያው",
        -3528.0
      ],
      [
        "▁የዲ",
        -3529.0
      ],
      [
        "▁ድርጊት",
        -3530.0
      ],
      [
        "iri",
        -3531.0
      ],
      [
        "▁ኩባንያዎች",
        -3532.0
      ],
      [
        "▁ጥበብ",
        -3533.0
      ],
      [
        "▁ከል",
        -3534.0
      ],
      [
        "ቃል፡፡",
        -3535.0
      ],
      [
        "ቻለ",
        -3536.0
      ],
      [
        "▁በግልጽ",
        -3537.0
      ],
      [
        "▁ባለመብት",
        -3538.0
      ],
      [
        "shiryen",
        -3539.0
      ],
      [
        "▁ተመራ",
        -3540.0
      ],
      [
        "ርቅ",
        -3541.0
      ],
      [
        "▁ትግ",
        -3542.0
      ],
      [
        "ሞን",
        -3543.0
      ],
      [
        "▁የሕግ",
        -3544.0
      ],
      [
        "▁ዳን",
        -3545.0
      ],
      [
        "▁በዋና",
        -3546.0
      ],
      [
        "ላለፍ",
        -3547.0
      ],
      [
        "▁jiya",
        -3548.0
      ],
      [
        "ሳል",
        -3549.0
      ],
      [
        "በሪያ",
        -3550.0
      ],
      [
        "▁ተቀባ",
        -3551.0
      ],
      [
        "▁shugaba",
        -3552.0
      ],
      [
        "▁ነዋሪ",
        -3553.0
      ],
      [
        "ሪት",
        -3554.0
      ],
      [
        "ረግ",
        -3555.0
      ],
      [
        "▁siya",
        -3556.0
      ],
      [
        "ሀት",
        -3557.0
      ],
      [
        "ፋን",
        -3558.0
      ],
      [
        "ባባ",
        -3559.0
      ],
      [
        "ህዴ",
        -3560.0
      ],
      [
        "ራቅ",
        -3561.0
      ],
      [
        "አይ",
        -3562.0
      ],
      [
        "▁ተቀብ",
        -3563.0
      ],
      [
        "▁መፍትሔ",
        -3564.0
      ],
      [
        "ሆናቸው",
        -3565.0
      ],
      [
        "▁ልን",
        -3566.0
      ],
      [
        "▁ኪሎ",
        -3567.0
      ],
      [
        "▁የሚባለው",
        -3568.0
      ],
      [
        "▁ፎቶ",
        -3569.0
      ],
      [
        "tr",
        -3570.0
      ],
      [
        "▁red",
        -3571.0
      ],
      [
        "▁እድል",
        -3572.0
      ],
      [
        "▁የክልሉ",
        -3573.0
      ],
      [
        "▁ሊቀመንበር",
        -3574.0
      ],
      [
        "ቃሽ",
        -3575.0
      ],
      [
        "ወገድ",
        -3576.0
      ],
      [
        "▁ታዋቂ",
        -3577.0
      ],
      [
        "▁እናት",
        -3578.0
      ],
      [
        "13",
        -3579.0
      ],
      [
        "ቅናቄ",
        -3580.0
      ],
      [
        "▁ቢሊዮን",
        -3581.0
      ],
      [
        "no",
        -3582.0
      ],
      [
        "▁ስነ",
        -3583.0
      ],
      [
        "▁ክፉ",
        -3584.0
      ],
      [
        "ብይ",
        -3585.0
      ],
      [
        "▁በቤተ",
        -3586.0
      ],
      [
        "ለጥ",
        -3587.0
      ],
      [
        "▁son",
        -3588.0
      ],
      [
        "▁ሆስፒ",
        -3589.0
      ],
      [
        "▁ተወካዮች",
        -3590.0
      ],
      [
        "ባረ",
        -3591.0
      ],
      [
        "▁ሣ",
        -3592.0
      ],
      [
        "▁የፎቶው",
        -3593.0
      ],
      [
        "▁ተናግረዋል፡፡",
        -3594.0
      ],
      [
        "▁መሐ",
        -3595.0
      ],
      [
        "ገነባ",
        -3596.0
      ],
      [
        "▁እነርሱ",
        -3597.0
      ],
      [
        "▁ይገባል",
        -3598.0
      ],
      [
        "▁ሳያ",
        -3599.0
      ],
      [
        "▁ወንጌ",
        -3600.0
      ],
      [
        "ዘረ",
        -3601.0
      ],
      [
        "▁by",
        -3602.0
      ],
      [
        "▁de",
        -3603.0
      ],
      [
        "▁በመጠቀም",
        -3604.0
      ],
      [
        "ዕት",
        -3605.0
      ],
      [
        "▁ባህር",
        -3606.0
      ],
      [
        "▁ኦርቶዶክስ",
        -3607.0
      ],
      [
        "▁ይገል",
        -3608.0
      ],
      [
        "▁መሸ",
        -3609.0
      ],
      [
        "▁መረ",
        -3610.0
      ],
      [
        "▁ሰሞኑን",
        -3611.0
      ],
      [
        "▁ረገድ",
        -3612.0
      ],
      [
        "ድረስ",
        -3613.0
      ],
      [
        "▁ይለፉ",
        -3614.0
      ],
      [
        "▁bang",
        -3615.0
      ],
      [
        "▁kare",
        -3616.0
      ],
      [
        "▁ፓትርያ",
        -3617.0
      ],
      [
        "▁Bidiyo",
        -3618.0
      ],
      [
        "▁ታይ",
        -3619.0
      ],
      [
        "▁ተጠቅ",
        -3620.0
      ],
      [
        "ቻሉ",
        -3621.0
      ],
      [
        "ast",
        -3622.0
      ],
      [
        "ዮርጊ",
        -3623.0
      ],
      [
        "▁ከኢ",
        -3624.0
      ],
      [
        "▁አና",
        -3625.0
      ],
      [
        "▁እርስ",
        -3626.0
      ],
      [
        "ቀረበው",
        -3627.0
      ],
      [
        "▁በአማራ",
        -3628.0
      ],
      [
        "▁ሚንስት",
        -3629.0
      ],
      [
        "▁አማርኛወደ",
        -3630.0
      ],
      [
        "ገለጹ",
        -3631.0
      ],
      [
        "▁ኃላፊነት",
        -3632.0
      ],
      [
        "/200",
        -3633.0
      ],
      [
        "lan",
        -3634.0
      ],
      [
        "▁ቤተክርስቲያን",
        -3635.0
      ],
      [
        "▁Wasan",
        -3636.0
      ],
      [
        "ምራ",
        -3637.0
      ],
      [
        "▁ህዝቦች",
        -3638.0
      ],
      [
        "ጀመርያ",
        -3639.0
      ],
      [
        "▁ይችላል፡፡",
        -3640.0
      ],
      [
        "▁sakamakon",
        -3641.0
      ],
      [
        "ታወቁ",
        -3642.0
      ],
      [
        "''",
        -3643.0
      ],
      [
        "▁at",
        -3644.0
      ],
      [
        "▁ግድብ",
        -3645.0
      ],
      [
        "▁ፕሮፌሰር",
        -3646.0
      ],
      [
        "ላቅ",
        -3647.0
      ],
      [
        "▁ካር",
        -3648.0
      ],
      [
        "▁የሚጠ",
        -3649.0
      ],
      [
        "▁zabe",
        -3650.0
      ],
      [
        "asha",
        -3651.0
      ],
      [
        "▁ቀረ",
        -3652.0
      ],
      [
        "▁ሀሳብ",
        -3653.0
      ],
      [
        "▁mutanen",
        -3654.0
      ],
      [
        "▁በፈ",
        -3655.0
      ],
      [
        "▁ትላ",
        -3656.0
      ],
      [
        "▁አስመልክቶ",
        -3657.0
      ],
      [
        "▁zasu",
        -3658.0
      ],
      [
        "▁abubuwan",
        -3659.0
      ],
      [
        "▁ድርሻ",
        -3660.0
      ],
      [
        "fanin",
        -3661.0
      ],
      [
        "▁የልማት",
        -3662.0
      ],
      [
        "▁)",
        -3663.0
      ],
      [
        "ኝ፡፡",
        -3664.0
      ],
      [
        "ለዋል።",
        -3665.0
      ],
      [
        "ድሮስ",
        -3666.0
      ],
      [
        "▁ግጭ",
        -3667.0
      ],
      [
        "▁አንድም",
        -3668.0
      ],
      [
        "▁ፕሬዝዳንት",
        -3669.0
      ],
      [
        "ብረተሰቡ",
        -3670.0
      ],
      [
        "▁yawa",
        -3671.0
      ],
      [
        "ክሲ",
        -3672.0
      ],
      [
        "▁ኑሮ",
        -3673.0
      ],
      [
        "▁ኢንተር",
        -3674.0
      ],
      [
        "▁ዜናዊ",
        -3675.0
      ],
      [
        "▁ስለመ",
        -3676.0
      ],
      [
        "ከን",
        -3677.0
      ],
      [
        "▁እዚያ",
        -3678.0
      ],
      [
        "ሮፕላን",
        -3679.0
      ],
      [
        "ሬን",
        -3680.0
      ],
      [
        "ዳው",
        -3681.0
      ],
      [
        "karin",
        -3682.0
      ],
      [
        "▁በዩ",
        -3683.0
      ],
      [
        "▁የተባለ",
        -3684.0
      ],
      [
        "ጉን",
        -3685.0
      ],
      [
        "▁Go",
        -3686.0
      ],
      [
        "ቶችና",
        -3687.0
      ],
      [
        "▁fada",
        -3688.0
      ],
      [
        "▁ምስክር",
        -3689.0
      ],
      [
        "▁ጦ",
        -3690.0
      ],
      [
        "ታወቀው",
        -3691.0
      ],
      [
        "▁ያሉትን",
        -3692.0
      ],
      [
        "ቀዋል።",
        -3693.0
      ],
      [
        "▁በተመሳሳይ",
        -3694.0
      ],
      [
        "▁ይዘው",
        -3695.0
      ],
      [
        "ጠውን",
        -3696.0
      ],
      [
        "ውው",
        -3697.0
      ],
      [
        "ራችን",
        -3698.0
      ],
      [
        "▁ሰል",
        -3699.0
      ],
      [
        "ላህ",
        -3700.0
      ],
      [
        "ሽት",
        -3701.0
      ],
      [
        "▁በሰው",
        -3702.0
      ],
      [
        "ሊና",
        -3703.0
      ],
      [
        "▁ምእ",
        -3704.0
      ],
      [
        "▁ፋብሪካ",
        -3705.0
      ],
      [
        "ንቃቄ",
        -3706.0
      ],
      [
        "ዳዳሪ",
        -3707.0
      ],
      [
        "ድሩ",
        -3708.0
      ],
      [
        "▁ማወቅ",
        -3709.0
      ],
      [
        "▁አዛ",
        -3710.0
      ],
      [
        "ልህ",
        -3711.0
      ],
      [
        "▁ክልሎች",
        -3712.0
      ],
      [
        "ለስ",
        -3713.0
      ],
      [
        "▁ጉብኝ",
        -3714.0
      ],
      [
        "ረኛ",
        -3715.0
      ],
      [
        "ጨት",
        -3716.0
      ],
      [
        "ፋር",
        -3717.0
      ],
      [
        "▁ግርማ",
        -3718.0
      ],
      [
        "ስተዋ",
        -3719.0
      ],
      [
        "▁የሚሆን",
        -3720.0
      ],
      [
        "▁አፍሪቃ",
        -3721.0
      ],
      [
        "ሴን",
        -3722.0
      ],
      [
        "▁አሰራ",
        -3723.0
      ],
      [
        "▁በኦሮሚያ",
        -3724.0
      ],
      [
        "ይይ",
        -3725.0
      ],
      [
        "▁ɗ",
        -3726.0
      ],
      [
        "▁ጥቃ",
        -3727.0
      ],
      [
        "▁ብሄራዊ",
        -3728.0
      ],
      [
        "ጌታ",
        -3729.0
      ],
      [
        "▁በቀጥታ",
        -3730.0
      ],
      [
        "ዛቤ",
        -3731.0
      ],
      [
        "▁አሉ፡፡",
        -3732.0
      ],
      [
        "ንክ",
        -3733.0
      ],
      [
        "▁የፊ",
        -3734.0
      ],
      [
        "▁kafin",
        -3735.0
      ],
      [
        "▁ወታደራዊ",
        -3736.0
      ],
      [
        "▁የይ",
        -3737.0
      ],
      [
        "▁አላማ",
        -3738.0
      ],
      [
        "▁ሃይማኖት",
        -3739.0
      ],
      [
        "ምገማ",
        -3740.0
      ],
      [
        "▁አመልክ",
        -3741.0
      ],
      [
        "▁አስከ",
        -3742.0
      ],
      [
        "▁ጎን",
        -3743.0
      ],
      [
        "ጉት",
        -3744.0
      ],
      [
        "▁እውነተኛ",
        -3745.0
      ],
      [
        "ሃብ",
        -3746.0
      ],
      [
        "▁መድኃ",
        -3747.0
      ],
      [
        "shirye",
        -3748.0
      ],
      [
        "▁ሀብ",
        -3749.0
      ],
      [
        "ጁን",
        -3750.0
      ],
      [
        "▁ስደተኞች",
        -3751.0
      ],
      [
        "▁አመለካከት",
        -3752.0
      ],
      [
        "ደበ",
        -3753.0
      ],
      [
        "ነት፣",
        -3754.0
      ],
      [
        "▁con",
        -3755.0
      ],
      [
        "▁ለማን",
        -3756.0
      ],
      [
        "▁ግዙፍ",
        -3757.0
      ],
      [
        "ድያ",
        -3758.0
      ],
      [
        "▁ነው፣",
        -3759.0
      ],
      [
        "▁እንዳለው",
        -3760.0
      ],
      [
        "ken",
        -3761.0
      ],
      [
        "ገሪቱን",
        -3762.0
      ],
      [
        "▁Shi",
        -3763.0
      ],
      [
        "ham",
        -3764.0
      ],
      [
        "ምስት",
        -3765.0
      ],
      [
        "ራር",
        -3766.0
      ],
      [
        "ሽኑ",
        -3767.0
      ],
      [
        "▁መቅ",
        -3768.0
      ],
      [
        "▁ሰኔ",
        -3769.0
      ],
      [
        "▁የሆነውን",
        -3770.0
      ],
      [
        "hari",
        -3771.0
      ],
      [
        "▁በውጭ",
        -3772.0
      ],
      [
        "ጫወት",
        -3773.0
      ],
      [
        "▁taka",
        -3774.0
      ],
      [
        "ሖዋ",
        -3775.0
      ],
      [
        "▁ያሰ",
        -3776.0
      ],
      [
        "▁ሊያስ",
        -3777.0
      ],
      [
        "▁ጽሑፍ",
        -3778.0
      ],
      [
        "ቧል።",
        -3779.0
      ],
      [
        "▁መከላከያ",
        -3780.0
      ],
      [
        "igh",
        -3781.0
      ],
      [
        "▁ለመስጠት",
        -3782.0
      ],
      [
        "ደና",
        -3783.0
      ],
      [
        "▁ሰይ",
        -3784.0
      ],
      [
        "!!!",
        -3785.0
      ],
      [
        "▁Tsa",
        -3786.0
      ],
      [
        "▁የመሳሰ",
        -3787.0
      ],
      [
        "▁ተቀባይነት",
        -3788.0
      ],
      [
        "▁Labaran",
        -3789.0
      ],
      [
        "ደረጃ",
        -3790.0
      ],
      [
        "▁ክፍያ",
        -3791.0
      ],
      [
        "▁ለሰ",
        -3792.0
      ],
      [
        "ሯል፡፡",
        -3793.0
      ],
      [
        "▁....",
        -3794.0
      ],
      [
        "▁hana",
        -3795.0
      ],
      [
        "ሙር",
        -3796.0
      ],
      [
        "▁ለስ",
        -3797.0
      ],
      [
        "ቀመጥ",
        -3798.0
      ],
      [
        "ዲያው",
        -3799.0
      ],
      [
        "▁ምንድን",
        -3800.0
      ],
      [
        "▁Cika",
        -3801.0
      ],
      [
        "▁ዘግ",
        -3802.0
      ],
      [
        "▁በቁጥጥር",
        -3803.0
      ],
      [
        "▁amince",
        -3804.0
      ],
      [
        "▁የኃ",
        -3805.0
      ],
      [
        "▁rediyo",
        -3806.0
      ],
      [
        "mai",
        -3807.0
      ],
      [
        "ሰቦ",
        -3808.0
      ],
      [
        "ፃናት",
        -3809.0
      ],
      [
        "▁kwam",
        -3810.0
      ],
      [
        "▁ያደረገው",
        -3811.0
      ],
      [
        "IN",
        -3812.0
      ],
      [
        "ውሎስ",
        -3813.0
      ],
      [
        "▁ለመቀ",
        -3814.0
      ],
      [
        "oto",
        -3815.0
      ],
      [
        "por",
        -3816.0
      ],
      [
        "▁ለዚህም",
        -3817.0
      ],
      [
        "▁የያዘ",
        -3818.0
      ],
      [
        "katar",
        -3819.0
      ],
      [
        "በታል፡፡",
        -3820.0
      ],
      [
        "abi",
        -3821.0
      ],
      [
        "▁ሆቴ",
        -3822.0
      ],
      [
        "ዋሳ",
        -3823.0
      ],
      [
        "▁የቡ",
        -3824.0
      ],
      [
        "ቪዥን",
        -3825.0
      ],
      [
        "▁ጠቃሚ",
        -3826.0
      ],
      [
        "▁የተከሰ",
        -3827.0
      ],
      [
        "▁የኢህአዴግ",
        -3828.0
      ],
      [
        "▁ተዘ",
        -3829.0
      ],
      [
        "▁ለአንድ",
        -3830.0
      ],
      [
        "▁labarai",
        -3831.0
      ],
      [
        "▁Musamman",
        -3832.0
      ],
      [
        "▁አገሪ",
        -3833.0
      ],
      [
        "▁ዩናይትድ",
        -3834.0
      ],
      [
        "ሉትን",
        -3835.0
      ],
      [
        "▁አዝ",
        -3836.0
      ],
      [
        "▁ቁጥጥር",
        -3837.0
      ],
      [
        "▁የእኛ",
        -3838.0
      ],
      [
        "kkun",
        -3839.0
      ],
      [
        "▁እርግ",
        -3840.0
      ],
      [
        "▁ከሁለት",
        -3841.0
      ],
      [
        "ጓዝ",
        -3842.0
      ],
      [
        "ካኤል",
        -3843.0
      ],
      [
        "▁የምስ",
        -3844.0
      ],
      [
        "▁ምድ",
        -3845.0
      ],
      [
        "▁zargin",
        -3846.0
      ],
      [
        "ግባት",
        -3847.0
      ],
      [
        "▁gas",
        -3848.0
      ],
      [
        "▁ዱ",
        -3849.0
      ],
      [
        "በትና",
        -3850.0
      ],
      [
        "▁ንቅናቄ",
        -3851.0
      ],
      [
        "▁Wasanni",
        -3852.0
      ],
      [
        "▁አንፃ",
        -3853.0
      ],
      [
        "መሩ",
        -3854.0
      ],
      [
        "ቀድሞ",
        -3855.0
      ],
      [
        "ፋቸው",
        -3856.0
      ],
      [
        "▁አጀንዳ",
        -3857.0
      ],
      [
        "▁ሦ",
        -3858.0
      ],
      [
        "▁PDP",
        -3859.0
      ],
      [
        "tin",
        -3860.0
      ],
      [
        "▁ጥቅምት",
        -3861.0
      ],
      [
        "afa",
        -3862.0
      ],
      [
        "ቃይ",
        -3863.0
      ],
      [
        "▁ይቀ",
        -3864.0
      ],
      [
        "▁ሎ",
        -3865.0
      ],
      [
        "▁ዳይሬክተር",
        -3866.0
      ],
      [
        "ፖለቲከ",
        -3867.0
      ],
      [
        "ዳል",
        -3868.0
      ],
      [
        "▁ጋዜጠኞች",
        -3869.0
      ],
      [
        "▁le",
        -3870.0
      ],
      [
        "ges",
        -3871.0
      ],
      [
        "ሰስ",
        -3872.0
      ],
      [
        "▁29",
        -3873.0
      ],
      [
        "▁ዲፕሎማ",
        -3874.0
      ],
      [
        "▁ayy",
        -3875.0
      ],
      [
        "▁ቀድሞ",
        -3876.0
      ],
      [
        "▁ጠቁ",
        -3877.0
      ],
      [
        "▁ቃላት",
        -3878.0
      ],
      [
        "▁ሊቃ",
        -3879.0
      ],
      [
        "▁ብን",
        -3880.0
      ],
      [
        "▁kawai",
        -3881.0
      ],
      [
        "▁እንደዚህ",
        -3882.0
      ],
      [
        "ሮቹ",
        -3883.0
      ],
      [
        "ኖረ",
        -3884.0
      ],
      [
        "ለዋ",
        -3885.0
      ],
      [
        "ኬት",
        -3886.0
      ],
      [
        "▁cika",
        -3887.0
      ],
      [
        "አንድ",
        -3888.0
      ],
      [
        "▁ገደ",
        -3889.0
      ],
      [
        "▁ሃገራት",
        -3890.0
      ],
      [
        "▁ታማ",
        -3891.0
      ],
      [
        "ishadi",
        -3892.0
      ],
      [
        "ው፣",
        -3893.0
      ],
      [
        "ደርገ",
        -3894.0
      ],
      [
        "▁co",
        -3895.0
      ],
      [
        "▁የሌለው",
        -3896.0
      ],
      [
        "▁ይላል።",
        -3897.0
      ],
      [
        "▁ልምድ",
        -3898.0
      ],
      [
        "▁ታሪካዊ",
        -3899.0
      ],
      [
        "ለቅ",
        -3900.0
      ],
      [
        "▁ይበ",
        -3901.0
      ],
      [
        "▁የሚያስችል",
        -3902.0
      ],
      [
        "▁kowa",
        -3903.0
      ],
      [
        "yoyin",
        -3904.0
      ],
      [
        "▁gasar",
        -3905.0
      ],
      [
        "ራቸውን",
        -3906.0
      ],
      [
        "▁እንዲፈ",
        -3907.0
      ],
      [
        "ዬን",
        -3908.0
      ],
      [
        "▁ታሪ",
        -3909.0
      ],
      [
        "▁ኦባ",
        -3910.0
      ],
      [
        "▁tsohon",
        -3911.0
      ],
      [
        "▁ተፅ",
        -3912.0
      ],
      [
        "ድንበር",
        -3913.0
      ],
      [
        "ግሩ",
        -3914.0
      ],
      [
        "▁bada",
        -3915.0
      ],
      [
        "▁ስርዓ",
        -3916.0
      ],
      [
        "ላትን",
        -3917.0
      ],
      [
        "ቀጥል",
        -3918.0
      ],
      [
        "▁fito",
        -3919.0
      ],
      [
        "ጣጥ",
        -3920.0
      ],
      [
        "▁ቡድኖች",
        -3921.0
      ],
      [
        "▁የተመሰ",
        -3922.0
      ],
      [
        "ስተካ",
        -3923.0
      ],
      [
        "▁አልባ",
        -3924.0
      ],
      [
        "▁ከግ",
        -3925.0
      ],
      [
        "▁ይላሉ",
        -3926.0
      ],
      [
        "▁kokarin",
        -3927.0
      ],
      [
        "ቸዉን",
        -3928.0
      ],
      [
        "▁የዳ",
        -3929.0
      ],
      [
        "ታም",
        -3930.0
      ],
      [
        "▁መጠየ",
        -3931.0
      ],
      [
        "▁አንቀጽ",
        -3932.0
      ],
      [
        "▁አገዛዝ",
        -3933.0
      ],
      [
        "መለክ",
        -3934.0
      ],
      [
        "ሽከር",
        -3935.0
      ],
      [
        "ገለፀ",
        -3936.0
      ],
      [
        "▁ልት",
        -3937.0
      ],
      [
        "▁የሰላም",
        -3938.0
      ],
      [
        "▁የዛሬ",
        -3939.0
      ],
      [
        "▁ብዛት",
        -3940.0
      ],
      [
        "ከሩ",
        -3941.0
      ],
      [
        "ምላክ",
        -3942.0
      ],
      [
        "▁ቅዱሳን",
        -3943.0
      ],
      [
        "▁እየታ",
        -3944.0
      ],
      [
        "መዝ",
        -3945.0
      ],
      [
        "▁Bab",
        -3946.0
      ],
      [
        "▁የማያ",
        -3947.0
      ],
      [
        "▁abo",
        -3948.0
      ],
      [
        "▁መሆናቸው",
        -3949.0
      ],
      [
        "▁ማህበረሰብ",
        -3950.0
      ],
      [
        "▁ከሕ",
        -3951.0
      ],
      [
        "▁aika",
        -3952.0
      ],
      [
        "▁በሁለት",
        -3953.0
      ],
      [
        "▁ለት",
        -3954.0
      ],
      [
        "▁Yan",
        -3955.0
      ],
      [
        "▁Wani",
        -3956.0
      ],
      [
        "▁አሸናፊ",
        -3957.0
      ],
      [
        "▁አጠቃላይ",
        -3958.0
      ],
      [
        "ታዎች",
        -3959.0
      ],
      [
        "og",
        -3960.0
      ],
      [
        "ረንሳይ",
        -3961.0
      ],
      [
        "▁ድንበር",
        -3962.0
      ],
      [
        "▁ይላሉ።",
        -3963.0
      ],
      [
        "▁sanda",
        -3964.0
      ],
      [
        "ተኮ",
        -3965.0
      ],
      [
        "ኖራቸው",
        -3966.0
      ],
      [
        "▁yaki",
        -3967.0
      ],
      [
        "▁kamata",
        -3968.0
      ],
      [
        "▁በመስጠት",
        -3969.0
      ],
      [
        "ወሰን",
        -3970.0
      ],
      [
        "▁ለማወቅ",
        -3971.0
      ],
      [
        "▁ደህንነት",
        -3972.0
      ],
      [
        "▁መጠቀም",
        -3973.0
      ],
      [
        "ነስተኛ",
        -3974.0
      ],
      [
        "▁jir",
        -3975.0
      ],
      [
        "▁የግብ",
        -3976.0
      ],
      [
        "▁tsarin",
        -3977.0
      ],
      [
        "▁Nishadi",
        -3978.0
      ],
      [
        "▁hai",
        -3979.0
      ],
      [
        "▁Cikakkun",
        -3980.0
      ],
      [
        "▁hoton",
        -3981.0
      ],
      [
        "▁kwana",
        -3982.0
      ],
      [
        "ብሮ",
        -3983.0
      ],
      [
        "▁ወሳኝ",
        -3984.0
      ],
      [
        "▁የሚያደርጉ",
        -3985.0
      ],
      [
        "ue",
        -3986.0
      ],
      [
        "ዮርጊስ",
        -3987.0
      ],
      [
        "▁ስህተት",
        -3988.0
      ],
      [
        "▁taimaka",
        -3989.0
      ],
      [
        "በትም",
        -3990.0
      ],
      [
        "▁ስልክ",
        -3991.0
      ],
      [
        "▁ጨዋታዎች",
        -3992.0
      ],
      [
        "ባችን",
        -3993.0
      ],
      [
        "ቻለሁ",
        -3994.0
      ],
      [
        "ገንባት",
        -3995.0
      ],
      [
        "አል",
        -3996.0
      ],
      [
        "ፍል",
        -3997.0
      ],
      [
        "ንግተን",
        -3998.0
      ],
      [
        "▁ምልክት",
        -3999.0
      ],
      [
        "11",
        -4000.0
      ],
      [
        "▁መረጃዎች",
        -4001.0
      ],
      [
        "▁gir",
        -4002.0
      ],
      [
        "▁ቁልፍ",
        -4003.0
      ],
      [
        "▁መንግስታት",
        -4004.0
      ],
      [
        "▁ካሳ",
        -4005.0
      ],
      [
        "▁አዳዲስ",
        -4006.0
      ],
      [
        "arr",
        -4007.0
      ],
      [
        "ቤቶች",
        -4008.0
      ],
      [
        "▁ab",
        -4009.0
      ],
      [
        "▁የቀረበ",
        -4010.0
      ],
      [
        "▁አለብን",
        -4011.0
      ],
      [
        "ላችንም",
        -4012.0
      ],
      [
        "▁ገልጸዋል።",
        -4013.0
      ],
      [
        "ኑት",
        -4014.0
      ],
      [
        "ቂዎች",
        -4015.0
      ],
      [
        "▁ተል",
        -4016.0
      ],
      [
        "▁እርስዎ",
        -4017.0
      ],
      [
        "▁ትም",
        -4018.0
      ],
      [
        "▁መዘ",
        -4019.0
      ],
      [
        "▁ማንነት",
        -4020.0
      ],
      [
        "▁ተቆ",
        -4021.0
      ],
      [
        "ሳሽ",
        -4022.0
      ],
      [
        "እምሮ",
        -4023.0
      ],
      [
        "▁እነሱ",
        -4024.0
      ],
      [
        "▁ምህ",
        -4025.0
      ],
      [
        "▁ስልጠና",
        -4026.0
      ],
      [
        "ታችሁ",
        -4027.0
      ],
      [
        "በታል",
        -4028.0
      ],
      [
        "▁Se",
        -4029.0
      ],
      [
        "አን",
        -4030.0
      ],
      [
        "▁Dan",
        -4031.0
      ],
      [
        "▁የጋዜ",
        -4032.0
      ],
      [
        "▁1.",
        -4033.0
      ],
      [
        "ርኩ",
        -4034.0
      ],
      [
        "ቡክ",
        -4035.0
      ],
      [
        "ነህ",
        -4036.0
      ],
      [
        "▁ሰም",
        -4037.0
      ],
      [
        "▁ካልተ",
        -4038.0
      ],
      [
        "▁አስኪያ",
        -4039.0
      ],
      [
        "ሰቢያ",
        -4040.0
      ],
      [
        "iyoyin",
        -4041.0
      ],
      [
        "ናቀ",
        -4042.0
      ],
      [
        "day",
        -4043.0
      ],
      [
        "▁ፍር",
        -4044.0
      ],
      [
        "የሩ",
        -4045.0
      ],
      [
        "▁ማቅረብ",
        -4046.0
      ],
      [
        "ረፍ",
        -4047.0
      ],
      [
        "ጠኝነት",
        -4048.0
      ],
      [
        "ton",
        -4049.0
      ],
      [
        "ጥቶ",
        -4050.0
      ],
      [
        "▁manyan",
        -4051.0
      ],
      [
        "▁ሃይል",
        -4052.0
      ],
      [
        "▁ቅጣት",
        -4053.0
      ],
      [
        "ታር",
        -4054.0
      ],
      [
        "ርነት",
        -4055.0
      ],
      [
        "▁Un",
        -4056.0
      ],
      [
        "▁ለጥ",
        -4057.0
      ],
      [
        "▁ይነ",
        -4058.0
      ],
      [
        "ሉ፣",
        -4059.0
      ],
      [
        "araba",
        -4060.0
      ],
      [
        "▁wakil",
        -4061.0
      ],
      [
        "inistan",
        -4062.0
      ],
      [
        "▁ጠየ",
        -4063.0
      ],
      [
        "▁2016",
        -4064.0
      ],
      [
        "uc",
        -4065.0
      ],
      [
        "▁በቀለ",
        -4066.0
      ],
      [
        "▁ከዚህም",
        -4067.0
      ],
      [
        "▁፲",
        -4068.0
      ],
      [
        "ሸነፍ",
        -4069.0
      ],
      [
        "ንዶች",
        -4070.0
      ],
      [
        "ላቂ",
        -4071.0
      ],
      [
        "ቁን",
        -4072.0
      ],
      [
        "omi",
        -4073.0
      ],
      [
        "▁ወላ",
        -4074.0
      ],
      [
        "ክሩ",
        -4075.0
      ],
      [
        "▁maka",
        -4076.0
      ],
      [
        "dis",
        -4077.0
      ],
      [
        "▁አንፃር",
        -4078.0
      ],
      [
        "▁በስተቀር",
        -4079.0
      ],
      [
        "▁ይመል",
        -4080.0
      ],
      [
        "adar",
        -4081.0
      ],
      [
        "ሥራት",
        -4082.0
      ],
      [
        "▁kula",
        -4083.0
      ],
      [
        "▁ጌታቸው",
        -4084.0
      ],
      [
        "▁አቅራ",
        -4085.0
      ],
      [
        "▁የዘር",
        -4086.0
      ],
      [
        "▁ገዳ",
        -4087.0
      ],
      [
[...]
